MEMORY_INITIALIZATION_RADIX=2;
MEMORY_INITIALIZATION_VECTOR=  
111000000000000,
111000000000000,
111000000000000,
111000000000000,
111000000000000,
111000000000000,
111000000000000,
111000000000000,
111000000000000,
111000000000000,
111000000000000,
111000000000000,
111000000000000,
111000000000000,
111000000000000,
111000000000000,
111000000000000,
111000000000000,
111000000000000,
111000000000000,
111000000000000,
111000000000000,
111000000000000,
111000000000000,
111000000000000,
111000000000000,
111000000000000,
111000000000000,
111000000000000,
111000000000000,
111000000000000,
111000000000000,
111000000000000,
111000000000000,
111000000000000,
111000000000000,
111000000000000,
111000000000000,
111000000000000,
111000000000000,
111000000000000,
111000000000000,
111000000000000,
111000000000000,
111000000000000,
111000000000000,
111000000000000,
111000000000000,
111000000000000,
111000000000000,
111000000000000,
111000000000000,
111000000000000,
111000000000000,
111000000000000,
111000000000000,
111000000000000,
111000000000000,
111000000000000,
111000000000000,
111000000000000,
111000000000000,
111000000000000,
111000000000000,
111000000000000,
111000000000000,
111000000000000,
111000000000000,
111000000000000,
111000000000000,
111000000000000,
111000000000000,
111000000000000,
111000000000000,
111000000000000,
111000000000000,
111000000000000,
111000000000000,
111000000000000,
111000000000000,
111000000000000,
111000000000000,
111000000000000,
111000000000000,
111000000000000,
111000000000000,
111000000000000,
111000000000000,
111000000000000,
111000000000000,
111000000000000,
111000000000000,
111000000000000,
111000000000000,
111000000000000,
111000000000000,
111000000000000,
111000000000000,
111000000000000,
111000000000000,
111000000000000,
111000000000000,
111000000000000,
111000000000000,
111000000000000,
111000000000000,
111000000000000,
111000000000000,
111000000000000,
111000000000000,
111000000000000,
111000000000000,
111000000000000,
111000000000000,
111000000000000,
111000000000000,
111000000000000,
111000000000000,
111000000000000,
111000000000000,
111000000000000,
111000000000000,
111000000000000,
111000000000000,
111000000000000,
111000000000000,
111000000000000,
111000000000000,
111000000000000,
111000000000000,
111000000000000,
111000000000000,
111000000000000,
111000000000000,
111000000000000,
111000000000000,
111000000000000,
111000000000000,
111000000000000,
111000000000000,
111000000000000,
111000000000000,
111000000000000,
111000000000000,
111000000000000,
111000000000000,
111000000000000,
111000000000000,
111000000000000,
111000000000000,
111000000000000,
111000000000000,
111000000000000,
111000000000000,
111000000000000,
111000000000000,
111000000000000,
111000000000000,
111000000000000,
111000000000000,
111000000000000,
111000000000000,
111000000000000,
111000000000000,
111000000000000,
111000000000000,
111000000000000,
111000000000000,
111000000000000,
111000000000000,
111000000000000,
111000000000000,
111000000000000,
111000000000000,
111000000000000,
111000000000000,
111000000000000,
111000000000000,
111000000000000,
111000000000000,
111000000000000,
111000000000000,
111000000000000,
111000000000000,
111000000000000,
111000000000000,
111000000000000,
111000000000000,
111000000000000,
111000000000000,
111000000000000,
111000000000000,
111000000000000,
111000000000000,
111000000000000,
111000000000000,
111000000000000,
111000000000000,
111000000000000,
111000000000000,
111000000000000,
111000000000000,
111000000000000,
111000000000000,
111000000000000,
111000000000000,
111000000000000,
111000000000000,
111000000000000,
111000000000000,
111000000000000,
111000000000000,
111000000000000,
111000000000000,
111000000000000,
111000000000000,
111000000000000,
111000000000000,
111000000000000,
111000000000000,
111000000000000,
111000000000000,
111000000000000,
111000000000000,
111000000000000,
111000000000000,
111000000000000,
111000000000000,
111000000000000,
111000000000000,
111000000000000,
111000000000000,
111000000000000,
111000000000000,
111000000000000,
111000000000000,
111000000000000,
111000000000000,
111000000000000,
111000000000000,
111000000000000,
111000000000000,
111000000000000,
111000000000000,
111000000000000,
111000000000000,
111000000000000,
111000000000000,
111000000000000,
111000000000000,
111000000000000,
111000000000000,
111000000000000,
111000000000000,
111000000000000,
111000000000000,
111000000000000,
111000000000000,
111000000000000,
111000000000000,
111000000000000,
111000000000000,
111000000000000,
111000000000000,
111000000000000,
111000000000000,
111000000000000,
111000000000000,
111000000000000,
111000000000000,
111000000000000,
111000000000000,
111000000000000,
111000000000000,
111000000000000,
111000000000000,
111000000000000,
111000000000000,
111000000000000,
111000000000000,
111000000000000,
111000000000000,
111000000000000,
111000000000000,
111000000000000,
111000000000000,
111000000000000,
111000000000000,
111000000000000,
111000000000000,
111000000000000,
111000000000000,
111000000000000,
111000000000000,
111000000000000,
111000000000000,
111000000000000,
111000000000000,
111000000000000,
111000000000000,
111000000000000,
111000000000000,
111000000000000,
111000000000000,
111000000000000,
111000000000000,
111000000000000,
111000000000000,
111000000000000,
111000000000000,
111000000000000,
111000000000000,
111000000000000,
111000000000000,
111000000000000,
111000000000000,
111000000000000,
111000000000000,
111000000000000,
111000000000000,
111000000000000,
111000000000000,
111000000000000,
111000000000000,
111000000000000,
111000000000000,
111000000000000,
111000000000000,
111000000000000,
111000000000000,
111000000000000,
111000000000000,
111000000000000,
111000000000000,
111000000000000,
111000000000000,
111000000000000,
111000000000000,
111000000000000,
111000000000000,
111000000000000,
111000000000000,
111000000000000,
111000000000000,
111000000000000,
111000000000000,
111000000000000,
111000000000000,
111000000000000,
111000000000000,
111000000000000,
111000000000000,
111000000000000,
111000000000000,
111000000000000,
111000000000000,
111000000000000,
111000000000000,
111000000000000,
111000000000000,
111000000000000,
111000000000000,
111000000000000,
111000000000000,
111000000000000,
111000000000000,
111000000000000,
111000000000000,
111000000000000,
111000000000000,
111000000000000,
111000000000000,
111000000000000,
111000000000000,
111000000000000,
111000000000000,
111000000000000,
111000000000000,
111000000000000,
111000000000000,
111000000000000,
111000000000000,
111000000000000,
111000000000000,
111000000000000,
111000000000000,
111000000000000,
111000000000000,
111000000000000,
111000000000000,
111000000000000,
111000000000000,
111000000000000,
111000000000000,
111000000000000,
111000000000000,
111000000000000,
111000000000000,
111000000000000,
111000000000000,
111000000000000,
111000000000000,
111000000000000,
111000000000000,
111000000000000,
111000000000000,
111000000000000,
111000000000000,
111000000000000,
111000000000000,
111000000000000,
111000000000000,
111000000000000,
111000000000000,
111000000000000,
111000000000000,
111000000000000,
111000000000000,
111000000000000,
111000000000000,
111000000000000,
111000000000000,
111000000000000,
111000000000000,
111000000000000,
111000000000000,
111000000000000,
111000000000000,
111000000000000,
111000000000000,
111000000000000,
111000000000000,
111000000000000,
111000000000000,
111000000000000,
111000000000000,
111000000000000,
111000000000000,
111000000000000,
111000000000000,
111000000000000,
111000000000000,
111000000000000,
111000000000000,
111000000000000,
111000000000000,
111000000000000,
111000000000000,
111000000000000,
111000000000000,
111000000000000,
111000000000000,
111000000000000,
111000000000000,
111000000000000,
111000000000000,
111000000000000,
111000000000000,
111000000000000,
111000000000000,
111000000000000,
111000000000000,
111000000000000,
111000000000000,
111000000000000,
111000000000000,
111000000000000,
111000000000000,
111000000000000,
111000000000000,
111000000000000,
111000000000000,
111000000000000,
111000000000000,
111000000000000,
111000000000000,
111000000000000,
111000000000000,
111000000000000,
111000000000000,
111000000000000,
111000000000000,
111000000000000,
111000000000000,
111000000000000,
111000000000000,
111000000000000,
111000000000000,
111000000000000,
111000000000000,
111000000000000,
111000000000000,
111000000000000,
111000000000000,
111000000000000,
111000000000000,
111000000000000,
111000000000000,
111000000000000,
111000000000000,
111000000000000,
111000000000000,
111000000000000,
111000000000000,
111000000000000,
111000000000000,
111000000000000,
111000000000000,
111000000000000,
111000000000000,
111000000000000,
111000000000000,
111000000000000,
111000000000000,
111000000000000,
111000000000000,
111000000000000,
111000000000000,
111000000000000,
111000000000000,
111000000000000,
111000000000000,
111000000000000,
111000000000000,
111000000000000,
111000000000000,
111000000000000,
111000000000000,
111000000000000,
111000000000000,
111000000000000,
111000000000000,
111000000000000,
111000000000000,
111000000000000,
111000000000000,
111000000000000,
111000000000000,
111000000000000,
111000000000000,
111000000000000,
111000000000000,
111000000000000,
111000000000000,
111000000000000,
111000000000000,
111000000000000,
111000000000000,
111000000000000,
111000000000000,
111000000000000,
111000000000000,
111000000000000,
111000000000000,
111000000000000,
111000000000000,
111000000000000,
111000000000000,
111000000000000,
111000000000000,
111000000000000,
111000000000000,
111000000000000,
111000000000000,
111000000000000,
111000000000000,
111000000000000,
111000000000000,
111000000000000,
111000000000000,
111000000000000,
111000000000000,
111000000000000,
111000000000000,
111000000000000,
111000000000000,
111000000000000,
111000000000000,
111000000000000,
111000000000000,
111000000000000,
111000000000000,
111000000000000,
111000000000000,
111000000000000,
111000000000000,
111000000000000,
111000000000000,
111000000000000,
111000000000000,
111000000000000,
111000000000000,
111000000000000,
111000000000000,
111000000000000,
111000000000000,
111000000000000,
111000000000000,
111000000000000,
111000000000000,
111000000000000,
111000000000000,
111000000000000,
111000000000000,
111000000000000,
111000000000000,
111000000000000,
111000000000000,
111000000000000,
111000000000000,
111000000000000,
111000000000000,
111000000000000,
111000000000000,
111000000000000,
111000000000000,
111000000000000,
111000000000000,
111000000000000,
111000000000000,
111000000000000,
111000000000000,
111000000000000,
111000000000000,
111000000000000,
111000000000000,
111000000000000,
111000000000000,
111000000000000,
111000000000000,
111000000000000,
111000000000000,
111000000000000,
111000000000000,
111000000000000,
111000000000000,
111000000000000,
111000000000000,
111000000000000,
111000000000000,
111000000000000,
111000000000000,
111000000000000,
111000000000000,
111000000000000,
111000000000000,
111000000000000,
111000000000000,
111000000000000,
111000000000000,
111000000000000,
111000000000000,
111000000000000,
111000000000000,
111000000000000,
111000000000000,
111000000000000,
111000000000000,
111000000000000,
111000000000000,
111000000000000,
111000000000000,
111000000000000,
111000000000000,
111000000000000,
111000000000000,
111000000000000,
111000000000000,
111000000000000,
111000000000000,
111000000000000,
111000000000000,
111000000000000,
111000000000000,
111000000000000,
111000000000000,
111000000000000,
111000000000000,
111000000000000,
111000000000000,
111000000000000,
111000000000000,
111000000000000,
111000000000000,
111000000000000,
111000000000000,
111000000000000,
111000000000000,
111000000000000,
111000000000000,
111000000000000,
111000000000000,
111000000000000,
111000000000000,
111000000000000,
111000000000000,
111000000000000,
111000000000000,
111000000000000,
111000000000000,
111000000000000,
111000000000000,
111000000000000,
111000000000000,
111000000000000,
111000000000000,
111000000000000,
111000000000000,
111000000000000,
111000000000000,
111000000000000,
111000000000000,
111000000000000,
111000000000000,
111000000000000,
111000000000000,
111000000000000,
111000000000000,
111000000000000,
111000000000000,
111000000000000,
111000000000000,
111000000000000,
111000000000000,
111000000000000,
111000000000000,
111000000000000,
111000000000000,
111000000000000,
111000000000000,
111000000000000,
111000000000000,
111000000000000,
111000000000000,
111000000000000,
111000000000000,
111000000000000,
111000000000000,
111000000000000,
111000000000000,
111000000000000,
111000000000000,
111000000000000,
111000000000000,
111000000000000,
111000000000000,
111000000000000,
111000000000000,
111000000000000,
111000000000000,
111000000000000,
111000000000000,
111000000000000,
111000000000000,
111000000000000,
111000000000000,
111000000000000,
111000000000000,
111000000000000,
111000000000000,
111000000000000,
111000000000000,
111000000000000,
111000000000000,
111000000000000,
111000000000000,
111000000000000,
111000000000000,
111000000000000,
111000000000000,
111000000000000,
111000000000000,
111000000000000,
111000000000000,
111000000000000,
111000000000000,
111000000000000,
111000000000000,
111000000000000,
111000000000000,
111000000000000,
111000000000000,
111000000000000,
111000000000000,
111000000000000,
111000000000000,
111000000000000,
111000000000000,
111000000000000,
111000000000000,
111000000000000,
111000000000000,
111000000000000,
111000000000000,
111000000000000,
111000000000000,
111000000000000,
111000000000000,
111000000000000,
111000000000000,
111000000000000,
111000000000000,
111000000000000,
111000000000000,
111000000000000,
111000000000000,
111000000000000,
111000000000000,
111000000000000,
111000000000000,
111000000000000,
111000000000000,
111000000000000,
111000000000000,
111000000000000,
111000000000000,
111000000000000,
111000000000000,
111000000000000,
111000000000000,
111000000000000,
111000000000000,
111000000000000,
111000000000000,
111000000000000,
111000000000000,
111000000000000,
111000000000000,
111000000000000,
111000000000000,
111000000000000,
111000000000000,
111000000000000,
111000000000000,
111000000000000,
111000000000000,
111000000000000,
111000000000000,
111000000000000,
111000000000000,
111000000000000,
111000000000000,
111000000000000,
111000000000000,
111000000000000,
111000000000000,
111000000000000,
111000000000000,
111000000000000,
111000000000000,
111000000000000,
111000000000000,
111000000000000,
111000000000000,
111000000000000,
111000000000000,
111000000000000,
111000000000000,
111000000000000,
111000000000000,
111000000000000,
111000000000000,
111000000000000,
111000000000000,
111000000000000,
111000000000000,
111000000000000,
111000000000000,
111000000000000,
111000000000000,
111000000000000,
111000000000000,
111000000000000,
111000000000000,
111000000000000,
111000000000000,
111000000000000,
111000000000000,
111000000000000,
111000000000000,
111000000000000,
111000000000000,
111000000000000,
111000000000000,
111000000000000,
111000000000000,
111000000000000,
111000000000000,
111000000000000,
111000000000000,
111000000000000,
111000000000000,
111000000000000,
111000000000000,
111000000000000,
111000000000000,
111000000000000,
111000000000000,
111000000000000,
111000000000000,
111000000000000,
111000000000000,
111000000000000,
111000000000000,
111000000000000,
111000000000000,
111000000000000,
111000000000000,
111000000000000,
111000000000000,
111000000000000,
111000000000000,
111000000000000,
111000000000000,
111000000000000,
111000000000000,
111000000000000,
111000000000000,
111000000000000,
111000000000000,
111000000000000,
111000000000000,
111000000000000,
111000000000000,
111000000000000,
111000000000000,
111000000000000,
111000000000000,
111000000000000,
111000000000000,
111000000000000,
111000000000000,
111000000000000,
111000000000000,
111000000000000,
111000000000000,
111000000000000,
111000000000000,
111000000000000,
111000000000000,
111000000000000,
111000000000000,
111000000000000,
111000000000000,
111000000000000,
111000000000000,
111000000000000,
111000000000000,
111000000000000,
111000000000000,
111000000000000,
111000000000000,
111000000000000,
111000000000000,
111000000000000,
111000000000000,
111000000000000,
111000000000000,
111000000000000,
111000000000000,
111000000000000,
111000000000000,
111000000000000,
111000000000000,
111000000000000,
111000000000000,
111000000000000,
111000000000000,
111000000000000,
111000000000000,
111000000000000,
111000000000000,
111000000000000,
111000000000000,
111000000000000,
111000000000000,
111000000000000,
111000000000000,
111000000000000,
111000000000000,
111000000000000,
111000000000000,
111000000000000,
111000000000000,
111000000000000,
111000000000000,
111000000000000,
111000000000000,
111000000000000,
111000000000000,
111000000000000,
111000000000000,
111000000000000,
111000000000000,
111000000000000,
111000000000000,
111000000000000,
111000000000000,
111000000000000,
111000000000000,
111000000000000,
111000000000000,
111000000000000,
111000000000000,
111000000000000,
111000000000000,
111000000000000,
111000000000000,
111000000000000,
111000000000000,
111000000000000,
111000000000000,
111000000000000,
111000000000000,
111000000000000,
111000000000000,
111000000000000,
111000000000000,
111000000000000,
111000000000000,
111000000000000,
111000000000000,
111000000000000,
111000000000000,
111000000000000,
111000000000000,
111000000000000,
111000000000000,
111000000000000,
111000000000000,
111000000000000,
111000000000000,
111000000000000,
111000000000000,
111000000000000,
111000000000000,
111000000000000,
111000000000000,
111000000000000,
111000000000000,
111000000000000,
111000000000000,
111000000000000,
111000000000000,
111000000000000,
111000000000000,
111000000000000,
111000000000000,
111000000000000,
111000000000000,
111000000000000,
111000000000000,
111000000000000,
111000000000000,
111000000000000,
111000000000000,
111000000000000,
111000000000000,
111000000000000,
111000000000000,
111000000000000,
111000000000000,
111000000000000,
111000000000000,
111000000000000,
111000000000000,
111000000000000,
111000000000000,
111000000000000,
111000000000000,
111000000000000,
111000000000000,
111000000000000,
111000000000000,
111000000000000,
111000000000000,
111000000000000,
111000000000000,
111000000000000,
111000000000000,
111000000000000,
111000000000000,
111000000000000,
111000000000000,
111000000000000,
111000000000000,
111000000000000,
111000000000000,
111000000000000,
111000000000000,
111000000000000,
111000000000000,
111000000000000,
111000000000000,
111000000000000,
111000000000000,
111000000000000,
111000000000000,
111000000000000,
111000000000000,
111000000000000,
111000000000000,
111000000000000,
111000000000000,
111000000000000,
111000000000000,
111000000000000,
111000000000000,
111000000000000,
111000000000000,
111000000000000,
111000000000000,
111000000000000,
111000000000000,
111000000000000,
111000000000000,
111000000000000,
111000000000000,
111000000000000,
111000000000000,
111000000000000,
111000000000000,
111000000000000,
111000000000000,
111000000000000,
111000000000000,
111000000000000,
111000000000000,
111000000000000,
111000000000000,
111000000000000,
111000000000000,
111000000000000,
111000000000000,
111000000000000,
111000000000000,
111000000000000,
111000000000000,
111000000000000,
111000000000000,
111000000000000,
111000000000000,
111000000000000,
111000000000000,
111000000000000,
111000000000000,
111000000000000,
111000000000000,
111000000000000,
111000000000000,
111000000000000,
111000000000000,
111000000000000,
111000000000000,
111000000000000,
111000000000000,
111000000000000,
111000000000000,
111000000000000,
111000000000000,
111000000000000,
111000000000000,
111000000000000,
111000000000000,
111000000000000,
111000000000000,
111000000000000,
111000000000000,
111000000000000,
111000000000000,
111000000000000,
111000000000000,
111000000000000,
111000000000000,
111000000000000,
111000000000000,
111000000000000,
111000000000000,
111000000000000,
111000000000000,
111000000000000,
111000000000000,
111000000000000,
111000000000000,
111000000000000,
111000000000000,
111000000000000,
111000000000000,
111000000000000,
111000000000000,
111000000000000,
111000000000000,
111000000000000,
111000000000000,
111000000000000,
111000000000000,
111000000000000,
111000000000000,
111000000000000,
111000000000000,
111000000000000,
111000000000000,
111000000000000,
111000000000000,
111000000000000,
111000000000000,
111000000000000,
111000000000000,
111000000000000,
111000000000000,
111000000000000,
111000000000000,
111000000000000,
111000000000000,
111000000000000,
111000000000000,
111000000000000,
111000000000000,
111000000000000,
111000000000000,
111000000000000,
111000000000000,
111000000000000,
111000000000000,
111000000000000,
111000000000000,
111000000000000,
111000000000000,
111000000000000,
111000000000000,
111000000000000,
111000000000000,
111000000000000,
111000000000000,
111000000000000,
111000000000000,
111000000000000,
111000000000000,
111000000000000,
111000000000000,
111000000000000,
111000000000000,
111000000000000,
111000000000000,
111000000000000,
111000000000000,
111000000000000,
111000000000000,
111000000000000,
111000000000000,
111000000000000,
111000000000000,
111000000000000,
111000000000000,
111000000000000,
111000000000000,
111000000000000,
111000000000000,
111000000000000,
111000000000000,
111000000000000,
111000000000000,
111000000000000,
111000000000000,
111000000000000,
111000000000000,
111000000000000,
111000000000000,
111000000000000,
111000000000000,
111000000000000,
111000000000000,
111000000000000,
111000000000000,
111000000000000,
111000000000000,
111000000000000,
111000000000000,
111000000000000,
111000000000000,
111000000000000,
111000000000000,
111000000000000,
111000000000000,
111000000000000,
111000000000000,
111000000000000,
111000000000000,
111000000000000,
111000000000000,
111000000000000,
111000000000000,
111000000000000,
111000000000000,
111000000000000,
111000000000000,
111000000000000,
111000000000000,
111000000000000,
111000000000000,
111000000000000,
111000000000000,
111000000000000,
111000000000000,
111000000000000,
111000000000000,
111000000000000,
111000000000000,
111000000000000,
111000000000000,
111000000000000,
111000000000000,
111000000000000,
111000000000000,
111000000000000,
111000000000000,
111000000000000,
111000000000000,
111000000000000,
111000000000000,
111000000000000,
111000000000000,
111000000000000,
111000000000000,
111000000000000,
111000000000000,
111000000000000,
111000000000000,
111000000000000,
111000000000000,
111000000000000,
111000000000000,
111000000000000,
111000000000000,
111000000000000,
111000000000000,
111000000000000,
111000000000000,
111000000000000,
111000000000000,
111000000000000,
111000000000000,
111000000000000,
111000000000000,
111000000000000,
111000000000000,
111000000000000,
111000000000000,
111000000000000,
111000000000000,
111000000000000,
111000000000000,
111000000000000,
111000000000000,
111000000000000,
111000000000000,
111000000000000,
111000000000000,
111000000000000,
111000000000000,
111000000000000,
111000000000000,
111000000000000,
111000000000000,
111000000000000,
111000000000000,
111000000000000,
111000000000000,
111000000000000,
111000000000000,
111000000000000,
111000000000000,
111000000000000,
111000000000000,
111000000000000,
111000000000000,
111000000000000,
111000000000000,
111000000000000,
111000000000000,
111000000000000,
111000000000000,
111000000000000,
111000000000000,
111000000000000,
111000000000000,
111000000000000,
111000000000000,
111000000000000,
111000000000000,
111000000000000,
111000000000000,
111000000000000,
111000000000000,
111000000000000,
111000000000000,
111000000000000,
111000000000000,
111000000000000,
111000000000000,
111000000000000,
111000000000000,
111000000000000,
111000000000000,
111000000000000,
111000000000000,
111000000000000,
111000000000000,
111000000000000,
111000000000000,
111000000000000,
111000000000000,
111000000000000,
111000000000000,
111000000000000,
111000000000000,
111000000000000,
111000000000000,
111000000000000,
111000000000000,
111000000000000,
111000000000000,
111000000000000,
111000000000000,
111000000000000,
111000000000000,
111000000000000,
111000000000000,
111000000000000,
111000000000000,
111000000000000,
111000000000000,
111000000000000,
111000000000000,
111000000000000,
111000000000000,
111000000000000,
111000000000000,
111000000000000,
111000000000000,
111000000000000,
111000000000000,
111000000000000,
111000000000000,
111000000000000,
111000000000000,
111000000000000,
111000000000000,
111000000000000,
111000000000000,
111000000000000,
111000000000000,
111000000000000,
111000000000000,
111000000000000,
111000000000000,
111000000000000,
111000000000000,
111000000000000,
111000000000000,
111000000000000,
111000000000000,
111000000000000,
111000000000000,
111000000000000,
111000000000000,
111000000000000,
111000000000000,
111000000000000,
111000000000000,
111000000000000,
111000000000000,
111000000000000,
111000000000000,
111000000000000,
111000000000000,
111000000000000,
111000000000000,
111000000000000,
111000000000000,
111000000000000,
111000000000000,
111000000000000,
111000000000000,
111000000000000,
111000000000000,
111000000000000,
111000000000000,
111000000000000,
111000000000000,
111000000000000,
111000000000000,
111000000000000,
111000000000000,
111000000000000,
111000000000000,
111000000000000,
111000000000000,
111000000000000,
111000000000000,
111000000000000,
111000000000000,
111000000000000,
111000000000000,
111000000000000,
111000000000000,
111000000000000,
111000000000000,
111000000000000,
111000000000000,
111000000000000,
111000000000000,
111000000000000,
111000000000000,
111000000000000,
111000000000000,
111000000000000,
111000000000000,
111000000000000,
111000000000000,
111000000000000,
111000000000000,
111000000000000,
111000000000000,
111000000000000,
111000000000000,
111000000000000,
111000000000000,
111000000000000,
111000000000000,
111000000000000,
111000000000000,
111000000000000,
111000000000000,
111000000000000,
111000000000000,
111000000000000,
111000000000000,
111000000000000,
111000000000000,
111000000000000,
111000000000000,
111000000000000,
111000000000000,
111000000000000,
111000000000000,
111000000000000,
111000000000000,
111000000000000,
111000000000000,
111000000000000,
111000000000000,
111000000000000,
111000000000000,
111000000000000,
111000000000000,
111000000000000,
111000000000000,
111000000000000,
111000000000000,
111000000000000,
111000000000000,
111000000000000,
111000000000000,
111000000000000,
111000000000000,
111000000000000,
111000000000000,
111000000000000,
111000000000000,
111000000000000,
111000000000000,
111000000000000,
111000000000000,
111000000000000,
111000000000000,
111000000000000,
111000000000000,
111000000000000,
111000000000000,
111000000000000,
111000000000000,
111000000000000,
111000000000000,
111000000000000,
111000000000000,
111000000000000,
111000000000000,
111000000000000,
111000000000000,
111000000000000,
111000000000000,
111000000000000,
111000000000000,
111000000000000,
111000000000000,
111000000000000,
111000000000000,
111000000000000,
111000000000000,
111000000000000,
111000000000000,
111000000000000,
111000000000000,
111000000000000,
111000000000000,
111000000000000,
111000000000000,
111000000000000,
111000000000000,
111000000000000,
111000000000000,
111000000000000,
111000000000000,
111000000000000,
111000000000000,
111000000000000,
111000000000000,
111000000000000,
111000000000000,
111000000000000,
111000000000000,
111000000000000,
111000000000000,
111000000000000,
111000000000000,
111000000000000,
111000000000000,
111000000000000,
111000000000000,
111000000000000,
111000000000000,
111000000000000,
111000000000000,
111000000000000,
111000000000000,
111000000000000,
111000000000000,
111000000000000,
111000000000000,
111000000000000,
111000000000000,
111000000000000,
111000000000000,
111000000000000,
111000000000000,
111000000000000,
111000000000000,
111000000000000,
111000000000000,
111000000000000,
111000000000000,
111000000000000,
111000000000000,
111000000000000,
111000000000000,
111000000000000,
111000000000000,
111000000000000,
111000000000000,
111000000000000,
111000000000000,
111000000000000,
111000000000000,
111000000000000,
111000000000000,
111000000000000,
111000000000000,
111000000000000,
111000000000000,
111000000000000,
111000000000000,
111000000000000,
111000000000000,
111000000000000,
111000000000000,
111000000000000,
111000000000000,
111000000000000,
111000000000000,
111000000000000,
111000000000000,
111000000000000,
111000000000000,
111000000000000,
111000000000000,
111000000000000,
111000000000000,
111000000000000,
111000000000000,
111000000000000,
111000000000000,
111000000000000,
111000000000000,
111000000000000,
111000000000000,
111000000000000,
111000000000000,
111000000000000,
111000000000000,
111000000000000,
111000000000000,
111000000000000,
111000000000000,
111000000000000,
111000000000000,
111000000000000,
111000000000000,
111000000000000,
111000000000000,
111000000000000,
111000000000000,
111000000000000,
111000000000000,
111000000000000,
111000000000000,
111000000000000,
111000000000000,
111000000000000,
111000000000000,
111000000000000,
111000000000000,
111000000000000,
111000000000000,
111000000000000,
111000000000000,
111000000000000,
111000000000000,
111000000000000,
111000000000000,
111000000000000,
111000000000000,
111000000000000,
111000000000000,
111000000000000,
111000000000000,
111000000000000,
111000000000000,
111000000000000,
111000000000000,
111000000000000,
111000000000000,
111000000000000,
111000000000000,
111000000000000,
111000000000000,
111000000000000,
111000000000000,
111000000000000,
111000000000000,
111000000000000,
111000000000000,
111000000000000,
111000000000000,
111000000000000,
111000000000000,
111000000000000,
111000000000000,
111000000000000,
111000000000000,
111000000000000,
111000000000000,
111000000000000,
111000000000000,
111000000000000,
111000000000000,
111000000000000,
111000000000000,
111000000000000,
111000000000000,
111000000000000,
111000000000000,
111000000000000,
111000000000000,
111000000000000,
111000000000000,
111000000000000,
111000000000000,
111000000000000,
111000000000000,
111000000000000,
111000000000000,
111000000000000,
111000000000000,
111000000000000,
111000000000000,
111000000000000,
111000000000000,
111000000000000,
111000000000000,
111000000000000,
111000000000000,
111000000000000,
111000000000000,
111000000000000,
111000000000000,
111000000000000,
111000000000000,
111000000000000,
111000000000000,
111000000000000,
111000000000000,
111000000000000,
111000000000000,
111000000000000,
111000000000000,
111000000000000,
111000000000000,
111000000000000,
111000000000000,
111000000000000,
111000000000000,
111000000000000,
111000000000000,
111000000000000,
111000000000000,
111000000000000,
111000000000000,
111000000000000,
111000000000000,
111000000000000,
111000000000000,
111000000000000,
111000000000000,
111000000000000,
111000000000000,
111000000000000,
111000000000000,
111000000000000,
111000000000000,
111000000000000,
111000000000000,
111000000000000,
111000000000000,
111000000000000,
111000000000000,
111000000000000,
111000000000000,
111000000000000,
111000000000000,
111000000000000,
111000000000000,
111000000000000,
111000000000000,
111000000000000,
111000000000000,
111000000000000,
111000000000000,
111000000000000,
111000000000000,
111000000000000,
111000000000000,
111000000000000,
111000000000000,
111000000000000,
111000000000000,
111000000000000,
111000000000000,
111000000000000,
111000000000000,
111000000000000,
111000000000000,
111000000000000,
111000000000000,
111000000000000,
111000000000000,
111000000000000,
111000000000000,
111000000000000,
111000000000000,
111000000000000,
111000000000000,
111000000000000,
111000000000000,
111000000000000,
111000000000000,
111000000000000,
111000000000000,
111000000000000,
111000000000000,
111000000000000,
111000000000000,
111000000000000,
111000000000000,
111000000000000,
111000000000000,
111000000000000,
111000000000000,
111000000000000,
111000000000000,
111000000000000,
111000000000000,
111000000000000,
111000000000000,
111000000000000,
111000000000000,
111000000000000,
111000000000000,
111000000000000,
111000000000000,
111000000000000,
111000000000000,
111000000000000,
111000000000000,
111000000000000,
111000000000000,
111000000000000,
111000000000000,
111000000000000,
111000000000000,
111000000000000,
111000000000000,
111000000000000,
111000000000000,
111000000000000,
111000000000000,
111000000000000,
111000000000000,
111000000000000,
111000000000000,
111000000000000,
111000000000000,
111000000000000,
111000000000000,
111000000000000,
111000000000000,
111000000000000,
111000000000000,
111000000000000,
111000000000000,
111000000000000,
111000000000000,
111000000000000,
111000000000000,
111000000000000,
111000000000000,
111000000000000,
111000000000000,
111000000000000,
111000000000000,
111000000000000,
111000000000000,
111000000000000,
111000000000000,
111000000000000,
111000000000000,
111000000000000,
111000000000000,
111000000000000,
111000000000000,
111000000000000,
111000000000000,
111000000000000,
111000000000000,
111000000000000,
111000000000000,
111000000000000,
111000000000000,
111000000000000,
111000000000000,
111000000000000,
111000000000000,
111000000000000,
111000000000000,
111000000000000,
111000000000000,
111000000000000,
111000000000000,
111000000000000,
111000000000000,
111000000000000,
111000000000000,
111000000000000,
111000000000000,
111000000000000,
111000000000000,
111000000000000,
111000000000000,
111000000000000,
111000000000000,
111000000000000,
111000000000000,
111000000000000,
111000000000000,
111000000000000,
111000000000000,
111000000000000,
111000000000000,
111000000000000,
111000000000000,
111000000000000,
111000000000000,
111000000000000,
111000000000000,
111000000000000,
111000000000000,
111000000000000,
111000000000000,
111000000000000,
111000000000000,
111000000000000,
111000000000000,
111000000000000,
111000000000000,
111000000000000,
111000000000000,
111000000000000,
111000000000000,
111000000000000,
111000000000000,
111000000000000,
111000000000000,
111000000000000,
111000000000000,
111000000000000,
111000000000000,
111000000000000,
111000000000000,
111000000000000,
111000000000000,
111000000000000,
111000000000000,
111000000000000,
111000000000000,
111000000000000,
111000000000000,
111000000000000,
111000000000000,
111000000000000,
111000000000000,
111000000000000,
111000000000000,
111000000000000,
111000000000000,
111000000000000,
111000000000000,
111000000000000,
111000000000000,
111000000000000,
111000000000000,
111000000000000,
111000000000000,
111000000000000,
111000000000000,
111000000000000,
111000000000000,
111000000000000,
111000000000000,
111000000000000,
111000000000000,
111000000000000,
111000000000000,
111000000000000,
111000000000000,
111000000000000,
111000000000000,
111000000000000,
111000000000000,
111000000000000,
111000000000000,
111000000000000,
111000000000000,
111000000000000,
111000000000000,
111000000000000,
111000000000000,
111000000000000,
111000000000000,
111000000000000,
111000000000000,
111000000000000,
111000000000000,
111000000000000,
111000000000000,
111000000000000,
111000000000000,
111000000000000,
111000000000000,
111000000000000,
111000000000000,
111000000000000,
111000000000000,
111000000000000,
111000000000000,
111000000000000,
111000000000000,
111000000000000,
111000000000000,
111000000000000,
111000000000000,
111000000000000,
111000000000000,
111000000000000,
111000000000000,
111000000000000,
111000000000000,
111000000000000,
111000000000000,
111000000000000,
111000000000000,
111000000000000,
111000000000000,
111000000000000,
111000000000000,
111000000000000,
111000000000000,
111000000000000,
111000000000000,
111000000000000,
111000000000000,
111000000000000,
111000000000000,
111000000000000,
111000000000000,
111000000000000,
111000000000000,
111000000000000,
111000000000000,
111000000000000,
111000000000000,
111000000000000,
111000000000000,
111000000000000,
111000000000000,
111000000000000,
111000000000000,
111000000000000,
111000000000000,
111000000000000,
111000000000000,
111000000000000,
111000000000000,
111000000000000,
111000000000000,
111000000000000,
111000000000000,
111000000000000,
111000000000000,
111000000000000,
111000000000000,
111000000000000,
111000000000000,
111000000000000,
111000000000000,
111000000000000,
111000000000000,
111000000000000,
111000000000000,
111000000000000,
111000000000000,
111000000000000,
111000000000000,
111000000000000,
111000000000000,
111000000000000,
111000000000000,
111000000000000,
111000000000000,
111000000000000,
111000000000000,
111000000000000,
111000000000000,
111000000000000,
111000000000000,
111000000000000,
111000000000000,
111000000000000,
111000000000000,
111000000000000,
111000000000000,
111000000000000,
111000000000000,
111000000000000,
111000000000000,
111000000000000,
111000000000000,
111000000000000,
111000000000000,
111000000000000,
111000000000000,
111000000000000,
111000000000000,
111000000000000,
111000000000000,
111000000000000,
111000000000000,
111000000000000,
111000000000000,
111000000000000,
111000000000000,
111000000000000,
111000000000000,
111000000000000,
111000000000000,
111000000000000,
111000000000000,
111000000000000,
111000000000000,
111000000000000,
111000000000000,
111000000000000,
111000000000000,
111000000000000,
111000000000000,
111000000000000,
111000000000000,
111000000000000,
111000000000000,
111000000000000,
111000000000000,
111000000000000,
111000000000000,
111000000000000,
111000000000000,
111000000000000,
111000000000000,
111000000000000,
111000000000000,
111000000000000,
111000000000000,
111000000000000,
111000000000000,
111000000000000,
111000000000000,
111000000000000,
111000000000000,
111000000000000,
111000000000000,
111000000000000,
111000000000000,
111000000000000,
111000000000000,
111000000000000,
111000000000000,
111000000000000,
111000000000000,
111000000000000,
111000000000000,
111000000000000,
111000000000000,
111000000000000,
111000000000000,
111000000000000,
111000000000000,
111000000000000,
111000000000000,
111000000000000,
111000000000000,
111000000000000,
111000000000000,
111000000000000,
111000000000000,
111000000000000,
111000000000000,
111000000000000,
111000000000000,
111000000000000,
111000000000000,
111000000000000,
111000000000000,
111000000000000,
111000000000000,
111000000000000,
111000000000000,
111000000000000,
111000000000000,
111000000000000,
111000000000000,
111000000000000,
111000000000000,
111000000000000,
111000000000000,
111000000000000,
111000000000000,
111000000000000,
111000000000000,
111000000000000,
111000000000000,
111000000000000,
111000000000000,
111000000000000,
111000000000000,
111000000000000,
111000000000000,
111000000000000,
111000000000000,
111000000000000,
111000000000000,
111000000000000,
111000000000000,
111000000000000,
111000000000000,
111000000000000,
111000000000000,
111000000000000,
111000000000000,
111000000000000,
111000000000000,
111000000000000,
111000000000000,
111000000000000,
111000000000000,
111000000000000,
111000000000000,
111000000000000,
111000000000000,
111000000000000,
111000000000000,
111000000000000,
111000000000000,
111000000000000,
111000000000000,
111000000000000,
111000000000000,
111000000000000,
111000000000000,
111000000000000,
111000000000000,
111000000000000,
111000000000000,
111000000000000,
111000000000000,
111000000000000,
111000000000000,
111000000000000,
111000000000000,
111000000000000,
111000000000000,
111000000000000,
111000000000000,
111000000000000,
111000000000000,
111000000000000,
111000000000000,
111000000000000,
111000000000000,
111000000000000,
111000000000000,
111000000000000,
111000000000000,
111000000000000,
111000000000000,
111000000000000,
111000000000000,
111000000000000,
111000000000000,
111000000000000,
111000000000000,
111000000000000,
111000000000000,
111000000000000,
111000000000000,
111000000000000,
111000000000000,
111000000000000,
111000000000000,
111000000000000,
111000000000000,
111000000000000,
111000000000000,
111000000000000,
111000000000000,
111000000000000,
111000000000000,
111000000000000,
111000000000000,
111000000000000,
111000000000000,
111000000000000,
111000000000000,
111000000000000,
111000000000000,
111000000000000,
111000000000000,
111000000000000,
111000000000000,
111000000000000,
111000000000000,
111000000000000,
111000000000000,
111000000000000,
111000000000000,
111000000000000,
111000000000000,
111000000000000,
111000000000000,
111000000000000,
111000000000000,
111000000000000,
111000000000000,
111000000000000,
111000000000000,
111000000000000,
111000000000000,
111000000000000,
111000000000000,
111000000000000,
111000000000000,
111000000000000,
111000000000000,
111000000000000,
111000000000000,
111000000000000,
111000000000000,
111000000000000,
111000000000000,
111000000000000,
111000000000000,
111000000000000,
111000000000000,
111000000000000,
111000000000000,
111000000000000,
111000000000000,
111000000000000,
111000000000000,
111000000000000,
111000000000000,
111000000000000,
111000000000000,
111000000000000,
111000000000000,
111000000000000,
111000000000000,
111000000000000,
111000000000000,
111000000000000,
111000000000000,
111000000000000,
111000000000000,
111000000000000,
111000000000000,
111000000000000,
111000000000000,
111000000000000,
111000000000000,
111000000000000,
111000000000000,
111000000000000,
111000000000000,
111000000000000,
111000000000000,
111000000000000,
111000000000000,
111000000000000,
111000000000000,
111000000000000,
111000000000000,
111000000000000,
111000000000000,
111000000000000,
111000000000000,
111000000000000,
111000000000000,
111000000000000,
111000000000000,
111000000000000,
111000000000000,
111000000000000,
111000000000000,
111000000000000,
111000000000000,
111000000000000,
111000000000000,
111000000000000,
111000000000000,
111000000000000,
111000000000000,
111000000000000,
111000000000000,
111000000000000,
111000000000000,
111000000000000,
111000000000000,
111000000000000,
111000000000000,
111000000000000,
111000000000000,
111000000000000,
111000000000000,
111000000000000,
111000000000000,
111000000000000,
111000000000000,
111000000000000,
111000000000000,
111000000000000,
111000000000000,
111000000000000,
111000000000000,
111000000000000,
111000000000000,
111000000000000,
111000000000000,
111000000000000,
111000000000000,
111000000000000,
111000000000000,
111000000000000,
111000000000000,
111000000000000,
111000000000000,
111000000000000,
111000000000000,
111000000000000,
111000000000000,
111000000000000,
111000000000000,
111000000000000,
111000000000000,
111000000000000,
111000000000000,
111000000000000,
111000000000000,
111000000000000,
111000000000000,
111000000000000,
111000000000000,
111000000000000,
111000000000000,
111000000000000,
111000000000000,
111000000000000,
111000000000000,
111000000000000,
111000000000000,
111000000000000,
111000000000000,
111000000000000,
111000000000000,
111000000000000,
111000000000000,
111000000000000,
111000000000000,
111000000000000,
111000000000000,
111000000000000,
111000000000000,
111000000000000,
111000000000000,
111000000000000,
111000000000000,
111000000000000,
111000000000000,
111000000000000,
111000000000000,
111000000000000,
111000000000000,
111000000000000,
111000000000000,
111000000000000,
111000000000000,
111000000000000,
111000000000000,
111000000000000,
111000000000000,
111000000000000,
111000000000000,
111000000000000,
111000000000000,
111000000000000,
111000000000000,
111000000000000,
111000000000000,
111000000000000,
111000000000000,
111000000000000,
111000000000000,
111000000000000,
111000000000000,
111000000000000,
111000000000000,
111000000000000,
111000000000000,
111000000000000,
111000000000000,
111000000000000,
111000000000000,
111000000000000,
111000000000000,
111000000000000,
111000000000000,
111000000000000,
111000000000000,
111000000000000,
111000000000000,
111000000000000,
111000000000000,
111000000000000,
111000000000000,
111000000000000,
111000000000000,
111000000000000,
111000000000000,
111000000000000,
111000000000000,
111000000000000,
111000000000000,
111000000000000,
111000000000000,
111000000000000,
111000000000000,
111000000000000,
111000000000000,
111000000000000,
111000000000000,
111000000000000,
111000000000000,
111000000000000,
111000000000000,
111000000000000,
111000000000000,
111000000000000,
111000000000000,
111000000000000,
111000000000000,
111000000000000,
111000000000000,
111000000000000,
111000000000000,
111000000000000,
111000000000000,
111000000000000,
111000000000000,
111000000000000,
111000000000000,
111000000000000,
111000000000000,
111000000000000,
111000000000000,
111000000000000,
111000000000000,
111000000000000,
111000000000000,
111000000000000,
111000000000000,
111000000000000,
111000000000000,
111000000000000,
111000000000000,
111000000000000,
111000000000000,
111000000000000,
111000000000000,
111000000000000,
111000000000000,
111000000000000,
111000000000000,
111000000000000,
111000000000000,
111000000000000,
111000000000000,
111000000000000,
111000000000000,
111000000000000,
111000000000000,
111000000000000,
111000000000000,
111000000000000,
111000000000000,
111000000000000,
111000000000000,
111000000000000,
111000000000000,
111000000000000,
111000000000000,
111000000000000,
111000000000000,
111000000000000,
111000000000000,
111000000000000,
111000000000000,
111000000000000,
111000000000000,
111000000000000,
111000000000000,
111000000000000,
111000000000000,
111000000000000,
111000000000000,
111000000000000,
111000000000000,
111000000000000,
111000000000000,
111000000000000,
111000000000000,
111000000000000,
111000000000000,
111000000000000,
111000000000000,
111000000000000,
111000000000000,
111000000000000,
111000000000000,
111000000000000,
111000000000000,
111000000000000,
111000000000000,
111000000000000,
111000000000000,
111000000000000,
111000000000000,
111000000000000,
111000000000000,
111000000000000,
111000000000000,
111000000000000,
111000000000000,
111000000000000,
111000000000000,
111000000000000,
111000000000000,
111000000000000,
111000000000000,
111000000000000,
111000000000000,
111000000000000,
111000000000000,
111000000000000,
111000000000000,
111000000000000,
111000000000000,
111000000000000,
111000000000000,
111000000000000,
111000000000000,
111000000000000,
111000000000000,
111000000000000,
111000000000000,
111000000000000,
111000000000000,
111000000000000,
111000000000000,
111000000000000,
111000000000000,
111000000000000,
111000000000000,
111000000000000,
111000000000000,
111000000000000,
111000000000000,
111000000000000,
111000000000000,
111000000000000,
111000000000000,
111000000000000,
111000000000000,
111000000000000,
111000000000000,
111000000000000,
111000000000000,
111000000000000,
111000000000000,
111000000000000,
111000000000000,
111000000000000,
111000000000000,
111000000000000,
111000000000000,
111000000000000,
111000000000000,
111000000000000,
111000000000000,
111000000000000,
111000000000000,
111000000000000,
111000000000000,
111000000000000,
111000000000000,
111000000000000,
111000000000000,
111000000000000,
111000000000000,
111000000000000,
111000000000000,
111000000000000,
111000000000000,
111000000000000,
111000000000000,
111000000000000,
111000000000000,
111000000000000,
111000000000000,
111000000000000,
111000000000000,
111000000000000,
111000000000000,
111000000000000,
111000000000000,
111000000000000,
111000000000000,
111000000000000,
111000000000000,
111000000000000,
111000000000000,
111000000000000,
111000000000000,
111000000000000,
111000000000000,
111000000000000,
111000000000000,
111000000000000,
111000000000000,
111000000000000,
111000000000000,
111000000000000,
111000000000000,
111000000000000,
111000000000000,
111000000000000,
111000000000000,
111000000000000,
111000000000000,
111000000000000,
111000000000000,
111000000000000,
111000000000000,
111000000000000,
111000000000000,
111000000000000,
111000000000000,
111000000000000,
111000000000000,
111000000000000,
111000000000000,
111000000000000,
111000000000000,
111000000000000,
111000000000000,
111000000000000,
111000000000000,
111000000000000,
111000000000000,
111000000000000,
111000000000000,
111000000000000,
111000000000000,
111000000000000,
111000000000000,
111000000000000,
111000000000000,
111000000000000,
111000000000000,
111000000000000,
111000000000000,
111000000000000,
111000000000000,
111000000000000,
111000000000000,
111000000000000,
111000000000000,
111000000000000,
111000000000000,
111000000000000,
111000000000000,
111000000000000,
111000000000000,
111000000000000,
111000000000000,
111000000000000,
111000000000000,
111000000000000,
111000000000000,
111000000000000,
111000000000000,
111000000000000,
111000000000000,
111000000000000,
111000000000000,
111000000000000,
111000000000000,
111000000000000,
111000000000000,
111000000000000,
111000000000000,
111000000000000,
111000000000000,
111000000000000,
111000000000000,
111000000000000,
111000000000000,
111000000000000,
111000000000000,
111000000000000,
111000000000000,
111000000000000,
111000000000000,
111000000000000,
111000000000000,
111000000000000,
111000000000000,
111000000000000,
111000000000000,
111000000000000,
111000000000000,
111000000000000,
111000000000000,
111000000000000,
111000000000000,
111000000000000,
111000000000000,
111000000000000,
111000000000000,
111000000000000,
111000000000000,
111000000000000,
111000000000000,
111000000000000,
111000000000000,
111000000000000,
111000000000000,
111000000000000,
000000000000000,
000000000000000,
000000000000000,
000000000000000,
000000000000000,
000000000000000,
000000000000000,
000000000000000,
000000000000000,
000000000000000,
000000000000000,
000000000000000,
000000000000000,
000000000000000,
000000000000000,
000000000000000,
000000000000000,
000000000000000,
000000000000000,
000000000000000,
000000000000000,
000000000000000,
000000000000000,
000000000000000,
000000000000000,
000000000000000,
000000000000000,
000000000000000,
000000000000000,
000000000000000,
000000000000000,
000000000000000,
000000000000000,
000000000000000,
000000000000000,
000000000000000,
000000000000000,
000000000000000,
000000000000000,
000000000000000,
000000000000000,
000000000000000,
000000000000000,
000000000000000,
000000000000000,
000000000000000,
000000000000000,
000000000000000,
000000000000000,
000000000000000,
000000000000000,
000000000000000,
000000000000000,
000000000000000,
000000000000000,
000000000000000,
000000000000000,
000000000000000,
000000000000000,
000000000000000,
000000000000000,
000000000000000,
000000000000000,
000000000000000,
000000000000000,
000000000000000,
000000000000000,
000000000000000,
000000000000000,
000000000000000,
000000000000000,
000000000000000,
000000000000000,
000000000000000,
000000000000000,
000000000000000,
000000000000000,
000000000000000,
000000000000000,
000000000000000,
000000000000000,
000000000000000,
000000000000000,
000000000000000,
000000000000000,
000000000000000,
000000000000000,
000000000000000,
000000000000000,
000000000000000,
000000000000000,
000000000000000,
000000000000000,
000000000000000,
000000000000000,
000000000000000,
000000000000000,
000000000000000,
000000000000000,
000000000000000,
000000000000000,
000000000000000,
000000000000000,
000000000000000,
000000000000000,
000000000000000,
000000000000000,
000000000000000,
000000000000000,
000000000000000,
000000000000000,
000000000000000,
000000000000000,
000000000000000,
000000000000000,
000000000000000,
000000000000000,
000000000000000,
000000000000000,
000000000000000,
000000000000000,
000000000000000,
000000000000000,
000000000000000,
000000000000000,
000000000000000,
000000000000000,
000000000000000,
000000000000000,
000000000000000,
000000000000000,
000000000000000,
000000000000000,
000000000000000,
000000000000000,
000000000000000,
000000000000000,
000000000000000,
000000000000000,
000000000000000,
000000000000000,
000000000000000,
000000000000000,
000000000000000,
000000000000000,
000000000000000,
000000000000000,
000000000000000,
000000000000000,
000000000000000,
000000000000000,
000000000000000,
000000000000000,
000000000000000,
000000000000000,
000000000000000,
000000000000000,
000000000000000,
000000000000000,
000000000000000,
000000000000000,
000000000000000,
000000000000000,
000000000000000,
000000000000000,
000000000000000,
000000000000000,
000000000000000,
000000000000000,
000000000000000,
000000000000000,
000000000000000,
000000000000000,
000000000000000,
000000000000000,
000000000000000,
000000000000000,
000000000000000,
000000000000000,
000000000000000,
000000000000000,
000000000000000,
000000000000000,
000000000000000,
000000000000000,
000000000000000,
000000000000000,
000000000000000,
000000000000000,
000000000000000,
000000000000000,
000000000000000,
000000000000000,
000000000000000,
000000000000000,
000000000000000,
000000000000000,
000000000000000,
000000000000000,
000000000000000,
000000000000000,
000000000000000,
000000000000000,
000000000000000,
000000000000000,
000000000000000,
000000000000000,
000000000000000,
000000000000000,
000000000000000,
000000000000000,
000000000000000,
000000000000000,
000000000000000,
000000000000000,
000000000000000,
000000000000000,
000000000000000,
000000000000000,
000000000000000,
000000000000000,
000000000000000,
000000000000000,
000000000000000,
000000000000000,
000000000000000,
000000000000000,
000000000000000,
000000000000000,
000000000000000,
000000000000000,
000000000000000,
000000000000000,
000000000000000,
000000000000000,
000000000000000,
000000000000000,
000000000000000,
000000000000000,
000000000000000,
000000000000000,
000000000000000,
000000000000000,
000000000000000,
000000000000000,
000000000000000,
000000000000000,
000000000000000,
000000000000000,
000000000000000,
000000000000000,
000000000000000,
000000000000000,
000000000000000,
000000000000000,
000000000000000,
000000000000000,
000000000000000,
000000000000000,
000000000000000,
000000000000000,
000000000000000,
000000000000000,
000000000000000,
000000000000000,
000000000000000,
000000000000000,
000000000000000,
000000000000000,
000000000000000,
000000000000000,
000000000000000,
000000000000000,
000000000000000,
000000000000000,
000000000000000,
000000000000000,
000000000000000,
000000000000000,
000000000000000,
000000000000000,
000000000000000,
000000000000000,
000000000000000,
000000000000000,
000000000000000,
000000000000000,
000000000000000,
000000000000000,
000000000000000,
000000000000000,
000000000000000,
000000000000000,
000000000000000,
000000000000000,
000000000000000,
000000000000000,
000000000000000,
000000000000000,
000000000000000,
000000000000000,
000000000000000,
000000000000000,
000000000000000,
000000000000000,
000000000000000,
000000000000000,
000000000000000,
000000000000000,
000000000000000,
000000000000000,
000000000000000,
000000000000000,
000000000000000,
000000000000000,
000000000000000,
000000000000000,
000000000000000,
000000000000000,
000000000000000,
000000000000000,
000000000000000,
000000000000000,
000000000000000,
000000000000000,
000000000000000,
000000000000000,
000000000000000,
000000000000000,
000000000000000,
000000000000000,
000000000000000,
000000000000000,
000000000000000,
000000000000000,
000000000000000,
000000000000000,
000000000000000,
000000000000000,
000000000000000,
000000000000000,
000000000000000,
000000000000000,
000000000000000,
000000000000000,
000000000000000,
000000000000000,
000000000000000,
000000000000000,
000000000000000,
000000000000000,
000000000000000,
000000000000000,
000000000000000,
000000000000000,
000000000000000,
000000000000000,
000000000000000,
000000000000000,
000000000000000,
000000000000000,
000000000000000,
000000000000000,
000000000000000,
000000000000000,
000000000000000,
000000000000000,
000000000000000,
000000000000000,
000000000000000,
000000000000000,
000000000000000,
000000000000000,
000000000000000,
000000000000000,
000000000000000,
000000000000000,
000000000000000,
000000000000000,
000000000000000,
000000000000000,
000000000000000,
000000000000000,
000000000000000,
000000000000000,
000000000000000,
000000000000000,
000000000000000,
000000000000000,
000000000000000,
000000000000000,
000000000000000,
000000000000000,
000000000000000,
000000000000000,
000000000000000,
000000000000000,
000000000000000,
000000000000000,
000000000000000,
000000000000000,
000000000000000,
000000000000000,
000000000000000,
000000000000000,
000000000000000,
000000000000000,
000000000000000,
000000000000000,
000000000000000,
000000000000000,
000000000000000,
000000000000000,
000000000000000,
000000000000000,
000000000000000,
000000000000000,
000000000000000,
000000000000000,
000000000000000,
000000000000000,
000000000000000,
000000000000000,
000000000000000,
000000000000000,
000000000000000,
000000000000000,
000000000000000,
000000000000000,
000000000000000,
000000000000000,
000000000000000,
000000000000000,
000000000000000,
000000000000000,
000000000000000,
000000000000000,
000000000000000,
000000000000000,
000000000000000,
000000000000000,
000000000000000,
000000000000000,
000000000000000,
000000000000000,
000000000000000,
000000000000000,
000000000000000,
000000000000000,
000000000000000,
000000000000000,
000000000000000,
000000000000000,
000000000000000,
000000000000000,
000000000000000,
000000000000000,
000000000000000,
000000000000000,
000000000000000,
000000000000000,
000000000000000,
000000000000000,
000000000000000,
000000000000000,
000000000000000,
000000000000000,
000000000000000,
000000000000000,
000000000000000,
000000000000000,
000000000000000,
000000000000000,
000000000000000,
000000000000000,
000000000000000,
000000000000000,
000000000000000,
000000000000000,
000000000000000,
000000000000000,
000000000000000,
000000000000000,
000000000000000,
000000000000000,
000000000000000,
000000000000000,
000000000000000,
000000000000000,
000000000000000,
000000000000000,
000000000000000,
000000000000000,
000000000000000,
000000000000000,
000000000000000,
000000000000000,
000000000000000,
000000000000000,
000000000000000,
000000000000000,
000000000000000,
000000000000000,
000000000000000,
000000000000000,
000000000000000,
000000000000000,
000000000000000,
000000000000000,
000000000000000,
000000000000000,
000000000000000,
000000000000000,
000000000000000,
000000000000000,
000000000000000,
000000000000000,
000000000000000,
000000000000000,
000000000000000,
000000000000000,
000000000000000,
000000000000000,
000000000000000,
000000000000000,
000000000000000,
000000000000000,
000000000000000,
000000000000000,
000000000000000,
000000000000000,
000000000000000,
000000000000000,
000000000000000,
000000000000000,
000000000000000,
000000000000000,
000000000000000,
000000000000000,
000000000000000,
000000000000000,
000000000000000,
000000000000000,
000000000000000,
000000000000000,
000000000000000,
000000000000000,
000000000000000,
000000000000000,
000000000000000,
000000000000000,
000000000000000,
000000000000000,
000000000000000,
000000000000000,
000000000000000,
000000000000000,
000000000000000,
000000000000000,
000000000000000,
000000000000000,
000000000000000,
000000000000000,
000000000000000,
000000000000000,
000000000000000,
000000000000000,
000000000000000,
000000000000000,
000000000000000,
000000000000000,
000000000000000,
000000000000000,
000000000000000,
000000000000000,
000000000000000,
000000000000000,
000000000000000,
000000000000000,
000000000000000,
000000000000000,
000000000000000,
000000000000000,
000000000000000,
000000000000000,
000000000000000,
000000000000000,
000000000000000,
000000000000000,
000000000000000,
000000000000000,
000000000000000,
000000000000000,
000000000000000,
000000000000000,
000000000000000,
000000000000000,
000000000000000,
000000000000000,
000000000000000,
000000000000000,
000000000000000,
000000000000000,
000000000000000,
000000000000000,
000000000000000,
000000000000000,
000000000000000,
000000000000000,
000000000000000,
000000000000000,
000000000000000,
000000000000000,
000000000000000,
000000000000000,
000000000000000,
000000000000000,
000000000000000,
000000000000000,
000000000000000,
000000000000000,
000000000000000,
000000000000000,
000000000000000,
000000000000000,
000000000000000,
000000000000000,
000000000000000,
000000000000000,
000000000000000,
000000000000000,
000000000000000,
000000000000000,
000000000000000,
000000000000000,
000000000000000,
000000000000000,
000000000000000,
000000000000000,
000000000000000,
000000000000000,
000000000000000,
000000000000000,
000000000000000,
000000000000000,
000000000000000,
000000000000000,
000000000000000,
000000000000000,
000000000000000,
000000000000000,
000000000000000,
000000000000000,
000000000000000,
000000000000000,
000000000000000,
000000000000000,
000000000000000,
000000000000000,
000000000000000,
000000000000000,
000000000000000,
000000000000000,
000000000000000,
000000000000000,
000000000000000,
000000000000000,
000000000000000,
000000000000000,
000000000000000,
000000000000000,
000000000000000,
000000000000000,
000000000000000,
000000000000000,
000000000000000,
000000000000000,
000000000000000,
000000000000000,
000000000000000,
000000000000000,
000000000000000,
000000000000000,
000000000000000,
000000000000000,
000000000000000,
000000000000000,
000000000000000,
000000000000000,
000000000000000,
000000000000000,
000000000000000,
000000000000000,
000000000000000,
000000000000000,
000000000000000,
000000000000000,
000000000000000,
000000000000000,
000000000000000,
000000000000000,
000000000000000,
000000000000000,
000000000000000,
000000000000000,
000000000000000,
000000000000000,
000000000000000,
000000000000000,
000000000000000,
000000000000000,
000000000000000,
000000000000000,
000000000000000,
000000000000000,
000000000000000,
000000000000000,
000000000000000,
000000000000000,
000000000000000,
000000000000000,
000000000000000,
000000000000000,
000000000000000,
000000000000000,
000000000000000,
000000000000000,
000000000000000,
000000000000000,
000000000000000,
000000000000000,
000000000000000,
000000000000000,
000000000000000,
000000000000000,
000000000000000,
000000000000000,
000000000000000,
000000000000000,
000000000000000,
000000000000000,
000000000000000,
000000000000000,
000000000000000,
000000000000000,
000000000000000,
000000000000000,
000000000000000,
000000000000000,
000000000000000,
000000000000000,
000000000000000,
000000000000000,
000000000000000,
000000000000000,
000000000000000,
000000000000000,
000000000000000,
000000000000000,
000000000000000,
000000000000000,
000000000000000,
000000000000000,
000000000000000,
000000000000000,
000000000000000,
000000000000000,
000000000000000,
000000000000000,
000000000000000,
000000000000000,
000000000000000,
000000000000000,
000000000000000,
000000000000000,
000000000000000,
000000000000000,
000000000000000,
000000000000000,
000000000000000,
000000000000000,
000000000000000,
000000000000000,
000000000000000,
000000000000000,
000000000000000,
000000000000000,
000000000000000,
000000000000000,
000000000000000,
000000000000000,
000000000000000,
000000000000000,
000000000000000,
000000000000000,
000000000000000,
000000000000000,
000000000000000,
000000000000000,
000000000000000,
000000000000000,
000000000000000,
000000000000000,
000000000000000,
000000000000000,
000000000000000,
000000000000000,
000000000000000,
000000000000000,
000000000000000,
000000000000000,
000000000000000,
000000000000000,
000000000000000,
000000000000000,
000000000000000,
000000000000000,
000000000000000,
000000000000000,
000000000000000,
000000000000000,
000000000000000,
000000000000000,
000000000000000,
000000000000000,
000000000000000,
000000000000000,
000000000000000,
000000000000000,
000000000000000,
000000000000000,
000000000000000,
000000000000000,
000000000000000,
000000000000000,
000000000000000,
000000000000000,
000000000000000,
000000000000000,
000000000000000,
000000000000000,
000000000000000,
000000000000000,
000000000000000,
000000000000000,
000000000000000,
000000000000000,
000000000000000,
000000000000000,
000000000000000,
000000000000000,
000000000000000,
000000000000000,
000000000000000,
000000000000000,
000000000000000,
000000000000000,
000000000000000,
000000000000000,
000000000000000,
000000000000000,
000000000000000,
000000000000000,
000000000000000,
000000000000000,
000000000000000,
000000000000000,
000000000000000,
000000000000000,
000000000000000,
000000000000000,
000000000000000,
000000000000000,
000000000000000,
000000000000000,
000000000000000,
000000000000000,
000000000000000,
000000000000000,
000000000000000,
000000000000000,
000000000000000,
000000000000000,
000000000000000,
000000000000000,
000000000000000,
000000000000000,
000000000000000,
000000000000000,
000000000000000,
000000000000000,
000000000000000,
000000000000000,
000000000000000,
000000000000000,
000000000000000,
000000000000000,
000000000000000,
000000000000000,
000000000000000,
000000000000000,
000000000000000,
000000000000000,
000000000000000,
000000000000000,
000000000000000,
000000000000000,
000000000000000,
000000000000000,
000000000000000,
000000000000000,
000000000000000,
000000000000000,
000000000000000,
000000000000000,
000000000000000,
000000000000000,
000000000000000,
000000000000000,
000000000000000,
000000000000000,
000000000000000,
000000000000000,
000000000000000,
000000000000000,
000000000000000,
000000000000000,
000000000000000,
000000000000000,
000000000000000,
000000000000000,
000000000000000,
000000000000000,
000000000000000,
000000000000000,
000000000000000,
000000000000000,
000000000000000,
000000000000000,
000000000000000,
000000000000000,
000000000000000,
000000000000000,
000000000000000,
000000000000000,
000000000000000,
000000000000000,
000000000000000,
000000000000000,
000000000000000,
000000000000000,
000000000000000,
000000000000000,
000000000000000,
000000000000000,
000000000000000,
000000000000000,
000000000000000,
000000000000000,
000000000000000,
000000000000000,
000000000000000,
000000000000000,
000000000000000,
000000000000000,
000000000000000,
000000000000000,
000000000000000,
000000000000000,
000000000000000,
000000000000000,
000000000000000,
000000000000000,
000000000000000,
000000000000000,
000000000000000,
000000000000000,
000000000000000,
000000000000000,
000000000000000,
000000000000000,
000000000000000,
000000000000000,
000000000000000,
000000000000000,
000000000000000,
000000000000000,
000000000000000,
000000000000000,
000000000000000,
000000000000000,
000000000000000,
000000000000000,
000000000000000,
000000000000000,
000000000000000,
000000000000000,
000000000000000,
000000000000000,
000000000000000,
000000000000000,
000000000000000,
000000000000000,
000000000000000,
000000000000000,
000000000000000,
000000000000000,
000000000000000,
000000000000000,
000000000000000,
000000000000000,
000000000000000,
000000000000000,
000000000000000,
000000000000000,
000000000000000,
000000000000000,
000000000000000,
000000000000000,
000000000000000,
000000000000000,
000000000000000,
000000000000000,
000000000000000,
000000000000000,
000000000000000,
000000000000000,
000000000000000,
000000000000000,
000000000000000,
000000000000000,
000000000000000,
000000000000000,
000000000000000,
000000000000000,
000000000000000,
000000000000000,
000000000000000,
000000000000000,
000000000000000,
000000000000000,
000000000000000,
000000000000000,
000000000000000,
000000000000000,
000000000000000,
000000000000000,
000000000000000,
000000000000000,
000000000000000,
000000000000000,
000000000000000,
000000000000000,
000000000000000,
000000000000000,
000000000000000,
000000000000000,
000000000000000,
000000000000000,
000000000000000,
000000000000000,
000000000000000,
000000000000000,
000000000000000,
000000000000000,
000000000000000,
000000000000000,
000000000000000,
000000000000000,
000000000000000,
000000000000000,
000000000000000,
000000000000000,
000000000000000,
000000000000000,
000000000000000,
000000000000000,
000000000000000,
000000000000000,
000000000000000,
000000000000000,
000000000000000,
000000000000000,
000000000000000,
000000000000000,
000000000000000,
000000000000000,
000000000000000,
000000000000000,
000000000000000,
000000000000000,
000000000000000,
000000000000000,
000000000000000,
000000000000000,
000000000000000,
000000000000000,
000000000000000,
000000000000000,
000000000000000,
000000000000000,
000000000000000,
000000000000000,
000000000000000,
000000000000000,
000000000000000,
000000000000000,
000000000000000,
000000000000000,
000000000000000,
000000000000000,
000000000000000,
000000000000000,
000000000000000,
000000000000000,
000000000000000,
000000000000000,
000000000000000,
000000000000000,
000000000000000,
000000000000000,
000000000000000,
000000000000000,
000000000000000,
000000000000000,
000000000000000,
000000000000000,
000000000000000,
000000000000000,
000000000000000,
000000000000000,
000000000000000,
000000000000000,
000000000000000,
000000000000000,
000000000000000,
000000000000000,
000000000000000,
000000000000000,
000000000000000,
000000000000000,
000000000000000,
000000000000000,
000000000000000,
000000000000000,
000000000000000,
000000000000000,
000000000000000,
000000000000000,
000000000000000,
000000000000000,
000000000000000,
000000000000000,
000000000000000,
000000000000000,
000000000000000,
000000000000000,
000000000000000,
000000000000000,
000000000000000,
000000000000000,
000000000000000,
000000000000000,
000000000000000,
000000000000000,
000000000000000,
000000000000000,
000000000000000,
000000000000000,
000000000000000,
000000000000000,
000000000000000,
000000000000000,
000000000000000,
000000000000000,
000000000000000,
000000000000000,
000000000000000,
000000000000000,
000000000000000,
000000000000000,
000000000000000,
000000000000000;