:0200000070008E
:0200010070008D
:0200020070008C
:0200030070008B
:0200040070008A
:02000500700089
:02000600700088
:02000700700087
:02000800700086
:02000900700085
:02000A00700084
:02000B00700083
:02000C00700082
:02000D00700081
:02000E00700080
:02000F0070007F
:0200100070007E
:0200110070007D
:0200120070007C
:0200130070007B
:0200140070007A
:02001500700079
:02001600700078
:02001700700077
:02001800700076
:02001900700075
:02001A00700074
:02001B00700073
:02001C00700072
:02001D00700071
:02001E00700070
:02001F0070006F
:0200200070006E
:0200210070006D
:0200220070006C
:0200230070006B
:0200240070006A
:02002500700069
:02002600700068
:02002700700067
:02002800700066
:02002900700065
:02002A00700064
:02002B00700063
:02002C00700062
:02002D00700061
:02002E00700060
:02002F0070005F
:0200300070005E
:0200310070005D
:0200320070005C
:0200330070005B
:0200340070005A
:02003500700059
:02003600700058
:02003700700057
:02003800700056
:02003900700055
:02003A00700054
:02003B00700053
:02003C00700052
:02003D00700051
:02003E00700050
:02003F0070004F
:0200400070004E
:0200410070004D
:0200420070004C
:0200430070004B
:0200440070004A
:02004500700049
:02004600700048
:02004700700047
:02004800700046
:02004900700045
:02004A00700044
:02004B00700043
:02004C00700042
:02004D00700041
:02004E00700040
:02004F0070003F
:0200500070003E
:0200510070003D
:0200520070003C
:0200530070003B
:0200540070003A
:02005500700039
:02005600700038
:02005700700037
:02005800700036
:02005900700035
:02005A00700034
:02005B00700033
:02005C00700032
:02005D00700031
:02005E00700030
:02005F0070002F
:0200600070002E
:0200610070002D
:0200620070002C
:0200630070002B
:0200640070002A
:02006500700029
:02006600700028
:02006700700027
:02006800700026
:02006900700025
:02006A00700024
:02006B00700023
:02006C00700022
:02006D00700021
:02006E00700020
:02006F0070001F
:0200700070001E
:0200710070001D
:0200720070001C
:0200730070001B
:0200740070001A
:02007500700019
:02007600700018
:02007700700017
:02007800700016
:02007900700015
:02007A00700014
:02007B00700013
:02007C00700012
:02007D00700011
:02007E00700010
:02007F0070000F
:0200800070000E
:0200810070000D
:0200820070000C
:0200830070000B
:0200840070000A
:02008500700009
:02008600700008
:02008700700007
:02008800700006
:02008900700005
:02008A00700004
:02008B00700003
:02008C00700002
:02008D00700001
:02008E00700000
:02008F007000FF
:020090007000FE
:020091007000FD
:020092007000FC
:020093007000FB
:020094007000FA
:020095007000F9
:020096007000F8
:020097007000F7
:020098007000F6
:020099007000F5
:02009A007000F4
:02009B007000F3
:02009C007000F2
:02009D007000F1
:02009E007000F0
:02009F007000EF
:0200A0007000EE
:0200A1007000ED
:0200A2007000EC
:0200A3007000EB
:0200A4007000EA
:0200A5007000E9
:0200A6007000E8
:0200A7007000E7
:0200A8007000E6
:0200A9007000E5
:0200AA007000E4
:0200AB007000E3
:0200AC007000E2
:0200AD007000E1
:0200AE007000E0
:0200AF007000DF
:0200B0007000DE
:0200B1007000DD
:0200B2007000DC
:0200B3007000DB
:0200B4007000DA
:0200B5007000D9
:0200B6007000D8
:0200B7007000D7
:0200B8007000D6
:0200B9007000D5
:0200BA007000D4
:0200BB007000D3
:0200BC007000D2
:0200BD007000D1
:0200BE007000D0
:0200BF007000CF
:0200C0007000CE
:0200C1007000CD
:0200C2007000CC
:0200C3007000CB
:0200C4007000CA
:0200C5007000C9
:0200C6007000C8
:0200C7007000C7
:0200C8007000C6
:0200C9007000C5
:0200CA007000C4
:0200CB007000C3
:0200CC007000C2
:0200CD007000C1
:0200CE007000C0
:0200CF007000BF
:0200D0007000BE
:0200D1007000BD
:0200D2007000BC
:0200D3007000BB
:0200D4007000BA
:0200D5007000B9
:0200D6007000B8
:0200D7007000B7
:0200D8007000B6
:0200D9007000B5
:0200DA007000B4
:0200DB007000B3
:0200DC007000B2
:0200DD007000B1
:0200DE007000B0
:0200DF007000AF
:0200E0007000AE
:0200E1007000AD
:0200E2007000AC
:0200E3007000AB
:0200E4007000AA
:0200E5007000A9
:0200E6007000A8
:0200E7007000A7
:0200E8007000A6
:0200E9007000A5
:0200EA007000A4
:0200EB007000A3
:0200EC007000A2
:0200ED007000A1
:0200EE007000A0
:0200EF0070009F
:0200F00070009E
:0200F10070009D
:0200F20070009C
:0200F30070009B
:0200F40070009A
:0200F500700099
:0200F600700098
:0200F700700097
:0200F800700096
:0200F900700095
:0200FA00700094
:0200FB00700093
:0200FC00700092
:0200FD00700091
:0200FE00700090
:0200FF0070008F
:0201000070008D
:0201010070008C
:0201020070008B
:0201030070008A
:02010400700089
:02010500700088
:02010600700087
:02010700700086
:02010800700085
:02010900700084
:02010A00700083
:02010B00700082
:02010C00700081
:02010D00700080
:02010E0070007F
:02010F0070007E
:0201100070007D
:0201110070007C
:0201120070007B
:0201130070007A
:02011400700079
:02011500700078
:02011600700077
:02011700700076
:02011800700075
:02011900700074
:02011A00700073
:02011B00700072
:02011C00700071
:02011D00700070
:02011E0070006F
:02011F0070006E
:0201200070006D
:0201210070006C
:0201220070006B
:0201230070006A
:02012400700069
:02012500700068
:02012600700067
:02012700700066
:02012800700065
:02012900700064
:02012A00700063
:02012B00700062
:02012C00700061
:02012D00700060
:02012E0070005F
:02012F0070005E
:0201300070005D
:0201310070005C
:0201320070005B
:0201330070005A
:02013400700059
:02013500700058
:02013600700057
:02013700700056
:02013800700055
:02013900700054
:02013A00700053
:02013B00700052
:02013C00700051
:02013D00700050
:02013E0070004F
:02013F0070004E
:0201400070004D
:0201410070004C
:0201420070004B
:0201430070004A
:02014400700049
:02014500700048
:02014600700047
:02014700700046
:02014800700045
:02014900700044
:02014A00700043
:02014B00700042
:02014C00700041
:02014D00700040
:02014E0070003F
:02014F0070003E
:0201500070003D
:0201510070003C
:0201520070003B
:0201530070003A
:02015400700039
:02015500700038
:02015600700037
:02015700700036
:02015800700035
:02015900700034
:02015A00700033
:02015B00700032
:02015C00700031
:02015D00700030
:02015E0070002F
:02015F0070002E
:0201600070002D
:0201610070002C
:0201620070002B
:0201630070002A
:02016400700029
:02016500700028
:02016600700027
:02016700700026
:02016800700025
:02016900700024
:02016A00700023
:02016B00700022
:02016C00700021
:02016D00700020
:02016E0070001F
:02016F0070001E
:0201700070001D
:0201710070001C
:0201720070001B
:0201730070001A
:02017400700019
:02017500700018
:02017600700017
:02017700700016
:02017800700015
:02017900700014
:02017A00700013
:02017B00700012
:02017C00700011
:02017D00700010
:02017E0070000F
:02017F0070000E
:0201800070000D
:0201810070000C
:0201820070000B
:0201830070000A
:02018400700009
:02018500700008
:02018600700007
:02018700700006
:02018800700005
:02018900700004
:02018A00700003
:02018B00700002
:02018C00700001
:02018D00700000
:02018E007000FF
:02018F007000FE
:020190007000FD
:020191007000FC
:020192007000FB
:020193007000FA
:020194007000F9
:020195007000F8
:020196007000F7
:020197007000F6
:020198007000F5
:020199007000F4
:02019A007000F3
:02019B007000F2
:02019C007000F1
:02019D007000F0
:02019E007000EF
:02019F007000EE
:0201A0007000ED
:0201A1007000EC
:0201A2007000EB
:0201A3007000EA
:0201A4007000E9
:0201A5007000E8
:0201A6007000E7
:0201A7007000E6
:0201A8007000E5
:0201A9007000E4
:0201AA007000E3
:0201AB007000E2
:0201AC007000E1
:0201AD007000E0
:0201AE007000DF
:0201AF007000DE
:0201B0007000DD
:0201B1007000DC
:0201B2007000DB
:0201B3007000DA
:0201B4007000D9
:0201B5007000D8
:0201B6007000D7
:0201B7007000D6
:0201B8007000D5
:0201B9007000D4
:0201BA007000D3
:0201BB007000D2
:0201BC007000D1
:0201BD007000D0
:0201BE007000CF
:0201BF007000CE
:0201C0007000CD
:0201C1007000CC
:0201C2007000CB
:0201C3007000CA
:0201C4007000C9
:0201C5007000C8
:0201C6007000C7
:0201C7007000C6
:0201C8007000C5
:0201C9007000C4
:0201CA007000C3
:0201CB007000C2
:0201CC007000C1
:0201CD007000C0
:0201CE007000BF
:0201CF007000BE
:0201D0007000BD
:0201D1007000BC
:0201D2007000BB
:0201D3007000BA
:0201D4007000B9
:0201D5007000B8
:0201D6007000B7
:0201D7007000B6
:0201D8007000B5
:0201D9007000B4
:0201DA007000B3
:0201DB007000B2
:0201DC007000B1
:0201DD007000B0
:0201DE007000AF
:0201DF007000AE
:0201E0007000AD
:0201E1007000AC
:0201E2007000AB
:0201E3007000AA
:0201E4007000A9
:0201E5007000A8
:0201E6007000A7
:0201E7007000A6
:0201E8007000A5
:0201E9007000A4
:0201EA007000A3
:0201EB007000A2
:0201EC007000A1
:0201ED007000A0
:0201EE0070009F
:0201EF0070009E
:0201F00070009D
:0201F10070009C
:0201F20070009B
:0201F30070009A
:0201F400700099
:0201F500700098
:0201F600700097
:0201F700700096
:0201F800700095
:0201F900700094
:0201FA00700093
:0201FB00700092
:0201FC00700091
:0201FD00700090
:0201FE0070008F
:0201FF0070008E
:0202000070008C
:0202010070008B
:0202020070008A
:02020300700089
:02020400700088
:02020500700087
:02020600700086
:02020700700085
:02020800700084
:02020900700083
:02020A00700082
:02020B00700081
:02020C00700080
:02020D0070007F
:02020E0070007E
:02020F0070007D
:0202100070007C
:0202110070007B
:0202120070007A
:02021300700079
:02021400700078
:02021500700077
:02021600700076
:02021700700075
:02021800700074
:02021900700073
:02021A00700072
:02021B00700071
:02021C00700070
:02021D0070006F
:02021E0070006E
:02021F0070006D
:0202200070006C
:0202210070006B
:0202220070006A
:02022300700069
:02022400700068
:02022500700067
:02022600700066
:02022700700065
:02022800700064
:02022900700063
:02022A00700062
:02022B00700061
:02022C00700060
:02022D0070005F
:02022E0070005E
:02022F0070005D
:0202300070005C
:0202310070005B
:0202320070005A
:02023300700059
:02023400700058
:02023500700057
:02023600700056
:02023700700055
:02023800700054
:02023900700053
:02023A00700052
:02023B00700051
:02023C00700050
:02023D0070004F
:02023E0070004E
:02023F0070004D
:0202400070004C
:0202410070004B
:0202420070004A
:02024300700049
:02024400700048
:02024500700047
:02024600700046
:02024700700045
:02024800700044
:02024900700043
:02024A00700042
:02024B00700041
:02024C00700040
:02024D0070003F
:02024E0070003E
:02024F0070003D
:0202500070003C
:0202510070003B
:0202520070003A
:02025300700039
:02025400700038
:02025500700037
:02025600700036
:02025700700035
:02025800700034
:02025900700033
:02025A00700032
:02025B00700031
:02025C00700030
:02025D0070002F
:02025E0070002E
:02025F0070002D
:0202600070002C
:0202610070002B
:0202620070002A
:02026300700029
:02026400700028
:02026500700027
:02026600700026
:02026700700025
:02026800700024
:02026900700023
:02026A00700022
:02026B00700021
:02026C00700020
:02026D0070001F
:02026E0070001E
:02026F0070001D
:0202700070001C
:0202710070001B
:0202720070001A
:02027300700019
:02027400700018
:02027500700017
:02027600700016
:02027700700015
:02027800700014
:02027900700013
:02027A00700012
:02027B00700011
:02027C00700010
:02027D0070000F
:02027E0070000E
:02027F0070000D
:0202800070000C
:0202810070000B
:0202820070000A
:02028300700009
:02028400700008
:02028500700007
:02028600700006
:02028700700005
:02028800700004
:02028900700003
:02028A00700002
:02028B00700001
:02028C00700000
:02028D007000FF
:02028E007000FE
:02028F007000FD
:020290007000FC
:020291007000FB
:020292007000FA
:020293007000F9
:020294007000F8
:020295007000F7
:020296007000F6
:020297007000F5
:020298007000F4
:020299007000F3
:02029A007000F2
:02029B007000F1
:02029C007000F0
:02029D007000EF
:02029E007000EE
:02029F007000ED
:0202A0007000EC
:0202A1007000EB
:0202A2007000EA
:0202A3007000E9
:0202A4007000E8
:0202A5007000E7
:0202A6007000E6
:0202A7007000E5
:0202A8007000E4
:0202A9007000E3
:0202AA007000E2
:0202AB007000E1
:0202AC007000E0
:0202AD007000DF
:0202AE007000DE
:0202AF007000DD
:0202B0007000DC
:0202B1007000DB
:0202B2007000DA
:0202B3007000D9
:0202B4007000D8
:0202B5007000D7
:0202B6007000D6
:0202B7007000D5
:0202B8007000D4
:0202B9007000D3
:0202BA007000D2
:0202BB007000D1
:0202BC007000D0
:0202BD007000CF
:0202BE007000CE
:0202BF007000CD
:0202C0007000CC
:0202C1007000CB
:0202C2007000CA
:0202C3007000C9
:0202C4007000C8
:0202C5007000C7
:0202C6007000C6
:0202C7007000C5
:0202C8007000C4
:0202C9007000C3
:0202CA007000C2
:0202CB007000C1
:0202CC007000C0
:0202CD007000BF
:0202CE007000BE
:0202CF007000BD
:0202D0007000BC
:0202D1007000BB
:0202D2007000BA
:0202D3007000B9
:0202D4007000B8
:0202D5007000B7
:0202D6007000B6
:0202D7007000B5
:0202D8007000B4
:0202D9007000B3
:0202DA007000B2
:0202DB007000B1
:0202DC007000B0
:0202DD007000AF
:0202DE007000AE
:0202DF007000AD
:0202E0007000AC
:0202E1007000AB
:0202E2007000AA
:0202E3007000A9
:0202E4007000A8
:0202E5007000A7
:0202E6007000A6
:0202E7007000A5
:0202E8007000A4
:0202E9007000A3
:0202EA007000A2
:0202EB007000A1
:0202EC007000A0
:0202ED0070009F
:0202EE0070009E
:0202EF0070009D
:0202F00070009C
:0202F10070009B
:0202F20070009A
:0202F300700099
:0202F400700098
:0202F500700097
:0202F600700096
:0202F700700095
:0202F800700094
:0202F900700093
:0202FA00700092
:0202FB00700091
:0202FC00700090
:0202FD0070008F
:0202FE0070008E
:0202FF0070008D
:0203000070008B
:0203010070008A
:02030200700089
:02030300700088
:02030400700087
:02030500700086
:02030600700085
:02030700700084
:02030800700083
:02030900700082
:02030A00700081
:02030B00700080
:02030C0070007F
:02030D0070007E
:02030E0070007D
:02030F0070007C
:0203100070007B
:0203110070007A
:02031200700079
:02031300700078
:02031400700077
:02031500700076
:02031600700075
:02031700700074
:02031800700073
:02031900700072
:02031A00700071
:02031B00700070
:02031C0070006F
:02031D0070006E
:02031E0070006D
:02031F0070006C
:0203200070006B
:0203210070006A
:02032200700069
:02032300700068
:02032400700067
:02032500700066
:02032600700065
:02032700700064
:02032800700063
:02032900700062
:02032A00700061
:02032B00700060
:02032C0070005F
:02032D0070005E
:02032E0070005D
:02032F0070005C
:0203300070005B
:0203310070005A
:02033200700059
:02033300700058
:02033400700057
:02033500700056
:02033600700055
:02033700700054
:02033800700053
:02033900700052
:02033A00700051
:02033B00700050
:02033C0070004F
:02033D0070004E
:02033E0070004D
:02033F0070004C
:0203400070004B
:0203410070004A
:02034200700049
:02034300700048
:02034400700047
:02034500700046
:02034600700045
:02034700700044
:02034800700043
:02034900700042
:02034A00700041
:02034B00700040
:02034C0070003F
:02034D0070003E
:02034E0070003D
:02034F0070003C
:0203500070003B
:0203510070003A
:02035200700039
:02035300700038
:02035400700037
:02035500700036
:02035600700035
:02035700700034
:02035800700033
:02035900700032
:02035A00700031
:02035B00700030
:02035C0070002F
:02035D0070002E
:02035E0070002D
:02035F0070002C
:0203600070002B
:0203610070002A
:02036200700029
:02036300700028
:02036400700027
:02036500700026
:02036600700025
:02036700700024
:02036800700023
:02036900700022
:02036A00700021
:02036B00700020
:02036C0070001F
:02036D0070001E
:02036E0070001D
:02036F0070001C
:0203700070001B
:0203710070001A
:02037200700019
:02037300700018
:02037400700017
:02037500700016
:02037600700015
:02037700700014
:02037800700013
:02037900700012
:02037A00700011
:02037B00700010
:02037C0070000F
:02037D0070000E
:02037E0070000D
:02037F0070000C
:0203800070000B
:0203810070000A
:02038200700009
:02038300700008
:02038400700007
:02038500700006
:02038600700005
:02038700700004
:02038800700003
:02038900700002
:02038A00700001
:02038B00700000
:02038C007000FF
:02038D007000FE
:02038E007000FD
:02038F007000FC
:020390007000FB
:020391007000FA
:020392007000F9
:020393007000F8
:020394007000F7
:020395007000F6
:020396007000F5
:020397007000F4
:020398007000F3
:020399007000F2
:02039A007000F1
:02039B007000F0
:02039C007000EF
:02039D007000EE
:02039E007000ED
:02039F007000EC
:0203A0007000EB
:0203A1007000EA
:0203A2007000E9
:0203A3007000E8
:0203A4007000E7
:0203A5007000E6
:0203A6007000E5
:0203A7007000E4
:0203A8007000E3
:0203A9007000E2
:0203AA007000E1
:0203AB007000E0
:0203AC007000DF
:0203AD007000DE
:0203AE007000DD
:0203AF007000DC
:0203B0007000DB
:0203B1007000DA
:0203B2007000D9
:0203B3007000D8
:0203B4007000D7
:0203B5007000D6
:0203B6007000D5
:0203B7007000D4
:0203B8007000D3
:0203B9007000D2
:0203BA007000D1
:0203BB007000D0
:0203BC007000CF
:0203BD007000CE
:0203BE007000CD
:0203BF007000CC
:0203C0007000CB
:0203C1007000CA
:0203C2007000C9
:0203C3007000C8
:0203C4007000C7
:0203C5007000C6
:0203C6007000C5
:0203C7007000C4
:0203C8007000C3
:0203C9007000C2
:0203CA007000C1
:0203CB007000C0
:0203CC007000BF
:0203CD007000BE
:0203CE007000BD
:0203CF007000BC
:0203D0007000BB
:0203D1007000BA
:0203D2007000B9
:0203D3007000B8
:0203D4007000B7
:0203D5007000B6
:0203D6007000B5
:0203D7007000B4
:0203D8007000B3
:0203D9007000B2
:0203DA007000B1
:0203DB007000B0
:0203DC007000AF
:0203DD007000AE
:0203DE007000AD
:0203DF007000AC
:0203E0007000AB
:0203E1007000AA
:0203E2007000A9
:0203E3007000A8
:0203E4007000A7
:0203E5007000A6
:0203E6007000A5
:0203E7007000A4
:0203E8007000A3
:0203E9007000A2
:0203EA007000A1
:0203EB007000A0
:0203EC0070009F
:0203ED0070009E
:0203EE0070009D
:0203EF0070009C
:0203F00070009B
:0203F10070009A
:0203F200700099
:0203F300700098
:0203F400700097
:0203F500700096
:0203F600700095
:0203F700700094
:0203F800700093
:0203F900700092
:0203FA00700091
:0203FB00700090
:0203FC0070008F
:0203FD0070008E
:0203FE0070008D
:0203FF0070008C
:0204000070008A
:02040100700089
:02040200700088
:02040300700087
:02040400700086
:02040500700085
:02040600700084
:02040700700083
:02040800700082
:02040900700081
:02040A00700080
:02040B0070007F
:02040C0070007E
:02040D0070007D
:02040E0070007C
:02040F0070007B
:0204100070007A
:02041100700079
:02041200700078
:02041300700077
:02041400700076
:02041500700075
:02041600700074
:02041700700073
:02041800700072
:02041900700071
:02041A00700070
:02041B0070006F
:02041C0070006E
:02041D0070006D
:02041E0070006C
:02041F0070006B
:0204200070006A
:02042100700069
:02042200700068
:02042300700067
:02042400700066
:02042500700065
:02042600700064
:02042700700063
:02042800700062
:02042900700061
:02042A00700060
:02042B0070005F
:02042C0070005E
:02042D0070005D
:02042E0070005C
:02042F0070005B
:0204300070005A
:02043100700059
:02043200700058
:02043300700057
:02043400700056
:02043500700055
:02043600700054
:02043700700053
:02043800700052
:02043900700051
:02043A00700050
:02043B0070004F
:02043C0070004E
:02043D0070004D
:02043E0070004C
:02043F0070004B
:0204400070004A
:02044100700049
:02044200700048
:02044300700047
:02044400700046
:02044500700045
:02044600700044
:02044700700043
:02044800700042
:02044900700041
:02044A00700040
:02044B0070003F
:02044C0070003E
:02044D0070003D
:02044E0070003C
:02044F0070003B
:0204500070003A
:02045100700039
:02045200700038
:02045300700037
:02045400700036
:02045500700035
:02045600700034
:02045700700033
:02045800700032
:02045900700031
:02045A00700030
:02045B0070002F
:02045C0070002E
:02045D0070002D
:02045E0070002C
:02045F0070002B
:0204600070002A
:02046100700029
:02046200700028
:02046300700027
:02046400700026
:02046500700025
:02046600700024
:02046700700023
:02046800700022
:02046900700021
:02046A00700020
:02046B0070001F
:02046C0070001E
:02046D0070001D
:02046E0070001C
:02046F0070001B
:0204700070001A
:02047100700019
:02047200700018
:02047300700017
:02047400700016
:02047500700015
:02047600700014
:02047700700013
:02047800700012
:02047900700011
:02047A00700010
:02047B0070000F
:02047C0070000E
:02047D0070000D
:02047E0070000C
:02047F0070000B
:0204800070000A
:02048100700009
:02048200700008
:02048300700007
:02048400700006
:02048500700005
:02048600700004
:02048700700003
:02048800700002
:02048900700001
:02048A00700000
:02048B007000FF
:02048C007000FE
:02048D007000FD
:02048E007000FC
:02048F007000FB
:020490007000FA
:020491007000F9
:020492007000F8
:020493007000F7
:020494007000F6
:020495007000F5
:020496007000F4
:020497007000F3
:020498007000F2
:020499007000F1
:02049A007000F0
:02049B007000EF
:02049C007000EE
:02049D007000ED
:02049E007000EC
:02049F007000EB
:0204A0007000EA
:0204A1007000E9
:0204A2007000E8
:0204A3007000E7
:0204A4007000E6
:0204A5007000E5
:0204A6007000E4
:0204A7007000E3
:0204A8007000E2
:0204A9007000E1
:0204AA007000E0
:0204AB007000DF
:0204AC007000DE
:0204AD007000DD
:0204AE007000DC
:0204AF007000DB
:0204B0007000DA
:0204B1007000D9
:0204B2007000D8
:0204B3007000D7
:0204B4007000D6
:0204B5007000D5
:0204B6007000D4
:0204B7007000D3
:0204B8007000D2
:0204B9007000D1
:0204BA007000D0
:0204BB007000CF
:0204BC007000CE
:0204BD007000CD
:0204BE007000CC
:0204BF007000CB
:0204C0007000CA
:0204C1007000C9
:0204C2007000C8
:0204C3007000C7
:0204C4007000C6
:0204C5007000C5
:0204C6007000C4
:0204C7007000C3
:0204C8007000C2
:0204C9007000C1
:0204CA007000C0
:0204CB007000BF
:0204CC007000BE
:0204CD007000BD
:0204CE007000BC
:0204CF007000BB
:0204D0007000BA
:0204D1007000B9
:0204D2007000B8
:0204D3007000B7
:0204D4007000B6
:0204D5007000B5
:0204D6007000B4
:0204D7007000B3
:0204D8007000B2
:0204D9007000B1
:0204DA007000B0
:0204DB007000AF
:0204DC007000AE
:0204DD007000AD
:0204DE007000AC
:0204DF007000AB
:0204E0007000AA
:0204E1007000A9
:0204E2007000A8
:0204E3007000A7
:0204E4007000A6
:0204E5007000A5
:0204E6007000A4
:0204E7007000A3
:0204E8007000A2
:0204E9007000A1
:0204EA007000A0
:0204EB0070009F
:0204EC0070009E
:0204ED0070009D
:0204EE0070009C
:0204EF0070009B
:0204F00070009A
:0204F100700099
:0204F200700098
:0204F300700097
:0204F400700096
:0204F500700095
:0204F600700094
:0204F700700093
:0204F800700092
:0204F900700091
:0204FA00700090
:0204FB0070008F
:0204FC0070008E
:0204FD0070008D
:0204FE0070008C
:0204FF0070008B
:02050000700089
:02050100700088
:02050200700087
:02050300700086
:02050400700085
:02050500700084
:02050600700083
:02050700700082
:02050800700081
:02050900700080
:02050A0070007F
:02050B0070007E
:02050C0070007D
:02050D0070007C
:02050E0070007B
:02050F0070007A
:02051000700079
:02051100700078
:02051200700077
:02051300700076
:02051400700075
:02051500700074
:02051600700073
:02051700700072
:02051800700071
:02051900700070
:02051A0070006F
:02051B0070006E
:02051C0070006D
:02051D0070006C
:02051E0070006B
:02051F0070006A
:02052000700069
:02052100700068
:02052200700067
:02052300700066
:02052400700065
:02052500700064
:02052600700063
:02052700700062
:02052800700061
:02052900700060
:02052A0070005F
:02052B0070005E
:02052C0070005D
:02052D0070005C
:02052E0070005B
:02052F0070005A
:02053000700059
:02053100700058
:02053200700057
:02053300700056
:02053400700055
:02053500700054
:02053600700053
:02053700700052
:02053800700051
:02053900700050
:02053A0070004F
:02053B0070004E
:02053C0070004D
:02053D0070004C
:02053E0070004B
:02053F0070004A
:02054000700049
:02054100700048
:02054200700047
:02054300700046
:02054400700045
:02054500700044
:02054600700043
:02054700700042
:02054800700041
:02054900700040
:02054A0070003F
:02054B0070003E
:02054C0070003D
:02054D0070003C
:02054E0070003B
:02054F0070003A
:02055000700039
:02055100700038
:02055200700037
:02055300700036
:02055400700035
:02055500700034
:02055600700033
:02055700700032
:02055800700031
:02055900700030
:02055A0070002F
:02055B0070002E
:02055C0070002D
:02055D0070002C
:02055E0070002B
:02055F0070002A
:02056000700029
:02056100700028
:02056200700027
:02056300700026
:02056400700025
:02056500700024
:02056600700023
:02056700700022
:02056800700021
:02056900700020
:02056A0070001F
:02056B0070001E
:02056C0070001D
:02056D0070001C
:02056E0070001B
:02056F0070001A
:02057000700019
:02057100700018
:02057200700017
:02057300700016
:02057400700015
:02057500700014
:02057600700013
:02057700700012
:02057800700011
:02057900700010
:02057A0070000F
:02057B0070000E
:02057C0070000D
:02057D0070000C
:02057E0070000B
:02057F0070000A
:02058000700009
:02058100700008
:02058200700007
:02058300700006
:02058400700005
:02058500700004
:02058600700003
:02058700700002
:02058800700001
:02058900700000
:02058A007000FF
:02058B007000FE
:02058C007000FD
:02058D007000FC
:02058E007000FB
:02058F007000FA
:020590007000F9
:020591007000F8
:020592007000F7
:020593007000F6
:020594007000F5
:020595007000F4
:020596007000F3
:020597007000F2
:020598007000F1
:020599007000F0
:02059A007000EF
:02059B007000EE
:02059C007000ED
:02059D007000EC
:02059E007000EB
:02059F007000EA
:0205A0007000E9
:0205A1007000E8
:0205A2007000E7
:0205A3007000E6
:0205A4007000E5
:0205A5007000E4
:0205A6007000E3
:0205A7007000E2
:0205A8007000E1
:0205A9007000E0
:0205AA007000DF
:0205AB007000DE
:0205AC007000DD
:0205AD007000DC
:0205AE007000DB
:0205AF007000DA
:0205B0007000D9
:0205B1007000D8
:0205B2007000D7
:0205B3007000D6
:0205B4007000D5
:0205B5007000D4
:0205B6007000D3
:0205B7007000D2
:0205B8007000D1
:0205B9007000D0
:0205BA007000CF
:0205BB007000CE
:0205BC007000CD
:0205BD007000CC
:0205BE007000CB
:0205BF007000CA
:0205C0007000C9
:0205C1007000C8
:0205C2007000C7
:0205C3007000C6
:0205C4007000C5
:0205C5007000C4
:0205C6007000C3
:0205C7007000C2
:0205C8007000C1
:0205C9007000C0
:0205CA007000BF
:0205CB007000BE
:0205CC007000BD
:0205CD007000BC
:0205CE007000BB
:0205CF007000BA
:0205D0007000B9
:0205D1007000B8
:0205D2007000B7
:0205D3007000B6
:0205D4007000B5
:0205D5007000B4
:0205D6007000B3
:0205D7007000B2
:0205D8007000B1
:0205D9007000B0
:0205DA007000AF
:0205DB007000AE
:0205DC007000AD
:0205DD007000AC
:0205DE007000AB
:0205DF007000AA
:0205E0007000A9
:0205E1007000A8
:0205E2007000A7
:0205E3007000A6
:0205E4007000A5
:0205E5007000A4
:0205E6007000A3
:0205E7007000A2
:0205E8007000A1
:0205E9007000A0
:0205EA0070009F
:0205EB0070009E
:0205EC0070009D
:0205ED0070009C
:0205EE0070009B
:0205EF0070009A
:0205F000700099
:0205F100700098
:0205F200700097
:0205F300700096
:0205F400700095
:0205F500700094
:0205F600700093
:0205F700700092
:0205F800700091
:0205F900700090
:0205FA0070008F
:0205FB0070008E
:0205FC0070008D
:0205FD0070008C
:0205FE0070008B
:0205FF0070008A
:02060000700088
:02060100700087
:02060200700086
:02060300700085
:02060400700084
:02060500700083
:02060600700082
:02060700700081
:02060800700080
:0206090070007F
:02060A0070007E
:02060B0070007D
:02060C0070007C
:02060D0070007B
:02060E0070007A
:02060F00700079
:02061000700078
:02061100700077
:02061200700076
:02061300700075
:02061400700074
:02061500700073
:02061600700072
:02061700700071
:02061800700070
:0206190070006F
:02061A0070006E
:02061B0070006D
:02061C0070006C
:02061D0070006B
:02061E0070006A
:02061F00700069
:02062000700068
:02062100700067
:02062200700066
:02062300700065
:02062400700064
:02062500700063
:02062600700062
:02062700700061
:02062800700060
:0206290070005F
:02062A0070005E
:02062B0070005D
:02062C0070005C
:02062D0070005B
:02062E0070005A
:02062F00700059
:02063000700058
:02063100700057
:02063200700056
:02063300700055
:02063400700054
:02063500700053
:02063600700052
:02063700700051
:02063800700050
:0206390070004F
:02063A0070004E
:02063B0070004D
:02063C0070004C
:02063D0070004B
:02063E0070004A
:02063F00700049
:02064000700048
:02064100700047
:02064200700046
:02064300700045
:02064400700044
:02064500700043
:02064600700042
:02064700700041
:02064800700040
:0206490070003F
:02064A0070003E
:02064B0070003D
:02064C0070003C
:02064D0070003B
:02064E0070003A
:02064F00700039
:02065000700038
:02065100700037
:02065200700036
:02065300700035
:02065400700034
:02065500700033
:02065600700032
:02065700700031
:02065800700030
:0206590070002F
:02065A0070002E
:02065B0070002D
:02065C0070002C
:02065D0070002B
:02065E0070002A
:02065F00700029
:02066000700028
:02066100700027
:02066200700026
:02066300700025
:02066400700024
:02066500700023
:02066600700022
:02066700700021
:02066800700020
:0206690070001F
:02066A0070001E
:02066B0070001D
:02066C0070001C
:02066D0070001B
:02066E0070001A
:02066F00700019
:02067000700018
:02067100700017
:02067200700016
:02067300700015
:02067400700014
:02067500700013
:02067600700012
:02067700700011
:02067800700010
:0206790070000F
:02067A0070000E
:02067B0070000D
:02067C0070000C
:02067D0070000B
:02067E0070000A
:02067F00700009
:02068000700008
:02068100700007
:02068200700006
:02068300700005
:02068400700004
:02068500700003
:02068600700002
:02068700700001
:02068800700000
:020689007000FF
:02068A007000FE
:02068B007000FD
:02068C007000FC
:02068D007000FB
:02068E007000FA
:02068F007000F9
:020690007000F8
:020691007000F7
:020692007000F6
:020693007000F5
:020694007000F4
:020695007000F3
:020696007000F2
:020697007000F1
:020698007000F0
:020699007000EF
:02069A007000EE
:02069B007000ED
:02069C007000EC
:02069D007000EB
:02069E007000EA
:02069F007000E9
:0206A0007000E8
:0206A1007000E7
:0206A2007000E6
:0206A3007000E5
:0206A4007000E4
:0206A5007000E3
:0206A6007000E2
:0206A7007000E1
:0206A8007000E0
:0206A9007000DF
:0206AA007000DE
:0206AB007000DD
:0206AC007000DC
:0206AD007000DB
:0206AE007000DA
:0206AF007000D9
:0206B0007000D8
:0206B1007000D7
:0206B2007000D6
:0206B3007000D5
:0206B4007000D4
:0206B5007000D3
:0206B6007000D2
:0206B7007000D1
:0206B8007000D0
:0206B9007000CF
:0206BA007000CE
:0206BB007000CD
:0206BC007000CC
:0206BD007000CB
:0206BE007000CA
:0206BF007000C9
:0206C0007000C8
:0206C1007000C7
:0206C2007000C6
:0206C3007000C5
:0206C4007000C4
:0206C5007000C3
:0206C6007000C2
:0206C7007000C1
:0206C8007000C0
:0206C9007000BF
:0206CA007000BE
:0206CB007000BD
:0206CC007000BC
:0206CD007000BB
:0206CE007000BA
:0206CF007000B9
:0206D0007000B8
:0206D1007000B7
:0206D2007000B6
:0206D3007000B5
:0206D4007000B4
:0206D5007000B3
:0206D6007000B2
:0206D7007000B1
:0206D8007000B0
:0206D9007000AF
:0206DA007000AE
:0206DB007000AD
:0206DC007000AC
:0206DD007000AB
:0206DE007000AA
:0206DF007000A9
:0206E0007000A8
:0206E1007000A7
:0206E2007000A6
:0206E3007000A5
:0206E4007000A4
:0206E5007000A3
:0206E6007000A2
:0206E7007000A1
:0206E8007000A0
:0206E90070009F
:0206EA0070009E
:0206EB0070009D
:0206EC0070009C
:0206ED0070009B
:0206EE0070009A
:0206EF00700099
:0206F000700098
:0206F100700097
:0206F200700096
:0206F300700095
:0206F400700094
:0206F500700093
:0206F600700092
:0206F700700091
:0206F800700090
:0206F90070008F
:0206FA0070008E
:0206FB0070008D
:0206FC0070008C
:0206FD0070008B
:0206FE0070008A
:0206FF00700089
:02070000700087
:02070100700086
:02070200700085
:02070300700084
:02070400700083
:02070500700082
:02070600700081
:02070700700080
:0207080070007F
:0207090070007E
:02070A0070007D
:02070B0070007C
:02070C0070007B
:02070D0070007A
:02070E00700079
:02070F00700078
:02071000700077
:02071100700076
:02071200700075
:02071300700074
:02071400700073
:02071500700072
:02071600700071
:02071700700070
:0207180070006F
:0207190070006E
:02071A0070006D
:02071B0070006C
:02071C0070006B
:02071D0070006A
:02071E00700069
:02071F00700068
:02072000700067
:02072100700066
:02072200700065
:02072300700064
:02072400700063
:02072500700062
:02072600700061
:02072700700060
:0207280070005F
:0207290070005E
:02072A0070005D
:02072B0070005C
:02072C0070005B
:02072D0070005A
:02072E00700059
:02072F00700058
:02073000700057
:02073100700056
:02073200700055
:02073300700054
:02073400700053
:02073500700052
:02073600700051
:02073700700050
:0207380070004F
:0207390070004E
:02073A0070004D
:02073B0070004C
:02073C0070004B
:02073D0070004A
:02073E00700049
:02073F00700048
:02074000700047
:02074100700046
:02074200700045
:02074300700044
:02074400700043
:02074500700042
:02074600700041
:02074700700040
:0207480070003F
:0207490070003E
:02074A0070003D
:02074B0070003C
:02074C0070003B
:02074D0070003A
:02074E00700039
:02074F00700038
:02075000700037
:02075100700036
:02075200700035
:02075300700034
:02075400700033
:02075500700032
:02075600700031
:02075700700030
:0207580070002F
:0207590070002E
:02075A0070002D
:02075B0070002C
:02075C0070002B
:02075D0070002A
:02075E00700029
:02075F00700028
:02076000700027
:02076100700026
:02076200700025
:02076300700024
:02076400700023
:02076500700022
:02076600700021
:02076700700020
:0207680070001F
:0207690070001E
:02076A0070001D
:02076B0070001C
:02076C0070001B
:02076D0070001A
:02076E00700019
:02076F00700018
:02077000700017
:02077100700016
:02077200700015
:02077300700014
:02077400700013
:02077500700012
:02077600700011
:02077700700010
:0207780070000F
:0207790070000E
:02077A0070000D
:02077B0070000C
:02077C0070000B
:02077D0070000A
:02077E00700009
:02077F00700008
:02078000700007
:02078100700006
:02078200700005
:02078300700004
:02078400700003
:02078500700002
:02078600700001
:02078700700000
:020788007000FF
:020789007000FE
:02078A007000FD
:02078B007000FC
:02078C007000FB
:02078D007000FA
:02078E007000F9
:02078F007000F8
:020790007000F7
:020791007000F6
:020792007000F5
:020793007000F4
:020794007000F3
:020795007000F2
:020796007000F1
:020797007000F0
:020798007000EF
:020799007000EE
:02079A007000ED
:02079B007000EC
:02079C007000EB
:02079D007000EA
:02079E007000E9
:02079F007000E8
:0207A0007000E7
:0207A1007000E6
:0207A2007000E5
:0207A3007000E4
:0207A4007000E3
:0207A5007000E2
:0207A6007000E1
:0207A7007000E0
:0207A8007000DF
:0207A9007000DE
:0207AA007000DD
:0207AB007000DC
:0207AC007000DB
:0207AD007000DA
:0207AE007000D9
:0207AF007000D8
:0207B0007000D7
:0207B1007000D6
:0207B2007000D5
:0207B3007000D4
:0207B4007000D3
:0207B5007000D2
:0207B6007000D1
:0207B7007000D0
:0207B8007000CF
:0207B9007000CE
:0207BA007000CD
:0207BB007000CC
:0207BC007000CB
:0207BD007000CA
:0207BE007000C9
:0207BF007000C8
:0207C0007000C7
:0207C1007000C6
:0207C2007000C5
:0207C3007000C4
:0207C4007000C3
:0207C5007000C2
:0207C6007000C1
:0207C7007000C0
:0207C8007000BF
:0207C9007000BE
:0207CA007000BD
:0207CB007000BC
:0207CC007000BB
:0207CD007000BA
:0207CE007000B9
:0207CF007000B8
:0207D0007000B7
:0207D1007000B6
:0207D2007000B5
:0207D3007000B4
:0207D4007000B3
:0207D5007000B2
:0207D6007000B1
:0207D7007000B0
:0207D8007000AF
:0207D9007000AE
:0207DA007000AD
:0207DB007000AC
:0207DC007000AB
:0207DD007000AA
:0207DE007000A9
:0207DF007000A8
:0207E0007000A7
:0207E1007000A6
:0207E2007000A5
:0207E3007000A4
:0207E4007000A3
:0207E5007000A2
:0207E6007000A1
:0207E7007000A0
:0207E80070009F
:0207E90070009E
:0207EA0070009D
:0207EB0070009C
:0207EC0070009B
:0207ED0070009A
:0207EE00700099
:0207EF00700098
:0207F000700097
:0207F100700096
:0207F200700095
:0207F300700094
:0207F400700093
:0207F500700092
:0207F600700091
:0207F700700090
:0207F80070008F
:0207F90070008E
:0207FA0070008D
:0207FB0070008C
:0207FC0070008B
:0207FD0070008A
:0207FE00700089
:0207FF00700088
:02080000700086
:02080100700085
:02080200700084
:02080300700083
:02080400700082
:02080500700081
:02080600700080
:0208070070007F
:0208080070007E
:0208090070007D
:02080A0070007C
:02080B0070007B
:02080C0070007A
:02080D00700079
:02080E00700078
:02080F00700077
:02081000700076
:02081100700075
:02081200700074
:02081300700073
:02081400700072
:02081500700071
:02081600700070
:0208170070006F
:0208180070006E
:0208190070006D
:02081A0070006C
:02081B0070006B
:02081C0070006A
:02081D00700069
:02081E00700068
:02081F00700067
:02082000700066
:02082100700065
:02082200700064
:02082300700063
:02082400700062
:02082500700061
:02082600700060
:0208270070005F
:0208280070005E
:0208290070005D
:02082A0070005C
:02082B0070005B
:02082C0070005A
:02082D00700059
:02082E00700058
:02082F00700057
:02083000700056
:02083100700055
:02083200700054
:02083300700053
:02083400700052
:02083500700051
:02083600700050
:0208370070004F
:0208380070004E
:0208390070004D
:02083A0070004C
:02083B0070004B
:02083C0070004A
:02083D00700049
:02083E00700048
:02083F00700047
:02084000700046
:02084100700045
:02084200700044
:02084300700043
:02084400700042
:02084500700041
:02084600700040
:0208470070003F
:0208480070003E
:0208490070003D
:02084A0070003C
:02084B0070003B
:02084C0070003A
:02084D00700039
:02084E00700038
:02084F00700037
:02085000700036
:02085100700035
:02085200700034
:02085300700033
:02085400700032
:02085500700031
:02085600700030
:0208570070002F
:0208580070002E
:0208590070002D
:02085A0070002C
:02085B0070002B
:02085C0070002A
:02085D00700029
:02085E00700028
:02085F00700027
:02086000700026
:02086100700025
:02086200700024
:02086300700023
:02086400700022
:02086500700021
:02086600700020
:0208670070001F
:0208680070001E
:0208690070001D
:02086A0070001C
:02086B0070001B
:02086C0070001A
:02086D00700019
:02086E00700018
:02086F00700017
:02087000700016
:02087100700015
:02087200700014
:02087300700013
:02087400700012
:02087500700011
:02087600700010
:0208770070000F
:0208780070000E
:0208790070000D
:02087A0070000C
:02087B0070000B
:02087C0070000A
:02087D00700009
:02087E00700008
:02087F00700007
:02088000700006
:02088100700005
:02088200700004
:02088300700003
:02088400700002
:02088500700001
:02088600700000
:020887007000FF
:020888007000FE
:020889007000FD
:02088A007000FC
:02088B007000FB
:02088C007000FA
:02088D007000F9
:02088E007000F8
:02088F007000F7
:020890007000F6
:020891007000F5
:020892007000F4
:020893007000F3
:020894007000F2
:020895007000F1
:020896007000F0
:020897007000EF
:020898007000EE
:020899007000ED
:02089A007000EC
:02089B007000EB
:02089C007000EA
:02089D007000E9
:02089E007000E8
:02089F007000E7
:0208A0007000E6
:0208A1007000E5
:0208A2007000E4
:0208A3007000E3
:0208A4007000E2
:0208A5007000E1
:0208A6007000E0
:0208A7007000DF
:0208A8007000DE
:0208A9007000DD
:0208AA007000DC
:0208AB007000DB
:0208AC007000DA
:0208AD007000D9
:0208AE007000D8
:0208AF007000D7
:0208B0007000D6
:0208B1007000D5
:0208B2007000D4
:0208B3007000D3
:0208B4007000D2
:0208B5007000D1
:0208B6007000D0
:0208B7007000CF
:0208B8007000CE
:0208B9007000CD
:0208BA007000CC
:0208BB007000CB
:0208BC007000CA
:0208BD007000C9
:0208BE007000C8
:0208BF007000C7
:0208C0007000C6
:0208C1007000C5
:0208C2007000C4
:0208C3007000C3
:0208C4007000C2
:0208C5007000C1
:0208C6007000C0
:0208C7007000BF
:0208C8007000BE
:0208C9007000BD
:0208CA007000BC
:0208CB007000BB
:0208CC007000BA
:0208CD007000B9
:0208CE007000B8
:0208CF007000B7
:0208D0007000B6
:0208D1007000B5
:0208D2007000B4
:0208D3007000B3
:0208D4007000B2
:0208D5007000B1
:0208D6007000B0
:0208D7007000AF
:0208D8007000AE
:0208D9007000AD
:0208DA007000AC
:0208DB007000AB
:0208DC007000AA
:0208DD007000A9
:0208DE007000A8
:0208DF007000A7
:0208E0007000A6
:0208E1007000A5
:0208E2007000A4
:0208E3007000A3
:0208E4007000A2
:0208E5007000A1
:0208E6007000A0
:0208E70070009F
:0208E80070009E
:0208E90070009D
:0208EA0070009C
:0208EB0070009B
:0208EC0070009A
:0208ED00700099
:0208EE00700098
:0208EF00700097
:0208F000700096
:0208F100700095
:0208F200700094
:0208F300700093
:0208F400700092
:0208F500700091
:0208F600700090
:0208F70070008F
:0208F80070008E
:0208F90070008D
:0208FA0070008C
:0208FB0070008B
:0208FC0070008A
:0208FD00700089
:0208FE00700088
:0208FF00700087
:02090000700085
:02090100700084
:02090200700083
:02090300700082
:02090400700081
:02090500700080
:0209060070007F
:0209070070007E
:0209080070007D
:0209090070007C
:02090A0070007B
:02090B0070007A
:02090C00700079
:02090D00700078
:02090E00700077
:02090F00700076
:02091000700075
:02091100700074
:02091200700073
:02091300700072
:02091400700071
:02091500700070
:0209160070006F
:0209170070006E
:0209180070006D
:0209190070006C
:02091A0070006B
:02091B0070006A
:02091C00700069
:02091D00700068
:02091E00700067
:02091F00700066
:02092000700065
:02092100700064
:02092200700063
:02092300700062
:02092400700061
:02092500700060
:0209260070005F
:0209270070005E
:0209280070005D
:0209290070005C
:02092A0070005B
:02092B0070005A
:02092C00700059
:02092D00700058
:02092E00700057
:02092F00700056
:02093000700055
:02093100700054
:02093200700053
:02093300700052
:02093400700051
:02093500700050
:0209360070004F
:0209370070004E
:0209380070004D
:0209390070004C
:02093A0070004B
:02093B0070004A
:02093C00700049
:02093D00700048
:02093E00700047
:02093F00700046
:02094000700045
:02094100700044
:02094200700043
:02094300700042
:02094400700041
:02094500700040
:0209460070003F
:0209470070003E
:0209480070003D
:0209490070003C
:02094A0070003B
:02094B0070003A
:02094C00700039
:02094D00700038
:02094E00700037
:02094F00700036
:02095000700035
:02095100700034
:02095200700033
:02095300700032
:02095400700031
:02095500700030
:0209560070002F
:0209570070002E
:0209580070002D
:0209590070002C
:02095A0070002B
:02095B0070002A
:02095C00700029
:02095D00700028
:02095E00700027
:02095F00700026
:02096000700025
:02096100700024
:02096200700023
:02096300700022
:02096400700021
:02096500700020
:0209660070001F
:0209670070001E
:0209680070001D
:0209690070001C
:02096A0070001B
:02096B0070001A
:02096C00700019
:02096D00700018
:02096E00700017
:02096F00700016
:02097000700015
:02097100700014
:02097200700013
:02097300700012
:02097400700011
:02097500700010
:0209760070000F
:0209770070000E
:0209780070000D
:0209790070000C
:02097A0070000B
:02097B0070000A
:02097C00700009
:02097D00700008
:02097E00700007
:02097F00700006
:02098000700005
:02098100700004
:02098200700003
:02098300700002
:02098400700001
:02098500700000
:020986007000FF
:020987007000FE
:020988007000FD
:020989007000FC
:02098A007000FB
:02098B007000FA
:02098C007000F9
:02098D007000F8
:02098E007000F7
:02098F007000F6
:020990007000F5
:020991007000F4
:020992007000F3
:020993007000F2
:020994007000F1
:020995007000F0
:020996007000EF
:020997007000EE
:020998007000ED
:020999007000EC
:02099A007000EB
:02099B007000EA
:02099C007000E9
:02099D007000E8
:02099E007000E7
:02099F007000E6
:0209A0007000E5
:0209A1007000E4
:0209A2007000E3
:0209A3007000E2
:0209A4007000E1
:0209A5007000E0
:0209A6007000DF
:0209A7007000DE
:0209A8007000DD
:0209A9007000DC
:0209AA007000DB
:0209AB007000DA
:0209AC007000D9
:0209AD007000D8
:0209AE007000D7
:0209AF007000D6
:0209B0007000D5
:0209B1007000D4
:0209B2007000D3
:0209B3007000D2
:0209B4007000D1
:0209B5007000D0
:0209B6007000CF
:0209B7007000CE
:0209B8007000CD
:0209B9007000CC
:0209BA007000CB
:0209BB007000CA
:0209BC007000C9
:0209BD007000C8
:0209BE007000C7
:0209BF007000C6
:0209C0007000C5
:0209C1007000C4
:0209C2007000C3
:0209C3007000C2
:0209C4007000C1
:0209C5007000C0
:0209C6007000BF
:0209C7007000BE
:0209C8007000BD
:0209C9007000BC
:0209CA007000BB
:0209CB007000BA
:0209CC007000B9
:0209CD007000B8
:0209CE007000B7
:0209CF007000B6
:0209D0007000B5
:0209D1007000B4
:0209D2007000B3
:0209D3007000B2
:0209D4007000B1
:0209D5007000B0
:0209D6007000AF
:0209D7007000AE
:0209D8007000AD
:0209D9007000AC
:0209DA007000AB
:0209DB007000AA
:0209DC007000A9
:0209DD007000A8
:0209DE007000A7
:0209DF007000A6
:0209E0007000A5
:0209E1007000A4
:0209E2007000A3
:0209E3007000A2
:0209E4007000A1
:0209E5007000A0
:0209E60070009F
:0209E70070009E
:0209E80070009D
:0209E90070009C
:0209EA0070009B
:0209EB0070009A
:0209EC00700099
:0209ED00700098
:0209EE00700097
:0209EF00700096
:0209F000700095
:0209F100700094
:0209F200700093
:0209F300700092
:0209F400700091
:0209F500700090
:0209F60070008F
:0209F70070008E
:0209F80070008D
:0209F90070008C
:0209FA0070008B
:0209FB0070008A
:0209FC00700089
:0209FD00700088
:0209FE00700087
:0209FF00700086
:020A0000700084
:020A0100700083
:020A0200700082
:020A0300700081
:020A0400700080
:020A050070007F
:020A060070007E
:020A070070007D
:020A080070007C
:020A090070007B
:020A0A0070007A
:020A0B00700079
:020A0C00700078
:020A0D00700077
:020A0E00700076
:020A0F00700075
:020A1000700074
:020A1100700073
:020A1200700072
:020A1300700071
:020A1400700070
:020A150070006F
:020A160070006E
:020A170070006D
:020A180070006C
:020A190070006B
:020A1A0070006A
:020A1B00700069
:020A1C00700068
:020A1D00700067
:020A1E00700066
:020A1F00700065
:020A2000700064
:020A2100700063
:020A2200700062
:020A2300700061
:020A2400700060
:020A250070005F
:020A260070005E
:020A270070005D
:020A280070005C
:020A290070005B
:020A2A0070005A
:020A2B00700059
:020A2C00700058
:020A2D00700057
:020A2E00700056
:020A2F00700055
:020A3000700054
:020A3100700053
:020A3200700052
:020A3300700051
:020A3400700050
:020A350070004F
:020A360070004E
:020A370070004D
:020A380070004C
:020A390070004B
:020A3A0070004A
:020A3B00700049
:020A3C00700048
:020A3D00700047
:020A3E00700046
:020A3F00700045
:020A4000700044
:020A4100700043
:020A4200700042
:020A4300700041
:020A4400700040
:020A450070003F
:020A460070003E
:020A470070003D
:020A480070003C
:020A490070003B
:020A4A0070003A
:020A4B00700039
:020A4C00700038
:020A4D00700037
:020A4E00700036
:020A4F00700035
:020A5000700034
:020A5100700033
:020A5200700032
:020A5300700031
:020A5400700030
:020A550070002F
:020A560070002E
:020A570070002D
:020A580070002C
:020A590070002B
:020A5A0070002A
:020A5B00700029
:020A5C00700028
:020A5D00700027
:020A5E00700026
:020A5F00700025
:020A6000700024
:020A6100700023
:020A6200700022
:020A6300700021
:020A6400700020
:020A650070001F
:020A660070001E
:020A670070001D
:020A680070001C
:020A690070001B
:020A6A0070001A
:020A6B00700019
:020A6C00700018
:020A6D00700017
:020A6E00700016
:020A6F00700015
:020A7000700014
:020A7100700013
:020A7200700012
:020A7300700011
:020A7400700010
:020A750070000F
:020A760070000E
:020A770070000D
:020A780070000C
:020A790070000B
:020A7A0070000A
:020A7B00700009
:020A7C00700008
:020A7D00700007
:020A7E00700006
:020A7F00700005
:020A8000700004
:020A8100700003
:020A8200700002
:020A8300700001
:020A8400700000
:020A85007000FF
:020A86007000FE
:020A87007000FD
:020A88007000FC
:020A89007000FB
:020A8A007000FA
:020A8B007000F9
:020A8C007000F8
:020A8D007000F7
:020A8E007000F6
:020A8F007000F5
:020A90007000F4
:020A91007000F3
:020A92007000F2
:020A93007000F1
:020A94007000F0
:020A95007000EF
:020A96007000EE
:020A97007000ED
:020A98007000EC
:020A99007000EB
:020A9A007000EA
:020A9B007000E9
:020A9C007000E8
:020A9D007000E7
:020A9E007000E6
:020A9F007000E5
:020AA0007000E4
:020AA1007000E3
:020AA2007000E2
:020AA3007000E1
:020AA4007000E0
:020AA5007000DF
:020AA6007000DE
:020AA7007000DD
:020AA8007000DC
:020AA9007000DB
:020AAA007000DA
:020AAB007000D9
:020AAC007000D8
:020AAD007000D7
:020AAE007000D6
:020AAF007000D5
:020AB0007000D4
:020AB1007000D3
:020AB2007000D2
:020AB3007000D1
:020AB4007000D0
:020AB5007000CF
:020AB6007000CE
:020AB7007000CD
:020AB8007000CC
:020AB9007000CB
:020ABA007000CA
:020ABB007000C9
:020ABC007000C8
:020ABD007000C7
:020ABE007000C6
:020ABF007000C5
:020AC0007000C4
:020AC1007000C3
:020AC2007000C2
:020AC3007000C1
:020AC4007000C0
:020AC5007000BF
:020AC6007000BE
:020AC7007000BD
:020AC8007000BC
:020AC9007000BB
:020ACA007000BA
:020ACB007000B9
:020ACC007000B8
:020ACD007000B7
:020ACE007000B6
:020ACF007000B5
:020AD0007000B4
:020AD1007000B3
:020AD2007000B2
:020AD3007000B1
:020AD4007000B0
:020AD5007000AF
:020AD6007000AE
:020AD7007000AD
:020AD8007000AC
:020AD9007000AB
:020ADA007000AA
:020ADB007000A9
:020ADC007000A8
:020ADD007000A7
:020ADE007000A6
:020ADF007000A5
:020AE0007000A4
:020AE1007000A3
:020AE2007000A2
:020AE3007000A1
:020AE4007000A0
:020AE50070009F
:020AE60070009E
:020AE70070009D
:020AE80070009C
:020AE90070009B
:020AEA0070009A
:020AEB00700099
:020AEC00700098
:020AED00700097
:020AEE00700096
:020AEF00700095
:020AF000700094
:020AF100700093
:020AF200700092
:020AF300700091
:020AF400700090
:020AF50070008F
:020AF60070008E
:020AF70070008D
:020AF80070008C
:020AF90070008B
:020AFA0070008A
:020AFB00700089
:020AFC00700088
:020AFD00700087
:020AFE00700086
:020AFF00700085
:020B0000700083
:020B0100700082
:020B0200700081
:020B0300700080
:020B040070007F
:020B050070007E
:020B060070007D
:020B070070007C
:020B080070007B
:020B090070007A
:020B0A00700079
:020B0B00700078
:020B0C00700077
:020B0D00700076
:020B0E00700075
:020B0F00700074
:020B1000700073
:020B1100700072
:020B1200700071
:020B1300700070
:020B140070006F
:020B150070006E
:020B160070006D
:020B170070006C
:020B180070006B
:020B190070006A
:020B1A00700069
:020B1B00700068
:020B1C00700067
:020B1D00700066
:020B1E00700065
:020B1F00700064
:020B2000700063
:020B2100700062
:020B2200700061
:020B2300700060
:020B240070005F
:020B250070005E
:020B260070005D
:020B270070005C
:020B280070005B
:020B290070005A
:020B2A00700059
:020B2B00700058
:020B2C00700057
:020B2D00700056
:020B2E00700055
:020B2F00700054
:020B3000700053
:020B3100700052
:020B3200700051
:020B3300700050
:020B340070004F
:020B350070004E
:020B360070004D
:020B370070004C
:020B380070004B
:020B390070004A
:020B3A00700049
:020B3B00700048
:020B3C00700047
:020B3D00700046
:020B3E00700045
:020B3F00700044
:020B4000700043
:020B4100700042
:020B4200700041
:020B4300700040
:020B440070003F
:020B450070003E
:020B460070003D
:020B470070003C
:020B480070003B
:020B490070003A
:020B4A00700039
:020B4B00700038
:020B4C00700037
:020B4D00700036
:020B4E00700035
:020B4F00700034
:020B5000700033
:020B5100700032
:020B5200700031
:020B5300700030
:020B540070002F
:020B550070002E
:020B560070002D
:020B570070002C
:020B580070002B
:020B590070002A
:020B5A00700029
:020B5B00700028
:020B5C00700027
:020B5D00700026
:020B5E00700025
:020B5F00700024
:020B6000700023
:020B6100000092
:020B6200000091
:020B6300000090
:020B640000008F
:020B650000008E
:020B660000008D
:020B670000008C
:020B680000008B
:020B690000008A
:020B6A00000089
:020B6B00000088
:020B6C00000087
:020B6D00000086
:020B6E00000085
:020B6F00000084
:020B7000000083
:020B7100000082
:020B7200000081
:020B7300000080
:020B740000007F
:020B750000007E
:020B760000007D
:020B770000007C
:020B780000007B
:020B790000007A
:020B7A00000079
:020B7B00000078
:020B7C00000077
:020B7D00000076
:020B7E00000075
:020B7F00000074
:020B8000000073
:020B8100000072
:020B8200000071
:020B8300000070
:020B840000006F
:020B850000006E
:020B860000006D
:020B870000006C
:020B880000006B
:020B890000006A
:020B8A00000069
:020B8B00000068
:020B8C00000067
:020B8D00000066
:020B8E00000065
:020B8F00000064
:020B9000000063
:020B9100000062
:020B9200000061
:020B9300000060
:020B940000005F
:020B950000005E
:020B960000005D
:020B970000005C
:020B980000005B
:020B990000005A
:020B9A00000059
:020B9B00000058
:020B9C00000057
:020B9D00000056
:020B9E00000055
:020B9F00000054
:020BA000000053
:020BA100000052
:020BA200000051
:020BA300000050
:020BA40000004F
:020BA50000004E
:020BA60000004D
:020BA70000004C
:020BA80000004B
:020BA90000004A
:020BAA00000049
:020BAB00000048
:020BAC00000047
:020BAD00000046
:020BAE00000045
:020BAF00000044
:020BB000000043
:020BB100000042
:020BB200000041
:020BB300000040
:020BB40000003F
:020BB50000003E
:020BB60000003D
:020BB70000003C
:020BB80000003B
:020BB90000003A
:020BBA00000039
:020BBB00000038
:020BBC00000037
:020BBD00000036
:020BBE00000035
:020BBF00000034
:020BC000000033
:020BC100000032
:020BC200000031
:020BC300000030
:020BC40000002F
:020BC50000002E
:020BC60000002D
:020BC70000002C
:020BC80000002B
:020BC90000002A
:020BCA00000029
:020BCB00000028
:020BCC00000027
:020BCD00000026
:020BCE00000025
:020BCF00000024
:020BD000000023
:020BD100000022
:020BD200000021
:020BD300000020
:020BD40000001F
:020BD50000001E
:020BD60000001D
:020BD70000001C
:020BD80000001B
:020BD90000001A
:020BDA00000019
:020BDB00000018
:020BDC00000017
:020BDD00000016
:020BDE00000015
:020BDF00000014
:020BE000000013
:020BE100000012
:020BE200000011
:020BE300000010
:020BE40000000F
:020BE50000000E
:020BE60000000D
:020BE70000000C
:020BE80000000B
:020BE90000000A
:020BEA00000009
:020BEB00000008
:020BEC00000007
:020BED00000006
:020BEE00000005
:020BEF00000004
:020BF000000003
:020BF100000002
:020BF200000001
:020BF300000000
:020BF4000000FF
:020BF5000000FE
:020BF6000000FD
:020BF7000000FC
:020BF8000000FB
:020BF9000000FA
:020BFA000000F9
:020BFB000000F8
:020BFC000000F7
:020BFD000000F6
:020BFE000000F5
:020BFF000000F4
:020C00000000F2
:020C01000000F1
:020C02000000F0
:020C03000000EF
:020C04000000EE
:020C05000000ED
:020C06000000EC
:020C07000000EB
:020C08000000EA
:020C09000000E9
:020C0A000000E8
:020C0B000000E7
:020C0C000000E6
:020C0D000000E5
:020C0E000000E4
:020C0F000000E3
:020C10000000E2
:020C11000000E1
:020C12000000E0
:020C13000000DF
:020C14000000DE
:020C15000000DD
:020C16000000DC
:020C17000000DB
:020C18000000DA
:020C19000000D9
:020C1A000000D8
:020C1B000000D7
:020C1C000000D6
:020C1D000000D5
:020C1E000000D4
:020C1F000000D3
:020C20000000D2
:020C21000000D1
:020C22000000D0
:020C23000000CF
:020C24000000CE
:020C25000000CD
:020C26000000CC
:020C27000000CB
:020C28000000CA
:020C29000000C9
:020C2A000000C8
:020C2B000000C7
:020C2C000000C6
:020C2D000000C5
:020C2E000000C4
:020C2F000000C3
:020C30000000C2
:020C31000000C1
:020C32000000C0
:020C33000000BF
:020C34000000BE
:020C35000000BD
:020C36000000BC
:020C37000000BB
:020C38000000BA
:020C39000000B9
:020C3A000000B8
:020C3B000000B7
:020C3C000000B6
:020C3D000000B5
:020C3E000000B4
:020C3F000000B3
:020C40000000B2
:020C41000000B1
:020C42000000B0
:020C43000000AF
:020C44000000AE
:020C45000000AD
:020C46000000AC
:020C47000000AB
:020C48000000AA
:020C49000000A9
:020C4A000000A8
:020C4B000000A7
:020C4C000000A6
:020C4D000000A5
:020C4E000000A4
:020C4F000000A3
:020C50000000A2
:020C51000000A1
:020C52000000A0
:020C530000009F
:020C540000009E
:020C550000009D
:020C560000009C
:020C570000009B
:020C580000009A
:020C5900000099
:020C5A00000098
:020C5B00000097
:020C5C00000096
:020C5D00000095
:020C5E00000094
:020C5F00000093
:020C6000000092
:020C6100000091
:020C6200000090
:020C630000008F
:020C640000008E
:020C650000008D
:020C660000008C
:020C670000008B
:020C680000008A
:020C6900000089
:020C6A00000088
:020C6B00000087
:020C6C00000086
:020C6D00000085
:020C6E00000084
:020C6F00000083
:020C7000000082
:020C7100000081
:020C7200000080
:020C730000007F
:020C740000007E
:020C750000007D
:020C760000007C
:020C770000007B
:020C780000007A
:020C7900000079
:020C7A00000078
:020C7B00000077
:020C7C00000076
:020C7D00000075
:020C7E00000074
:020C7F00000073
:020C8000000072
:020C8100000071
:020C8200000070
:020C830000006F
:020C840000006E
:020C850000006D
:020C860000006C
:020C870000006B
:020C880000006A
:020C8900000069
:020C8A00000068
:020C8B00000067
:020C8C00000066
:020C8D00000065
:020C8E00000064
:020C8F00000063
:020C9000000062
:020C9100000061
:020C9200000060
:020C930000005F
:020C940000005E
:020C950000005D
:020C960000005C
:020C970000005B
:020C980000005A
:020C9900000059
:020C9A00000058
:020C9B00000057
:020C9C00000056
:020C9D00000055
:020C9E00000054
:020C9F00000053
:020CA000000052
:020CA100000051
:020CA200000050
:020CA30000004F
:020CA40000004E
:020CA50000004D
:020CA60000004C
:020CA70000004B
:020CA80000004A
:020CA900000049
:020CAA00000048
:020CAB00000047
:020CAC00000046
:020CAD00000045
:020CAE00000044
:020CAF00000043
:020CB000000042
:020CB100000041
:020CB200000040
:020CB30000003F
:020CB40000003E
:020CB50000003D
:020CB60000003C
:020CB70000003B
:020CB80000003A
:020CB900000039
:020CBA00000038
:020CBB00000037
:020CBC00000036
:020CBD00000035
:020CBE00000034
:020CBF00000033
:020CC000000032
:020CC100000031
:020CC200000030
:020CC30000002F
:020CC40000002E
:020CC50000002D
:020CC60000002C
:020CC70000002B
:020CC80000002A
:020CC900000029
:020CCA00000028
:020CCB00000027
:020CCC00000026
:020CCD00000025
:020CCE00000024
:020CCF00000023
:020CD000000022
:020CD100000021
:020CD200000020
:020CD30000001F
:020CD40000001E
:020CD50000001D
:020CD60000001C
:020CD70000001B
:020CD80000001A
:020CD900000019
:020CDA00000018
:020CDB00000017
:020CDC00000016
:020CDD00000015
:020CDE00000014
:020CDF00000013
:020CE000000012
:020CE100000011
:020CE200000010
:020CE30000000F
:020CE40000000E
:020CE50000000D
:020CE60000000C
:020CE70000000B
:020CE80000000A
:020CE900000009
:020CEA00000008
:020CEB00000007
:020CEC00000006
:020CED00000005
:020CEE00000004
:020CEF00000003
:020CF000000002
:020CF100000001
:020CF200000000
:020CF3000000FF
:020CF4000000FE
:020CF5000000FD
:020CF6000000FC
:020CF7000000FB
:020CF8000000FA
:020CF9000000F9
:020CFA000000F8
:020CFB000000F7
:020CFC000000F6
:020CFD000000F5
:020CFE000000F4
:020CFF000000F3
:020D00000000F1
:020D01000000F0
:020D02000000EF
:020D03000000EE
:020D04000000ED
:020D05000000EC
:020D06000000EB
:020D07000000EA
:020D08000000E9
:020D09000000E8
:020D0A000000E7
:020D0B000000E6
:020D0C000000E5
:020D0D000000E4
:020D0E000000E3
:020D0F000000E2
:020D10000000E1
:020D11000000E0
:020D12000000DF
:020D13000000DE
:020D14000000DD
:020D15000000DC
:020D16000000DB
:020D17000000DA
:020D18000000D9
:020D19000000D8
:020D1A000000D7
:020D1B000000D6
:020D1C000000D5
:020D1D000000D4
:020D1E000000D3
:020D1F000000D2
:020D20000000D1
:020D21000000D0
:020D22000000CF
:020D23000000CE
:020D24000000CD
:020D25000000CC
:020D26000000CB
:020D27000000CA
:020D28000000C9
:020D29000000C8
:020D2A000000C7
:020D2B000000C6
:020D2C000000C5
:020D2D000000C4
:020D2E000000C3
:020D2F000000C2
:020D30000000C1
:020D31000000C0
:020D32000000BF
:020D33000000BE
:020D34000000BD
:020D35000000BC
:020D36000000BB
:020D37000000BA
:020D38000000B9
:020D39000000B8
:020D3A000000B7
:020D3B000000B6
:020D3C000000B5
:020D3D000000B4
:020D3E000000B3
:020D3F000000B2
:020D40000000B1
:020D41000000B0
:020D42000000AF
:020D43000000AE
:020D44000000AD
:020D45000000AC
:020D46000000AB
:020D47000000AA
:020D48000000A9
:020D49000000A8
:020D4A000000A7
:020D4B000000A6
:020D4C000000A5
:020D4D000000A4
:020D4E000000A3
:020D4F000000A2
:020D50000000A1
:020D51000000A0
:020D520000009F
:020D530000009E
:020D540000009D
:020D550000009C
:020D560000009B
:020D570000009A
:020D5800000099
:020D5900000098
:020D5A00000097
:020D5B00000096
:020D5C00000095
:020D5D00000094
:020D5E00000093
:020D5F00000092
:020D6000000091
:020D6100000090
:020D620000008F
:020D630000008E
:020D640000008D
:020D650000008C
:020D660000008B
:020D670000008A
:020D6800000089
:020D6900000088
:020D6A00000087
:020D6B00000086
:020D6C00000085
:020D6D00000084
:020D6E00000083
:020D6F00000082
:020D7000000081
:020D7100000080
:020D720000007F
:020D730000007E
:020D740000007D
:020D750000007C
:020D760000007B
:020D770000007A
:020D7800000079
:020D7900000078
:020D7A00000077
:020D7B00000076
:020D7C00000075
:020D7D00000074
:020D7E00000073
:020D7F00000072
:020D8000000071
:020D8100000070
:020D820000006F
:020D830000006E
:020D840000006D
:020D850000006C
:020D860000006B
:020D870000006A
:020D8800000069
:020D8900000068
:020D8A00000067
:020D8B00000066
:020D8C00000065
:020D8D00000064
:020D8E00000063
:020D8F00000062
:020D9000000061
:020D9100000060
:020D920000005F
:020D930000005E
:020D940000005D
:020D950000005C
:020D960000005B
:020D970000005A
:020D9800000059
:020D9900000058
:020D9A00000057
:020D9B00000056
:020D9C00000055
:020D9D00000054
:020D9E00000053
:020D9F00000052
:020DA000000051
:020DA100000050
:020DA20000004F
:020DA30000004E
:020DA40000004D
:020DA50000004C
:020DA60000004B
:020DA70000004A
:020DA800000049
:020DA900000048
:020DAA00000047
:020DAB00000046
:020DAC00000045
:020DAD00000044
:020DAE00000043
:020DAF00000042
:020DB000000041
:020DB100000040
:020DB20000003F
:020DB30000003E
:020DB40000003D
:020DB50000003C
:020DB60000003B
:020DB70000003A
:020DB800000039
:020DB900000038
:020DBA00000037
:020DBB00000036
:020DBC00000035
:020DBD00000034
:020DBE00000033
:020DBF00000032
:020DC000000031
:020DC100000030
:020DC20000002F
:020DC30000002E
:020DC40000002D
:020DC50000002C
:020DC60000002B
:020DC70000002A
:020DC800000029
:020DC900000028
:020DCA00000027
:020DCB00000026
:020DCC00000025
:020DCD00000024
:020DCE00000023
:020DCF00000022
:020DD000000021
:020DD100000020
:020DD20000001F
:020DD30000001E
:020DD40000001D
:020DD50000001C
:020DD60000001B
:020DD70000001A
:020DD800000019
:020DD900000018
:020DDA00000017
:020DDB00000016
:020DDC00000015
:020DDD00000014
:020DDE00000013
:020DDF00000012
:020DE000000011
:020DE100000010
:020DE20000000F
:020DE30000000E
:020DE40000000D
:020DE50000000C
:020DE60000000B
:020DE70000000A
:020DE800000009
:020DE900000008
:020DEA00000007
:020DEB00000006
:020DEC00000005
:020DED00000004
:020DEE00000003
:020DEF00000002
:020DF000000001
:020DF100000000
:020DF2000000FF
:020DF3000000FE
:020DF4000000FD
:020DF5000000FC
:020DF6000000FB
:020DF7000000FA
:020DF8000000F9
:020DF9000000F8
:020DFA000000F7
:020DFB000000F6
:020DFC000000F5
:020DFD000000F4
:020DFE000000F3
:020DFF000000F2
:020E00000000F0
:020E01000000EF
:020E02000000EE
:020E03000000ED
:020E04000000EC
:020E05000000EB
:020E06000000EA
:020E07000000E9
:020E08000000E8
:020E09000000E7
:020E0A000000E6
:020E0B000000E5
:020E0C000000E4
:020E0D000000E3
:020E0E000000E2
:020E0F000000E1
:020E10000000E0
:020E11000000DF
:020E12000000DE
:020E13000000DD
:020E14000000DC
:020E15000000DB
:020E16000000DA
:020E17000000D9
:020E18000000D8
:020E19000000D7
:020E1A000000D6
:020E1B000000D5
:020E1C000000D4
:020E1D000000D3
:020E1E000000D2
:020E1F000000D1
:020E20000000D0
:020E21000000CF
:020E22000000CE
:020E23000000CD
:020E24000000CC
:020E25000000CB
:020E26000000CA
:020E27000000C9
:020E28000000C8
:020E29000000C7
:020E2A000000C6
:020E2B000000C5
:020E2C000000C4
:020E2D000000C3
:020E2E000000C2
:020E2F000000C1
:020E30000000C0
:020E31000000BF
:020E32000000BE
:020E33000000BD
:020E34000000BC
:020E35000000BB
:020E36000000BA
:020E37000000B9
:020E38000000B8
:020E39000000B7
:020E3A000000B6
:020E3B000000B5
:020E3C000000B4
:020E3D000000B3
:020E3E000000B2
:020E3F000000B1
:020E40000000B0
:020E41000000AF
:020E42000000AE
:020E43000000AD
:020E44000000AC
:020E45000000AB
:020E46000000AA
:020E47000000A9
:020E48000000A8
:020E49000000A7
:020E4A000000A6
:020E4B000000A5
:020E4C000000A4
:020E4D000000A3
:020E4E000000A2
:020E4F000000A1
:020E50000000A0
:020E510000009F
:020E520000009E
:020E530000009D
:020E540000009C
:020E550000009B
:020E560000009A
:020E5700000099
:020E5800000098
:020E5900000097
:020E5A00000096
:020E5B00000095
:020E5C00000094
:020E5D00000093
:020E5E00000092
:020E5F00000091
:020E6000000090
:020E610000008F
:020E620000008E
:020E630000008D
:020E640000008C
:020E650000008B
:020E660000008A
:020E6700000089
:020E6800000088
:020E6900000087
:020E6A00000086
:020E6B00000085
:020E6C00000084
:020E6D00000083
:020E6E00000082
:020E6F00000081
:020E7000000080
:020E710000007F
:020E720000007E
:020E730000007D
:020E740000007C
:020E750000007B
:020E760000007A
:020E7700000079
:020E7800000078
:020E7900000077
:020E7A00000076
:020E7B00000075
:020E7C00000074
:020E7D00000073
:020E7E00000072
:020E7F00000071
:020E8000000070
:020E810000006F
:020E820000006E
:020E830000006D
:020E840000006C
:020E850000006B
:020E860000006A
:020E8700000069
:020E8800000068
:020E8900000067
:020E8A00000066
:020E8B00000065
:020E8C00000064
:020E8D00000063
:020E8E00000062
:020E8F00000061
:020E9000000060
:020E910000005F
:020E920000005E
:020E930000005D
:020E940000005C
:020E950000005B
:020E960000005A
:020E9700000059
:020E9800000058
:020E9900000057
:020E9A00000056
:020E9B00000055
:020E9C00000054
:020E9D00000053
:020E9E00000052
:020E9F00000051
:020EA000000050
:020EA10000004F
:020EA20000004E
:020EA30000004D
:020EA40000004C
:020EA50000004B
:020EA60000004A
:020EA700000049
:020EA800000048
:020EA900000047
:020EAA00000046
:020EAB00000045
:020EAC00000044
:020EAD00000043
:020EAE00000042
:020EAF00000041
:020EB000000040
:020EB10000003F
:020EB20000003E
:020EB30000003D
:020EB40000003C
:020EB50000003B
:020EB60000003A
:020EB700000039
:020EB800000038
:020EB900000037
:020EBA00000036
:020EBB00000035
:020EBC00000034
:020EBD00000033
:020EBE00000032
:020EBF00000031
:020EC000000030
:020EC10000002F
:020EC20000002E
:020EC30000002D
:020EC40000002C
:020EC50000002B
:020EC60000002A
:020EC700000029
:020EC800000028
:020EC900000027
:020ECA00000026
:020ECB00000025
:020ECC00000024
:020ECD00000023
:020ECE00000022
:020ECF00000021
:020ED000000020
:020ED10000001F
:020ED20000001E
:020ED30000001D
:020ED40000001C
:020ED50000001B
:020ED60000001A
:020ED700000019
:020ED800000018
:020ED900000017
:020EDA00000016
:020EDB00000015
:020EDC00000014
:020EDD00000013
:020EDE00000012
:020EDF00000011
:020EE000000010
:020EE10000000F
:020EE20000000E
:020EE30000000D
:020EE40000000C
:020EE50000000B
:020EE60000000A
:020EE700000009
:020EE800000008
:020EE900000007
:020EEA00000006
:020EEB00000005
:020EEC00000004
:020EED00000003
:020EEE00000002
:020EEF00000001
:020EF000000000
:020EF1000000FF
:020EF2000000FE
:020EF3000000FD
:020EF4000000FC
:020EF5000000FB
:020EF6000000FA
:020EF7000000F9
:020EF8000000F8
:020EF9000000F7
:020EFA000000F6
:020EFB000000F5
:020EFC000000F4
:020EFD000000F3
:020EFE000000F2
:020EFF000000F1
:020F00000000EF
:020F01000000EE
:020F02000000ED
:020F03000000EC
:020F04000000EB
:020F05000000EA
:020F06000000E9
:020F07000000E8
:020F08000000E7
:020F09000000E6
:020F0A000000E5
:020F0B000000E4
:020F0C000000E3
:020F0D000000E2
:020F0E000000E1
:020F0F000000E0
:020F10000000DF
:020F11000000DE
:020F12000000DD
:020F13000000DC
:020F14000000DB
:020F15000000DA
:020F16000000D9
:020F17000000D8
:020F18000000D7
:020F19000000D6
:020F1A000000D5
:020F1B000000D4
:020F1C000000D3
:020F1D000000D2
:020F1E000000D1
:020F1F000000D0
:020F20000000CF
:020F21000000CE
:020F22000000CD
:020F23000000CC
:020F24000000CB
:020F25000000CA
:020F26000000C9
:020F27000000C8
:020F28000000C7
:020F29000000C6
:020F2A000000C5
:020F2B000000C4
:020F2C000000C3
:020F2D000000C2
:020F2E000000C1
:020F2F000000C0
:020F30000000BF
:020F31000000BE
:020F32000000BD
:020F33000000BC
:020F34000000BB
:020F35000000BA
:020F36000000B9
:020F37000000B8
:020F38000000B7
:020F39000000B6
:020F3A000000B5
:020F3B000000B4
:020F3C000000B3
:020F3D000000B2
:020F3E000000B1
:020F3F000000B0
:020F40000000AF
:020F41000000AE
:020F42000000AD
:020F43000000AC
:020F44000000AB
:020F45000000AA
:020F46000000A9
:020F47000000A8
:020F48000000A7
:020F49000000A6
:020F4A000000A5
:020F4B000000A4
:020F4C000000A3
:020F4D000000A2
:020F4E000000A1
:020F4F000000A0
:020F500000009F
:020F510000009E
:020F520000009D
:020F530000009C
:020F540000009B
:020F550000009A
:020F5600000099
:020F5700000098
:020F5800000097
:020F5900000096
:020F5A00000095
:020F5B00000094
:020F5C00000093
:020F5D00000092
:020F5E00000091
:020F5F00000090
:020F600000008F
:020F610000008E
:020F620000008D
:020F630000008C
:020F640000008B
:020F650000008A
:020F6600000089
:020F6700000088
:020F6800000087
:020F6900000086
:020F6A00000085
:020F6B00000084
:020F6C00000083
:020F6D00000082
:020F6E00000081
:020F6F00000080
:020F700000007F
:020F710000007E
:020F720000007D
:020F730000007C
:020F740000007B
:020F750000007A
:020F7600000079
:020F7700000078
:020F7800000077
:020F7900000076
:020F7A00000075
:020F7B00000074
:020F7C00000073
:020F7D00000072
:020F7E00000071
:020F7F00000070
:020F800000006F
:020F810000006E
:020F820000006D
:020F830000006C
:020F840000006B
:020F850000006A
:020F8600000069
:020F8700000068
:020F8800000067
:020F8900000066
:020F8A00000065
:020F8B00000064
:020F8C00000063
:020F8D00000062
:020F8E00000061
:020F8F00000060
:020F900000005F
:020F910000005E
:020F920000005D
:020F930000005C
:020F940000005B
:020F950000005A
:020F9600000059
:020F9700000058
:020F9800000057
:020F9900000056
:020F9A00000055
:020F9B00000054
:020F9C00000053
:020F9D00000052
:020F9E00000051
:020F9F00000050
:020FA00000004F
:020FA10000004E
:020FA20000004D
:020FA30000004C
:020FA40000004B
:020FA50000004A
:020FA600000049
:020FA700000048
:020FA800000047
:020FA900000046
:020FAA00000045
:020FAB00000044
:020FAC00000043
:020FAD00000042
:020FAE00000041
:020FAF00000040
:020FB00000003F
:020FB10000003E
:020FB20000003D
:020FB30000003C
:020FB40000003B
:020FB50000003A
:020FB600000039
:020FB700000038
:020FB800000037
:020FB900000036
:020FBA00000035
:020FBB00000034
:020FBC00000033
:020FBD00000032
:020FBE00000031
:020FBF00000030
:020FC00000002F
:020FC10000002E
:020FC20000002D
:020FC30000002C
:020FC40000002B
:020FC50000002A
:020FC600000029
:020FC700000028
:020FC800000027
:020FC900000026
:020FCA00000025
:020FCB00000024
:020FCC00000023
:020FCD00000022
:020FCE00000021
:020FCF00000020
:020FD00000001F
:020FD10000001E
:020FD20000001D
:020FD30000001C
:020FD40000001B
:020FD50000001A
:020FD600000019
:020FD700000018
:020FD800000017
:020FD900000016
:020FDA00000015
:020FDB00000014
:020FDC00000013
:020FDD00000012
:020FDE00000011
:020FDF00000010
:020FE00000000F
:020FE10000000E
:020FE20000000D
:020FE30000000C
:020FE40000000B
:020FE50000000A
:020FE600000009
:020FE700000008
:020FE800000007
:020FE900000006
:020FEA00000005
:020FEB00000004
:020FEC00000003
:020FED00000002
:020FEE00000001
:020FEF00000000
:020FF0000000FF
:020FF1000000FE
:020FF2000000FD
:020FF3000000FC
:020FF4000000FB
:020FF5000000FA
:020FF6000000F9
:020FF7000000F8
:020FF8000000F7
:020FF9000000F6
:020FFA000000F5
:020FFB000000F4
:020FFC000000F3
:020FFD000000F2
:020FFE000000F1
:020FFF000000F0
:00000001FF
