DEPTH = 4096;
WIDTH = 15;
ADDRESS_RADIX = UNS;
DATA_RADIX = BIN;
CONTENT
BEGIN

0    : 111000000000000;
1    : 111000000000000;
2    : 111000000000000;
3    : 111000000000000;
4    : 111000000000000;
5    : 111000000000000;
6    : 111000000000000;
7    : 111000000000000;
8    : 111000000000000;
9    : 111000000000000;
10   : 111000000000000;
11   : 111000000000000;
12   : 111000000000000;
13   : 111000000000000;
14   : 111000000000000;
15   : 111000000000000;
16   : 111000000000000;
17   : 111000000000000;
18   : 111000000000000;
19   : 111000000000000;
20   : 111000000000000;
21   : 111000000000000;
22   : 111000000000000;
23   : 111000000000000;
24   : 111000000000000;
25   : 111000000000000;
26   : 111000000000000;
27   : 111000000000000;
28   : 111000000000000;
29   : 111000000000000;
30   : 111000000000000;
31   : 111000000000000;
32   : 111000000000000;
33   : 111000000000000;
34   : 111000000000000;
35   : 111000000000000;
36   : 111000000000000;
37   : 111000000000000;
38   : 111000000000000;
39   : 111000000000000;
40   : 111000000000000;
41   : 111000000000000;
42   : 111000000000000;
43   : 111000000000000;
44   : 111000000000000;
45   : 111000000000000;
46   : 111000000000000;
47   : 111000000000000;
48   : 111000000000000;
49   : 111000000000000;
50   : 111000000000000;
51   : 111000000000000;
52   : 111000000000000;
53   : 111000000000000;
54   : 111000000000000;
55   : 111000000000000;
56   : 111000000000000;
57   : 111000000000000;
58   : 111000000000000;
59   : 111000000000000;
60   : 111000000000000;
61   : 111000000000000;
62   : 111000000000000;
63   : 111000000000000;
64   : 111000000000000;
65   : 111000000000000;
66   : 111000000000000;
67   : 111000000000000;
68   : 111000000000000;
69   : 111000000000000;
70   : 111000000000000;
71   : 111000000000000;
72   : 111000000000000;
73   : 111000000000000;
74   : 111000000000000;
75   : 111000000000000;
76   : 111000000000000;
77   : 111000000000000;
78   : 111000000000000;
79   : 111000000000000;
80   : 111000000000000;
81   : 111000000000000;
82   : 111000000000000;
83   : 111000000000000;
84   : 111000000000000;
85   : 111000000000000;
86   : 111000000000000;
87   : 111000000000000;
88   : 111000000000000;
89   : 111000000000000;
90   : 111000000000000;
91   : 111000000000000;
92   : 111000000000000;
93   : 111000000000000;
94   : 111000000000000;
95   : 111000000000000;
96   : 111000000000000;
97   : 111000000000000;
98   : 111000000000000;
99   : 111000000000000;
100  : 111000000000000;
101  : 111000000000000;
102  : 111000000000000;
103  : 111000000000000;
104  : 111000000000000;
105  : 111000000000000;
106  : 111000000000000;
107  : 111000000000000;
108  : 111000000000000;
109  : 111000000000000;
110  : 111000000000000;
111  : 111000000000000;
112  : 111000000000000;
113  : 111000000000000;
114  : 111000000000000;
115  : 111000000000000;
116  : 111000000000000;
117  : 111000000000000;
118  : 111000000000000;
119  : 111000000000000;
120  : 111000000000000;
121  : 111000000000000;
122  : 111000000000000;
123  : 111000000000000;
124  : 111000000000000;
125  : 111000000000000;
126  : 111000000000000;
127  : 111000000000000;
128  : 111000000000000;
129  : 111000000000000;
130  : 111000000000000;
131  : 111000000000000;
132  : 111000000000000;
133  : 111000000000000;
134  : 111000000000000;
135  : 111000000000000;
136  : 111000000000000;
137  : 111000000000000;
138  : 111000000000000;
139  : 111000000000000;
140  : 111000000000000;
141  : 111000000000000;
142  : 111000000000000;
143  : 111000000000000;
144  : 111000000000000;
145  : 111000000000000;
146  : 111000000000000;
147  : 111000000000000;
148  : 111000000000000;
149  : 111000000000000;
150  : 111000000000000;
151  : 111000000000000;
152  : 111000000000000;
153  : 111000000000000;
154  : 111000000000000;
155  : 111000000000000;
156  : 111000000000000;
157  : 111000000000000;
158  : 111000000000000;
159  : 111000000000000;
160  : 111000000000000;
161  : 111000000000000;
162  : 111000000000000;
163  : 111000000000000;
164  : 111000000000000;
165  : 111000000000000;
166  : 111000000000000;
167  : 111000000000000;
168  : 111000000000000;
169  : 111000000000000;
170  : 111000000000000;
171  : 111000000000000;
172  : 111000000000000;
173  : 111000000000000;
174  : 111000000000000;
175  : 111000000000000;
176  : 111000000000000;
177  : 111000000000000;
178  : 111000000000000;
179  : 111000000000000;
180  : 111000000000000;
181  : 111000000000000;
182  : 111000000000000;
183  : 111000000000000;
184  : 111000000000000;
185  : 111000000000000;
186  : 111000000000000;
187  : 111000000000000;
188  : 111000000000000;
189  : 111000000000000;
190  : 111000000000000;
191  : 111000000000000;
192  : 111000000000000;
193  : 111000000000000;
194  : 111000000000000;
195  : 111000000000000;
196  : 111000000000000;
197  : 111000000000000;
198  : 111000000000000;
199  : 111000000000000;
200  : 111000000000000;
201  : 111000000000000;
202  : 111000000000000;
203  : 111000000000000;
204  : 111000000000000;
205  : 111000000000000;
206  : 111000000000000;
207  : 111000000000000;
208  : 111000000000000;
209  : 111000000000000;
210  : 111000000000000;
211  : 111000000000000;
212  : 111000000000000;
213  : 111000000000000;
214  : 111000000000000;
215  : 111000000000000;
216  : 111000000000000;
217  : 111000000000000;
218  : 111000000000000;
219  : 111000000000000;
220  : 111000000000000;
221  : 111000000000000;
222  : 111000000000000;
223  : 111000000000000;
224  : 111000000000000;
225  : 111000000000000;
226  : 111000000000000;
227  : 111000000000000;
228  : 111000000000000;
229  : 111000000000000;
230  : 111000000000000;
231  : 111000000000000;
232  : 111000000000000;
233  : 111000000000000;
234  : 111000000000000;
235  : 111000000000000;
236  : 111000000000000;
237  : 111000000000000;
238  : 111000000000000;
239  : 111000000000000;
240  : 111000000000000;
241  : 111000000000000;
242  : 111000000000000;
243  : 111000000000000;
244  : 111000000000000;
245  : 111000000000000;
246  : 111000000000000;
247  : 111000000000000;
248  : 111000000000000;
249  : 111000000000000;
250  : 111000000000000;
251  : 111000000000000;
252  : 111000000000000;
253  : 111000000000000;
254  : 111000000000000;
255  : 111000000000000;
256  : 111000000000000;
257  : 111000000000000;
258  : 111000000000000;
259  : 111000000000000;
260  : 111000000000000;
261  : 111000000000000;
262  : 111000000000000;
263  : 111000000000000;
264  : 111000000000000;
265  : 111000000000000;
266  : 111000000000000;
267  : 111000000000000;
268  : 111000000000000;
269  : 111000000000000;
270  : 111000000000000;
271  : 111000000000000;
272  : 111000000000000;
273  : 111000000000000;
274  : 111000000000000;
275  : 111000000000000;
276  : 111000000000000;
277  : 111000000000000;
278  : 111000000000000;
279  : 111000000000000;
280  : 111000000000000;
281  : 111000000000000;
282  : 111000000000000;
283  : 111000000000000;
284  : 111000000000000;
285  : 111000000000000;
286  : 111000000000000;
287  : 111000000000000;
288  : 111000000000000;
289  : 111000000000000;
290  : 111000000000000;
291  : 111000000000000;
292  : 111000000000000;
293  : 111000000000000;
294  : 111000000000000;
295  : 111000000000000;
296  : 111000000000000;
297  : 111000000000000;
298  : 111000000000000;
299  : 111000000000000;
300  : 111000000000000;
301  : 111000000000000;
302  : 111000000000000;
303  : 111000000000000;
304  : 111000000000000;
305  : 111000000000000;
306  : 111000000000000;
307  : 111000000000000;
308  : 111000000000000;
309  : 111000000000000;
310  : 111000000000000;
311  : 111000000000000;
312  : 111000000000000;
313  : 111000000000000;
314  : 111000000000000;
315  : 111000000000000;
316  : 111000000000000;
317  : 111000000000000;
318  : 111000000000000;
319  : 111000000000000;
320  : 111000000000000;
321  : 111000000000000;
322  : 111000000000000;
323  : 111000000000000;
324  : 111000000000000;
325  : 111000000000000;
326  : 111000000000000;
327  : 111000000000000;
328  : 111000000000000;
329  : 111000000000000;
330  : 111000000000000;
331  : 111000000000000;
332  : 111000000000000;
333  : 111000000000000;
334  : 111000000000000;
335  : 111000000000000;
336  : 111000000000000;
337  : 111000000000000;
338  : 111000000000000;
339  : 111000000000000;
340  : 111000000000000;
341  : 111000000000000;
342  : 111000000000000;
343  : 111000000000000;
344  : 111000000000000;
345  : 111000000000000;
346  : 111000000000000;
347  : 111000000000000;
348  : 111000000000000;
349  : 111000000000000;
350  : 111000000000000;
351  : 111000000000000;
352  : 111000000000000;
353  : 111000000000000;
354  : 111000000000000;
355  : 111000000000000;
356  : 111000000000000;
357  : 111000000000000;
358  : 111000000000000;
359  : 111000000000000;
360  : 111000000000000;
361  : 111000000000000;
362  : 111000000000000;
363  : 111000000000000;
364  : 111000000000000;
365  : 111000000000000;
366  : 111000000000000;
367  : 111000000000000;
368  : 111000000000000;
369  : 111000000000000;
370  : 111000000000000;
371  : 111000000000000;
372  : 111000000000000;
373  : 111000000000000;
374  : 111000000000000;
375  : 111000000000000;
376  : 111000000000000;
377  : 111000000000000;
378  : 111000000000000;
379  : 111000000000000;
380  : 111000000000000;
381  : 111000000000000;
382  : 111000000000000;
383  : 111000000000000;
384  : 111000000000000;
385  : 111000000000000;
386  : 111000000000000;
387  : 111000000000000;
388  : 111000000000000;
389  : 111000000000000;
390  : 111000000000000;
391  : 111000000000000;
392  : 111000000000000;
393  : 111000000000000;
394  : 111000000000000;
395  : 111000000000000;
396  : 111000000000000;
397  : 111000000000000;
398  : 111000000000000;
399  : 111000000000000;
400  : 111000000000000;
401  : 111000000000000;
402  : 111000000000000;
403  : 111000000000000;
404  : 111000000000000;
405  : 111000000000000;
406  : 111000000000000;
407  : 111000000000000;
408  : 111000000000000;
409  : 111000000000000;
410  : 111000000000000;
411  : 111000000000000;
412  : 111000000000000;
413  : 111000000000000;
414  : 111000000000000;
415  : 111000000000000;
416  : 111000000000000;
417  : 111000000000000;
418  : 111000000000000;
419  : 111000000000000;
420  : 111000000000000;
421  : 111000000000000;
422  : 111000000000000;
423  : 111000000000000;
424  : 111000000000000;
425  : 111000000000000;
426  : 111000000000000;
427  : 111000000000000;
428  : 111000000000000;
429  : 111000000000000;
430  : 111000000000000;
431  : 111000000000000;
432  : 111000000000000;
433  : 111000000000000;
434  : 111000000000000;
435  : 111000000000000;
436  : 111000000000000;
437  : 111000000000000;
438  : 111000000000000;
439  : 111000000000000;
440  : 111000000000000;
441  : 111000000000000;
442  : 111000000000000;
443  : 111000000000000;
444  : 111000000000000;
445  : 111000000000000;
446  : 111000000000000;
447  : 111000000000000;
448  : 111000000000000;
449  : 111000000000000;
450  : 111000000000000;
451  : 111000000000000;
452  : 111000000000000;
453  : 111000000000000;
454  : 111000000000000;
455  : 111000000000000;
456  : 111000000000000;
457  : 111000000000000;
458  : 111000000000000;
459  : 111000000000000;
460  : 111000000000000;
461  : 111000000000000;
462  : 111000000000000;
463  : 111000000000000;
464  : 111000000000000;
465  : 111000000000000;
466  : 111000000000000;
467  : 111000000000000;
468  : 111000000000000;
469  : 111000000000000;
470  : 111000000000000;
471  : 111000000000000;
472  : 111000000000000;
473  : 111000000000000;
474  : 111000000000000;
475  : 111000000000000;
476  : 111000000000000;
477  : 111000000000000;
478  : 111000000000000;
479  : 111000000000000;
480  : 111000000000000;
481  : 111000000000000;
482  : 111000000000000;
483  : 111000000000000;
484  : 111000000000000;
485  : 111000000000000;
486  : 111000000000000;
487  : 111000000000000;
488  : 111000000000000;
489  : 111000000000000;
490  : 111000000000000;
491  : 111000000000000;
492  : 111000000000000;
493  : 111000000000000;
494  : 111000000000000;
495  : 111000000000000;
496  : 111000000000000;
497  : 111000000000000;
498  : 111000000000000;
499  : 111000000000000;
500  : 111000000000000;
501  : 111000000000000;
502  : 111000000000000;
503  : 111000000000000;
504  : 111000000000000;
505  : 111000000000000;
506  : 111000000000000;
507  : 111000000000000;
508  : 111000000000000;
509  : 111000000000000;
510  : 111000000000000;
511  : 111000000000000;
512  : 111000000000000;
513  : 111000000000000;
514  : 111000000000000;
515  : 111000000000000;
516  : 111000000000000;
517  : 111000000000000;
518  : 111000000000000;
519  : 111000000000000;
520  : 111000000000000;
521  : 111000000000000;
522  : 111000000000000;
523  : 111000000000000;
524  : 111000000000000;
525  : 111000000000000;
526  : 111000000000000;
527  : 111000000000000;
528  : 111000000000000;
529  : 111000000000000;
530  : 111000000000000;
531  : 111000000000000;
532  : 111000000000000;
533  : 111000000000000;
534  : 111000000000000;
535  : 111000000000000;
536  : 111000000000000;
537  : 111000000000000;
538  : 111000000000000;
539  : 111000000000000;
540  : 111000000000000;
541  : 111000000000000;
542  : 111000000000000;
543  : 111000000000000;
544  : 111000000000000;
545  : 111000000000000;
546  : 111000000000000;
547  : 111000000000000;
548  : 111000000000000;
549  : 111000000000000;
550  : 111000000000000;
551  : 111000000000000;
552  : 111000000000000;
553  : 111000000000000;
554  : 111000000000000;
555  : 111000000000000;
556  : 111000000000000;
557  : 111000000000000;
558  : 111000000000000;
559  : 111000000000000;
560  : 111000000000000;
561  : 111000000000000;
562  : 111000000000000;
563  : 111000000000000;
564  : 111000000000000;
565  : 111000000000000;
566  : 111000000000000;
567  : 111000000000000;
568  : 111000000000000;
569  : 111000000000000;
570  : 111000000000000;
571  : 111000000000000;
572  : 111000000000000;
573  : 111000000000000;
574  : 111000000000000;
575  : 111000000000000;
576  : 111000000000000;
577  : 111000000000000;
578  : 111000000000000;
579  : 111000000000000;
580  : 111000000000000;
581  : 111000000000000;
582  : 111000000000000;
583  : 111000000000000;
584  : 111000000000000;
585  : 111000000000000;
586  : 111000000000000;
587  : 111000000000000;
588  : 111000000000000;
589  : 111000000000000;
590  : 111000000000000;
591  : 111000000000000;
592  : 111000000000000;
593  : 111000000000000;
594  : 111000000000000;
595  : 111000000000000;
596  : 111000000000000;
597  : 111000000000000;
598  : 111000000000000;
599  : 111000000000000;
600  : 111000000000000;
601  : 111000000000000;
602  : 111000000000000;
603  : 111000000000000;
604  : 111000000000000;
605  : 111000000000000;
606  : 111000000000000;
607  : 111000000000000;
608  : 111000000000000;
609  : 111000000000000;
610  : 111000000000000;
611  : 111000000000000;
612  : 111000000000000;
613  : 111000000000000;
614  : 111000000000000;
615  : 111000000000000;
616  : 111000000000000;
617  : 111000000000000;
618  : 111000000000000;
619  : 111000000000000;
620  : 111000000000000;
621  : 111000000000000;
622  : 111000000000000;
623  : 111000000000000;
624  : 111000000000000;
625  : 111000000000000;
626  : 111000000000000;
627  : 111000000000000;
628  : 111000000000000;
629  : 111000000000000;
630  : 111000000000000;
631  : 111000000000000;
632  : 111000000000000;
633  : 111000000000000;
634  : 111000000000000;
635  : 111000000000000;
636  : 111000000000000;
637  : 111000000000000;
638  : 111000000000000;
639  : 111000000000000;
640  : 111000000000000;
641  : 111000000000000;
642  : 111000000000000;
643  : 111000000000000;
644  : 111000000000000;
645  : 111000000000000;
646  : 111000000000000;
647  : 111000000000000;
648  : 111000000000000;
649  : 111000000000000;
650  : 111000000000000;
651  : 111000000000000;
652  : 111000000000000;
653  : 111000000000000;
654  : 111000000000000;
655  : 111000000000000;
656  : 111000000000000;
657  : 111000000000000;
658  : 111000000000000;
659  : 111000000000000;
660  : 111000000000000;
661  : 111000000000000;
662  : 111000000000000;
663  : 111000000000000;
664  : 111000000000000;
665  : 111000000000000;
666  : 111000000000000;
667  : 111000000000000;
668  : 111000000000000;
669  : 111000000000000;
670  : 111000000000000;
671  : 111000000000000;
672  : 111000000000000;
673  : 111000000000000;
674  : 111000000000000;
675  : 111000000000000;
676  : 111000000000000;
677  : 111000000000000;
678  : 111000000000000;
679  : 111000000000000;
680  : 111000000000000;
681  : 111000000000000;
682  : 111000000000000;
683  : 111000000000000;
684  : 111000000000000;
685  : 111000000000000;
686  : 111000000000000;
687  : 111000000000000;
688  : 111000000000000;
689  : 111000000000000;
690  : 111000000000000;
691  : 111000000000000;
692  : 111000000000000;
693  : 111000000000000;
694  : 111000000000000;
695  : 111000000000000;
696  : 111000000000000;
697  : 111000000000000;
698  : 111000000000000;
699  : 111000000000000;
700  : 111000000000000;
701  : 111000000000000;
702  : 111000000000000;
703  : 111000000000000;
704  : 111000000000000;
705  : 111000000000000;
706  : 111000000000000;
707  : 111000000000000;
708  : 111000000000000;
709  : 111000000000000;
710  : 111000000000000;
711  : 111000000000000;
712  : 111000000000000;
713  : 111000000000000;
714  : 111000000000000;
715  : 111000000000000;
716  : 111000000000000;
717  : 111000000000000;
718  : 111000000000000;
719  : 111000000000000;
720  : 111000000000000;
721  : 111000000000000;
722  : 111000000000000;
723  : 111000000000000;
724  : 111000000000000;
725  : 111000000000000;
726  : 111000000000000;
727  : 111000000000000;
728  : 111000000000000;
729  : 111000000000000;
730  : 111000000000000;
731  : 111000000000000;
732  : 111000000000000;
733  : 111000000000000;
734  : 111000000000000;
735  : 111000000000000;
736  : 111000000000000;
737  : 111000000000000;
738  : 111000000000000;
739  : 111000000000000;
740  : 111000000000000;
741  : 111000000000000;
742  : 111000000000000;
743  : 111000000000000;
744  : 111000000000000;
745  : 111000000000000;
746  : 111000000000000;
747  : 111000000000000;
748  : 111000000000000;
749  : 111000000000000;
750  : 111000000000000;
751  : 111000000000000;
752  : 111000000000000;
753  : 111000000000000;
754  : 111000000000000;
755  : 111000000000000;
756  : 111000000000000;
757  : 111000000000000;
758  : 111000000000000;
759  : 111000000000000;
760  : 111000000000000;
761  : 111000000000000;
762  : 111000000000000;
763  : 111000000000000;
764  : 111000000000000;
765  : 111000000000000;
766  : 111000000000000;
767  : 111000000000000;
768  : 111000000000000;
769  : 111000000000000;
770  : 111000000000000;
771  : 111000000000000;
772  : 111000000000000;
773  : 111000000000000;
774  : 111000000000000;
775  : 111000000000000;
776  : 111000000000000;
777  : 111000000000000;
778  : 111000000000000;
779  : 111000000000000;
780  : 111000000000000;
781  : 111000000000000;
782  : 111000000000000;
783  : 111000000000000;
784  : 111000000000000;
785  : 111000000000000;
786  : 111000000000000;
787  : 111000000000000;
788  : 111000000000000;
789  : 111000000000000;
790  : 111000000000000;
791  : 111000000000000;
792  : 111000000000000;
793  : 111000000000000;
794  : 111000000000000;
795  : 111000000000000;
796  : 111000000000000;
797  : 111000000000000;
798  : 111000000000000;
799  : 111000000000000;
800  : 111000000000000;
801  : 111000000000000;
802  : 111000000000000;
803  : 111000000000000;
804  : 111000000000000;
805  : 111000000000000;
806  : 111000000000000;
807  : 111000000000000;
808  : 111000000000000;
809  : 111000000000000;
810  : 111000000000000;
811  : 111000000000000;
812  : 111000000000000;
813  : 111000000000000;
814  : 111000000000000;
815  : 111000000000000;
816  : 111000000000000;
817  : 111000000000000;
818  : 111000000000000;
819  : 111000000000000;
820  : 111000000000000;
821  : 111000000000000;
822  : 111000000000000;
823  : 111000000000000;
824  : 111000000000000;
825  : 111000000000000;
826  : 111000000000000;
827  : 111000000000000;
828  : 111000000000000;
829  : 111000000000000;
830  : 111000000000000;
831  : 111000000000000;
832  : 111000000000000;
833  : 111000000000000;
834  : 111000000000000;
835  : 111000000000000;
836  : 111000000000000;
837  : 111000000000000;
838  : 111000000000000;
839  : 111000000000000;
840  : 111000000000000;
841  : 111000000000000;
842  : 111000000000000;
843  : 111000000000000;
844  : 111000000000000;
845  : 111000000000000;
846  : 111000000000000;
847  : 111000000000000;
848  : 111000000000000;
849  : 111000000000000;
850  : 111000000000000;
851  : 111000000000000;
852  : 111000000000000;
853  : 111000000000000;
854  : 111000000000000;
855  : 111000000000000;
856  : 111000000000000;
857  : 111000000000000;
858  : 111000000000000;
859  : 111000000000000;
860  : 111000000000000;
861  : 111000000000000;
862  : 111000000000000;
863  : 111000000000000;
864  : 111000000000000;
865  : 111000000000000;
866  : 111000000000000;
867  : 111000000000000;
868  : 111000000000000;
869  : 111000000000000;
870  : 111000000000000;
871  : 111000000000000;
872  : 111000000000000;
873  : 111000000000000;
874  : 111000000000000;
875  : 111000000000000;
876  : 111000000000000;
877  : 111000000000000;
878  : 111000000000000;
879  : 111000000000000;
880  : 111000000000000;
881  : 111000000000000;
882  : 111000000000000;
883  : 111000000000000;
884  : 111000000000000;
885  : 111000000000000;
886  : 111000000000000;
887  : 111000000000000;
888  : 111000000000000;
889  : 111000000000000;
890  : 111000000000000;
891  : 111000000000000;
892  : 111000000000000;
893  : 111000000000000;
894  : 111000000000000;
895  : 111000000000000;
896  : 111000000000000;
897  : 111000000000000;
898  : 111000000000000;
899  : 111000000000000;
900  : 111000000000000;
901  : 111000000000000;
902  : 111000000000000;
903  : 111000000000000;
904  : 111000000000000;
905  : 111000000000000;
906  : 111000000000000;
907  : 111000000000000;
908  : 111000000000000;
909  : 111000000000000;
910  : 111000000000000;
911  : 111000000000000;
912  : 111000000000000;
913  : 111000000000000;
914  : 111000000000000;
915  : 111000000000000;
916  : 111000000000000;
917  : 111000000000000;
918  : 111000000000000;
919  : 111000000000000;
920  : 111000000000000;
921  : 111000000000000;
922  : 111000000000000;
923  : 111000000000000;
924  : 111000000000000;
925  : 111000000000000;
926  : 111000000000000;
927  : 111000000000000;
928  : 111000000000000;
929  : 111000000000000;
930  : 111000000000000;
931  : 111000000000000;
932  : 111000000000000;
933  : 111000000000000;
934  : 111000000000000;
935  : 111000000000000;
936  : 111000000000000;
937  : 111000000000000;
938  : 111000000000000;
939  : 111000000000000;
940  : 111000000000000;
941  : 111000000000000;
942  : 111000000000000;
943  : 111000000000000;
944  : 111000000000000;
945  : 111000000000000;
946  : 111000000000000;
947  : 111000000000000;
948  : 111000000000000;
949  : 111000000000000;
950  : 111000000000000;
951  : 111000000000000;
952  : 111000000000000;
953  : 111000000000000;
954  : 111000000000000;
955  : 111000000000000;
956  : 111000000000000;
957  : 111000000000000;
958  : 111000000000000;
959  : 111000000000000;
960  : 111000000000000;
961  : 111000000000000;
962  : 111000000000000;
963  : 111000000000000;
964  : 111000000000000;
965  : 111000000000000;
966  : 111000000000000;
967  : 111000000000000;
968  : 111000000000000;
969  : 111000000000000;
970  : 111000000000000;
971  : 111000000000000;
972  : 111000000000000;
973  : 111000000000000;
974  : 111000000000000;
975  : 111000000000000;
976  : 111000000000000;
977  : 111000000000000;
978  : 111000000000000;
979  : 111000000000000;
980  : 111000000000000;
981  : 111000000000000;
982  : 111000000000000;
983  : 111000000000000;
984  : 111000000000000;
985  : 111000000000000;
986  : 111000000000000;
987  : 111000000000000;
988  : 111000000000000;
989  : 111000000000000;
990  : 111000000000000;
991  : 111000000000000;
992  : 111000000000000;
993  : 111000000000000;
994  : 111000000000000;
995  : 111000000000000;
996  : 111000000000000;
997  : 111000000000000;
998  : 111000000000000;
999  : 111000000000000;
1000 : 111000000000000;
1001 : 111000000000000;
1002 : 111000000000000;
1003 : 111000000000000;
1004 : 111000000000000;
1005 : 111000000000000;
1006 : 111000000000000;
1007 : 111000000000000;
1008 : 111000000000000;
1009 : 111000000000000;
1010 : 111000000000000;
1011 : 111000000000000;
1012 : 111000000000000;
1013 : 111000000000000;
1014 : 111000000000000;
1015 : 111000000000000;
1016 : 111000000000000;
1017 : 111000000000000;
1018 : 111000000000000;
1019 : 111000000000000;
1020 : 111000000000000;
1021 : 111000000000000;
1022 : 111000000000000;
1023 : 111000000000000;
1024 : 111000000000000;
1025 : 111000000000000;
1026 : 111000000000000;
1027 : 111000000000000;
1028 : 111000000000000;
1029 : 111000000000000;
1030 : 111000000000000;
1031 : 111000000000000;
1032 : 111000000000000;
1033 : 111000000000000;
1034 : 111000000000000;
1035 : 111000000000000;
1036 : 111000000000000;
1037 : 111000000000000;
1038 : 111000000000000;
1039 : 111000000000000;
1040 : 111000000000000;
1041 : 111000000000000;
1042 : 111000000000000;
1043 : 111000000000000;
1044 : 111000000000000;
1045 : 111000000000000;
1046 : 111000000000000;
1047 : 111000000000000;
1048 : 111000000000000;
1049 : 111000000000000;
1050 : 111000000000000;
1051 : 111000000000000;
1052 : 111000000000000;
1053 : 111000000000000;
1054 : 111000000000000;
1055 : 111000000000000;
1056 : 111000000000000;
1057 : 111000000000000;
1058 : 111000000000000;
1059 : 111000000000000;
1060 : 111000000000000;
1061 : 111000000000000;
1062 : 111000000000000;
1063 : 111000000000000;
1064 : 111000000000000;
1065 : 111000000000000;
1066 : 111000000000000;
1067 : 111000000000000;
1068 : 111000000000000;
1069 : 111000000000000;
1070 : 111000000000000;
1071 : 111000000000000;
1072 : 111000000000000;
1073 : 111000000000000;
1074 : 111000000000000;
1075 : 111000000000000;
1076 : 111000000000000;
1077 : 111000000000000;
1078 : 111000000000000;
1079 : 111000000000000;
1080 : 111000000000000;
1081 : 111000000000000;
1082 : 111000000000000;
1083 : 111000000000000;
1084 : 111000000000000;
1085 : 111000000000000;
1086 : 111000000000000;
1087 : 111000000000000;
1088 : 111000000000000;
1089 : 111000000000000;
1090 : 111000000000000;
1091 : 111000000000000;
1092 : 111000000000000;
1093 : 111000000000000;
1094 : 111000000000000;
1095 : 111000000000000;
1096 : 111000000000000;
1097 : 111000000000000;
1098 : 111000000000000;
1099 : 111000000000000;
1100 : 111000000000000;
1101 : 111000000000000;
1102 : 111000000000000;
1103 : 111000000000000;
1104 : 111000000000000;
1105 : 111000000000000;
1106 : 111000000000000;
1107 : 111000000000000;
1108 : 111000000000000;
1109 : 111000000000000;
1110 : 111000000000000;
1111 : 111000000000000;
1112 : 111000000000000;
1113 : 111000000000000;
1114 : 111000000000000;
1115 : 111000000000000;
1116 : 111000000000000;
1117 : 111000000000000;
1118 : 111000000000000;
1119 : 111000000000000;
1120 : 111000000000000;
1121 : 111000000000000;
1122 : 111000000000000;
1123 : 111000000000000;
1124 : 111000000000000;
1125 : 111000000000000;
1126 : 111000000000000;
1127 : 111000000000000;
1128 : 111000000000000;
1129 : 111000000000000;
1130 : 111000000000000;
1131 : 111000000000000;
1132 : 111000000000000;
1133 : 111000000000000;
1134 : 111000000000000;
1135 : 111000000000000;
1136 : 111000000000000;
1137 : 111000000000000;
1138 : 111000000000000;
1139 : 111000000000000;
1140 : 111000000000000;
1141 : 111000000000000;
1142 : 111000000000000;
1143 : 111000000000000;
1144 : 111000000000000;
1145 : 111000000000000;
1146 : 111000000000000;
1147 : 111000000000000;
1148 : 111000000000000;
1149 : 111000000000000;
1150 : 111000000000000;
1151 : 111000000000000;
1152 : 111000000000000;
1153 : 111000000000000;
1154 : 111000000000000;
1155 : 111000000000000;
1156 : 111000000000000;
1157 : 111000000000000;
1158 : 111000000000000;
1159 : 111000000000000;
1160 : 111000000000000;
1161 : 111000000000000;
1162 : 111000000000000;
1163 : 111000000000000;
1164 : 111000000000000;
1165 : 111000000000000;
1166 : 111000000000000;
1167 : 111000000000000;
1168 : 111000000000000;
1169 : 111000000000000;
1170 : 111000000000000;
1171 : 111000000000000;
1172 : 111000000000000;
1173 : 111000000000000;
1174 : 111000000000000;
1175 : 111000000000000;
1176 : 111000000000000;
1177 : 111000000000000;
1178 : 111000000000000;
1179 : 111000000000000;
1180 : 111000000000000;
1181 : 111000000000000;
1182 : 111000000000000;
1183 : 111000000000000;
1184 : 111000000000000;
1185 : 111000000000000;
1186 : 111000000000000;
1187 : 111000000000000;
1188 : 111000000000000;
1189 : 111000000000000;
1190 : 111000000000000;
1191 : 111000000000000;
1192 : 111000000000000;
1193 : 111000000000000;
1194 : 111000000000000;
1195 : 111000000000000;
1196 : 111000000000000;
1197 : 111000000000000;
1198 : 111000000000000;
1199 : 111000000000000;
1200 : 111000000000000;
1201 : 111000000000000;
1202 : 111000000000000;
1203 : 111000000000000;
1204 : 111000000000000;
1205 : 111000000000000;
1206 : 111000000000000;
1207 : 111000000000000;
1208 : 111000000000000;
1209 : 111000000000000;
1210 : 111000000000000;
1211 : 111000000000000;
1212 : 111000000000000;
1213 : 111000000000000;
1214 : 111000000000000;
1215 : 111000000000000;
1216 : 111000000000000;
1217 : 111000000000000;
1218 : 111000000000000;
1219 : 111000000000000;
1220 : 111000000000000;
1221 : 111000000000000;
1222 : 111000000000000;
1223 : 111000000000000;
1224 : 111000000000000;
1225 : 111000000000000;
1226 : 111000000000000;
1227 : 111000000000000;
1228 : 111000000000000;
1229 : 111000000000000;
1230 : 111000000000000;
1231 : 111000000000000;
1232 : 111000000000000;
1233 : 111000000000000;
1234 : 111000000000000;
1235 : 111000000000000;
1236 : 111000000000000;
1237 : 111000000000000;
1238 : 111000000000000;
1239 : 111000000000000;
1240 : 111000000000000;
1241 : 111000000000000;
1242 : 111000000000000;
1243 : 111000000000000;
1244 : 111000000000000;
1245 : 111000000000000;
1246 : 111000000000000;
1247 : 111000000000000;
1248 : 111000000000000;
1249 : 111000000000000;
1250 : 111000000000000;
1251 : 111000000000000;
1252 : 111000000000000;
1253 : 111000000000000;
1254 : 111000000000000;
1255 : 111000000000000;
1256 : 111000000000000;
1257 : 111000000000000;
1258 : 111000000000000;
1259 : 111000000000000;
1260 : 111000000000000;
1261 : 111000000000000;
1262 : 111000000000000;
1263 : 111000000000000;
1264 : 111000000000000;
1265 : 111000000000000;
1266 : 111000000000000;
1267 : 111000000000000;
1268 : 111000000000000;
1269 : 111000000000000;
1270 : 111000000000000;
1271 : 111000000000000;
1272 : 111000000000000;
1273 : 111000000000000;
1274 : 111000000000000;
1275 : 111000000000000;
1276 : 111000000000000;
1277 : 111000000000000;
1278 : 111000000000000;
1279 : 111000000000000;
1280 : 111000000000000;
1281 : 111000000000000;
1282 : 111000000000000;
1283 : 111000000000000;
1284 : 111000000000000;
1285 : 111000000000000;
1286 : 111000000000000;
1287 : 111000000000000;
1288 : 111000000000000;
1289 : 111000000000000;
1290 : 111000000000000;
1291 : 111000000000000;
1292 : 111000000000000;
1293 : 111000000000000;
1294 : 111000000000000;
1295 : 111000000000000;
1296 : 111000000000000;
1297 : 111000000000000;
1298 : 111000000000000;
1299 : 111000000000000;
1300 : 111000000000000;
1301 : 111000000000000;
1302 : 111000000000000;
1303 : 111000000000000;
1304 : 111000000000000;
1305 : 111000000000000;
1306 : 111000000000000;
1307 : 111000000000000;
1308 : 111000000000000;
1309 : 111000000000000;
1310 : 111000000000000;
1311 : 111000000000000;
1312 : 111000000000000;
1313 : 111000000000000;
1314 : 111000000000000;
1315 : 111000000000000;
1316 : 111000000000000;
1317 : 111000000000000;
1318 : 111000000000000;
1319 : 111000000000000;
1320 : 111000000000000;
1321 : 111000000000000;
1322 : 111000000000000;
1323 : 111000000000000;
1324 : 111000000000000;
1325 : 111000000000000;
1326 : 111000000000000;
1327 : 111000000000000;
1328 : 111000000000000;
1329 : 111000000000000;
1330 : 111000000000000;
1331 : 111000000000000;
1332 : 111000000000000;
1333 : 111000000000000;
1334 : 111000000000000;
1335 : 111000000000000;
1336 : 111000000000000;
1337 : 111000000000000;
1338 : 111000000000000;
1339 : 111000000000000;
1340 : 111000000000000;
1341 : 111000000000000;
1342 : 111000000000000;
1343 : 111000000000000;
1344 : 111000000000000;
1345 : 111000000000000;
1346 : 111000000000000;
1347 : 111000000000000;
1348 : 111000000000000;
1349 : 111000000000000;
1350 : 111000000000000;
1351 : 111000000000000;
1352 : 111000000000000;
1353 : 111000000000000;
1354 : 111000000000000;
1355 : 111000000000000;
1356 : 111000000000000;
1357 : 111000000000000;
1358 : 111000000000000;
1359 : 111000000000000;
1360 : 111000000000000;
1361 : 111000000000000;
1362 : 111000000000000;
1363 : 111000000000000;
1364 : 111000000000000;
1365 : 111000000000000;
1366 : 111000000000000;
1367 : 111000000000000;
1368 : 111000000000000;
1369 : 111000000000000;
1370 : 111000000000000;
1371 : 111000000000000;
1372 : 111000000000000;
1373 : 111000000000000;
1374 : 111000000000000;
1375 : 111000000000000;
1376 : 111000000000000;
1377 : 111000000000000;
1378 : 111000000000000;
1379 : 111000000000000;
1380 : 111000000000000;
1381 : 111000000000000;
1382 : 111000000000000;
1383 : 111000000000000;
1384 : 111000000000000;
1385 : 111000000000000;
1386 : 111000000000000;
1387 : 111000000000000;
1388 : 111000000000000;
1389 : 111000000000000;
1390 : 111000000000000;
1391 : 111000000000000;
1392 : 111000000000000;
1393 : 111000000000000;
1394 : 111000000000000;
1395 : 111000000000000;
1396 : 111000000000000;
1397 : 111000000000000;
1398 : 111000000000000;
1399 : 111000000000000;
1400 : 111000000000000;
1401 : 111000000000000;
1402 : 111000000000000;
1403 : 111000000000000;
1404 : 111000000000000;
1405 : 111000000000000;
1406 : 111000000000000;
1407 : 111000000000000;
1408 : 111000000000000;
1409 : 111000000000000;
1410 : 111000000000000;
1411 : 111000000000000;
1412 : 111000000000000;
1413 : 111000000000000;
1414 : 111000000000000;
1415 : 111000000000000;
1416 : 111000000000000;
1417 : 111000000000000;
1418 : 111000000000000;
1419 : 111000000000000;
1420 : 111000000000000;
1421 : 111000000000000;
1422 : 111000000000000;
1423 : 111000000000000;
1424 : 111000000000000;
1425 : 111000000000000;
1426 : 111000000000000;
1427 : 111000000000000;
1428 : 111000000000000;
1429 : 111000000000000;
1430 : 111000000000000;
1431 : 111000000000000;
1432 : 111000000000000;
1433 : 111000000000000;
1434 : 111000000000000;
1435 : 111000000000000;
1436 : 111000000000000;
1437 : 111000000000000;
1438 : 111000000000000;
1439 : 111000000000000;
1440 : 111000000000000;
1441 : 111000000000000;
1442 : 111000000000000;
1443 : 111000000000000;
1444 : 111000000000000;
1445 : 111000000000000;
1446 : 111000000000000;
1447 : 111000000000000;
1448 : 111000000000000;
1449 : 111000000000000;
1450 : 111000000000000;
1451 : 111000000000000;
1452 : 111000000000000;
1453 : 111000000000000;
1454 : 111000000000000;
1455 : 111000000000000;
1456 : 111000000000000;
1457 : 111000000000000;
1458 : 111000000000000;
1459 : 111000000000000;
1460 : 111000000000000;
1461 : 111000000000000;
1462 : 111000000000000;
1463 : 111000000000000;
1464 : 111000000000000;
1465 : 111000000000000;
1466 : 111000000000000;
1467 : 111000000000000;
1468 : 111000000000000;
1469 : 111000000000000;
1470 : 111000000000000;
1471 : 111000000000000;
1472 : 111000000000000;
1473 : 111000000000000;
1474 : 111000000000000;
1475 : 111000000000000;
1476 : 111000000000000;
1477 : 111000000000000;
1478 : 111000000000000;
1479 : 111000000000000;
1480 : 111000000000000;
1481 : 111000000000000;
1482 : 111000000000000;
1483 : 111000000000000;
1484 : 111000000000000;
1485 : 111000000000000;
1486 : 111000000000000;
1487 : 111000000000000;
1488 : 111000000000000;
1489 : 111000000000000;
1490 : 111000000000000;
1491 : 111000000000000;
1492 : 111000000000000;
1493 : 111000000000000;
1494 : 111000000000000;
1495 : 111000000000000;
1496 : 111000000000000;
1497 : 111000000000000;
1498 : 111000000000000;
1499 : 111000000000000;
1500 : 111000000000000;
1501 : 111000000000000;
1502 : 111000000000000;
1503 : 111000000000000;
1504 : 111000000000000;
1505 : 111000000000000;
1506 : 111000000000000;
1507 : 111000000000000;
1508 : 111000000000000;
1509 : 111000000000000;
1510 : 111000000000000;
1511 : 111000000000000;
1512 : 111000000000000;
1513 : 111000000000000;
1514 : 111000000000000;
1515 : 111000000000000;
1516 : 111000000000000;
1517 : 111000000000000;
1518 : 111000000000000;
1519 : 111000000000000;
1520 : 111000000000000;
1521 : 111000000000000;
1522 : 111000000000000;
1523 : 111000000000000;
1524 : 111000000000000;
1525 : 111000000000000;
1526 : 111000000000000;
1527 : 111000000000000;
1528 : 111000000000000;
1529 : 111000000000000;
1530 : 111000000000000;
1531 : 111000000000000;
1532 : 111000000000000;
1533 : 111000000000000;
1534 : 111000000000000;
1535 : 111000000000000;
1536 : 111000000000000;
1537 : 111000000000000;
1538 : 111000000000000;
1539 : 111000000000000;
1540 : 111000000000000;
1541 : 111000000000000;
1542 : 111000000000000;
1543 : 111000000000000;
1544 : 111000000000000;
1545 : 111000000000000;
1546 : 111000000000000;
1547 : 111000000000000;
1548 : 111000000000000;
1549 : 111000000000000;
1550 : 111000000000000;
1551 : 111000000000000;
1552 : 111000000000000;
1553 : 111000000000000;
1554 : 111000000000000;
1555 : 111000000000000;
1556 : 111000000000000;
1557 : 111000000000000;
1558 : 111000000000000;
1559 : 111000000000000;
1560 : 111000000000000;
1561 : 111000000000000;
1562 : 111000000000000;
1563 : 111000000000000;
1564 : 111000000000000;
1565 : 111000000000000;
1566 : 111000000000000;
1567 : 111000000000000;
1568 : 111000000000000;
1569 : 111000000000000;
1570 : 111000000000000;
1571 : 111000000000000;
1572 : 111000000000000;
1573 : 111000000000000;
1574 : 111000000000000;
1575 : 111000000000000;
1576 : 111000000000000;
1577 : 111000000000000;
1578 : 111000000000000;
1579 : 111000000000000;
1580 : 111000000000000;
1581 : 111000000000000;
1582 : 111000000000000;
1583 : 111000000000000;
1584 : 111000000000000;
1585 : 111000000000000;
1586 : 111000000000000;
1587 : 111000000000000;
1588 : 111000000000000;
1589 : 111000000000000;
1590 : 111000000000000;
1591 : 111000000000000;
1592 : 111000000000000;
1593 : 111000000000000;
1594 : 111000000000000;
1595 : 111000000000000;
1596 : 111000000000000;
1597 : 111000000000000;
1598 : 111000000000000;
1599 : 111000000000000;
1600 : 111000000000000;
1601 : 111000000000000;
1602 : 111000000000000;
1603 : 111000000000000;
1604 : 111000000000000;
1605 : 111000000000000;
1606 : 111000000000000;
1607 : 111000000000000;
1608 : 111000000000000;
1609 : 111000000000000;
1610 : 111000000000000;
1611 : 111000000000000;
1612 : 111000000000000;
1613 : 111000000000000;
1614 : 111000000000000;
1615 : 111000000000000;
1616 : 111000000000000;
1617 : 111000000000000;
1618 : 111000000000000;
1619 : 111000000000000;
1620 : 111000000000000;
1621 : 111000000000000;
1622 : 111000000000000;
1623 : 111000000000000;
1624 : 111000000000000;
1625 : 111000000000000;
1626 : 111000000000000;
1627 : 111000000000000;
1628 : 111000000000000;
1629 : 111000000000000;
1630 : 111000000000000;
1631 : 111000000000000;
1632 : 111000000000000;
1633 : 111000000000000;
1634 : 111000000000000;
1635 : 111000000000000;
1636 : 111000000000000;
1637 : 111000000000000;
1638 : 111000000000000;
1639 : 111000000000000;
1640 : 111000000000000;
1641 : 111000000000000;
1642 : 111000000000000;
1643 : 111000000000000;
1644 : 111000000000000;
1645 : 111000000000000;
1646 : 111000000000000;
1647 : 111000000000000;
1648 : 111000000000000;
1649 : 111000000000000;
1650 : 111000000000000;
1651 : 111000000000000;
1652 : 111000000000000;
1653 : 111000000000000;
1654 : 111000000000000;
1655 : 111000000000000;
1656 : 111000000000000;
1657 : 111000000000000;
1658 : 111000000000000;
1659 : 111000000000000;
1660 : 111000000000000;
1661 : 111000000000000;
1662 : 111000000000000;
1663 : 111000000000000;
1664 : 111000000000000;
1665 : 111000000000000;
1666 : 111000000000000;
1667 : 111000000000000;
1668 : 111000000000000;
1669 : 111000000000000;
1670 : 111000000000000;
1671 : 111000000000000;
1672 : 111000000000000;
1673 : 111000000000000;
1674 : 111000000000000;
1675 : 111000000000000;
1676 : 111000000000000;
1677 : 111000000000000;
1678 : 111000000000000;
1679 : 111000000000000;
1680 : 111000000000000;
1681 : 111000000000000;
1682 : 111000000000000;
1683 : 111000000000000;
1684 : 111000000000000;
1685 : 111000000000000;
1686 : 111000000000000;
1687 : 111000000000000;
1688 : 111000000000000;
1689 : 111000000000000;
1690 : 111000000000000;
1691 : 111000000000000;
1692 : 111000000000000;
1693 : 111000000000000;
1694 : 111000000000000;
1695 : 111000000000000;
1696 : 111000000000000;
1697 : 111000000000000;
1698 : 111000000000000;
1699 : 111000000000000;
1700 : 111000000000000;
1701 : 111000000000000;
1702 : 111000000000000;
1703 : 111000000000000;
1704 : 111000000000000;
1705 : 111000000000000;
1706 : 111000000000000;
1707 : 111000000000000;
1708 : 111000000000000;
1709 : 111000000000000;
1710 : 111000000000000;
1711 : 111000000000000;
1712 : 111000000000000;
1713 : 111000000000000;
1714 : 111000000000000;
1715 : 111000000000000;
1716 : 111000000000000;
1717 : 111000000000000;
1718 : 111000000000000;
1719 : 111000000000000;
1720 : 111000000000000;
1721 : 111000000000000;
1722 : 111000000000000;
1723 : 111000000000000;
1724 : 111000000000000;
1725 : 111000000000000;
1726 : 111000000000000;
1727 : 111000000000000;
1728 : 111000000000000;
1729 : 111000000000000;
1730 : 111000000000000;
1731 : 111000000000000;
1732 : 111000000000000;
1733 : 111000000000000;
1734 : 111000000000000;
1735 : 111000000000000;
1736 : 111000000000000;
1737 : 111000000000000;
1738 : 111000000000000;
1739 : 111000000000000;
1740 : 111000000000000;
1741 : 111000000000000;
1742 : 111000000000000;
1743 : 111000000000000;
1744 : 111000000000000;
1745 : 111000000000000;
1746 : 111000000000000;
1747 : 111000000000000;
1748 : 111000000000000;
1749 : 111000000000000;
1750 : 111000000000000;
1751 : 111000000000000;
1752 : 111000000000000;
1753 : 111000000000000;
1754 : 111000000000000;
1755 : 111000000000000;
1756 : 111000000000000;
1757 : 111000000000000;
1758 : 111000000000000;
1759 : 111000000000000;
1760 : 111000000000000;
1761 : 111000000000000;
1762 : 111000000000000;
1763 : 111000000000000;
1764 : 111000000000000;
1765 : 111000000000000;
1766 : 111000000000000;
1767 : 111000000000000;
1768 : 111000000000000;
1769 : 111000000000000;
1770 : 111000000000000;
1771 : 111000000000000;
1772 : 111000000000000;
1773 : 111000000000000;
1774 : 111000000000000;
1775 : 111000000000000;
1776 : 111000000000000;
1777 : 111000000000000;
1778 : 111000000000000;
1779 : 111000000000000;
1780 : 111000000000000;
1781 : 111000000000000;
1782 : 111000000000000;
1783 : 111000000000000;
1784 : 111000000000000;
1785 : 111000000000000;
1786 : 111000000000000;
1787 : 111000000000000;
1788 : 111000000000000;
1789 : 111000000000000;
1790 : 111000000000000;
1791 : 111000000000000;
1792 : 111000000000000;
1793 : 111000000000000;
1794 : 111000000000000;
1795 : 111000000000000;
1796 : 111000000000000;
1797 : 111000000000000;
1798 : 111000000000000;
1799 : 111000000000000;
1800 : 111000000000000;
1801 : 111000000000000;
1802 : 111000000000000;
1803 : 111000000000000;
1804 : 111000000000000;
1805 : 111000000000000;
1806 : 111000000000000;
1807 : 111000000000000;
1808 : 111000000000000;
1809 : 111000000000000;
1810 : 111000000000000;
1811 : 111000000000000;
1812 : 111000000000000;
1813 : 111000000000000;
1814 : 111000000000000;
1815 : 111000000000000;
1816 : 111000000000000;
1817 : 111000000000000;
1818 : 111000000000000;
1819 : 111000000000000;
1820 : 111000000000000;
1821 : 111000000000000;
1822 : 111000000000000;
1823 : 111000000000000;
1824 : 111000000000000;
1825 : 111000000000000;
1826 : 111000000000000;
1827 : 111000000000000;
1828 : 111000000000000;
1829 : 111000000000000;
1830 : 111000000000000;
1831 : 111000000000000;
1832 : 111000000000000;
1833 : 111000000000000;
1834 : 111000000000000;
1835 : 111000000000000;
1836 : 111000000000000;
1837 : 111000000000000;
1838 : 111000000000000;
1839 : 111000000000000;
1840 : 111000000000000;
1841 : 111000000000000;
1842 : 111000000000000;
1843 : 111000000000000;
1844 : 111000000000000;
1845 : 111000000000000;
1846 : 111000000000000;
1847 : 111000000000000;
1848 : 111000000000000;
1849 : 111000000000000;
1850 : 111000000000000;
1851 : 111000000000000;
1852 : 111000000000000;
1853 : 111000000000000;
1854 : 111000000000000;
1855 : 111000000000000;
1856 : 111000000000000;
1857 : 111000000000000;
1858 : 111000000000000;
1859 : 111000000000000;
1860 : 111000000000000;
1861 : 111000000000000;
1862 : 111000000000000;
1863 : 111000000000000;
1864 : 111000000000000;
1865 : 111000000000000;
1866 : 111000000000000;
1867 : 111000000000000;
1868 : 111000000000000;
1869 : 111000000000000;
1870 : 111000000000000;
1871 : 111000000000000;
1872 : 111000000000000;
1873 : 111000000000000;
1874 : 111000000000000;
1875 : 111000000000000;
1876 : 111000000000000;
1877 : 111000000000000;
1878 : 111000000000000;
1879 : 111000000000000;
1880 : 111000000000000;
1881 : 111000000000000;
1882 : 111000000000000;
1883 : 111000000000000;
1884 : 111000000000000;
1885 : 111000000000000;
1886 : 111000000000000;
1887 : 111000000000000;
1888 : 111000000000000;
1889 : 111000000000000;
1890 : 111000000000000;
1891 : 111000000000000;
1892 : 111000000000000;
1893 : 111000000000000;
1894 : 111000000000000;
1895 : 111000000000000;
1896 : 111000000000000;
1897 : 111000000000000;
1898 : 111000000000000;
1899 : 111000000000000;
1900 : 111000000000000;
1901 : 111000000000000;
1902 : 111000000000000;
1903 : 111000000000000;
1904 : 111000000000000;
1905 : 111000000000000;
1906 : 111000000000000;
1907 : 111000000000000;
1908 : 111000000000000;
1909 : 111000000000000;
1910 : 111000000000000;
1911 : 111000000000000;
1912 : 111000000000000;
1913 : 111000000000000;
1914 : 111000000000000;
1915 : 111000000000000;
1916 : 111000000000000;
1917 : 111000000000000;
1918 : 111000000000000;
1919 : 111000000000000;
1920 : 111000000000000;
1921 : 111000000000000;
1922 : 111000000000000;
1923 : 111000000000000;
1924 : 111000000000000;
1925 : 111000000000000;
1926 : 111000000000000;
1927 : 111000000000000;
1928 : 111000000000000;
1929 : 111000000000000;
1930 : 111000000000000;
1931 : 111000000000000;
1932 : 111000000000000;
1933 : 111000000000000;
1934 : 111000000000000;
1935 : 111000000000000;
1936 : 111000000000000;
1937 : 111000000000000;
1938 : 111000000000000;
1939 : 111000000000000;
1940 : 111000000000000;
1941 : 111000000000000;
1942 : 111000000000000;
1943 : 111000000000000;
1944 : 111000000000000;
1945 : 111000000000000;
1946 : 111000000000000;
1947 : 111000000000000;
1948 : 111000000000000;
1949 : 111000000000000;
1950 : 111000000000000;
1951 : 111000000000000;
1952 : 111000000000000;
1953 : 111000000000000;
1954 : 111000000000000;
1955 : 111000000000000;
1956 : 111000000000000;
1957 : 111000000000000;
1958 : 111000000000000;
1959 : 111000000000000;
1960 : 111000000000000;
1961 : 111000000000000;
1962 : 111000000000000;
1963 : 111000000000000;
1964 : 111000000000000;
1965 : 111000000000000;
1966 : 111000000000000;
1967 : 111000000000000;
1968 : 111000000000000;
1969 : 111000000000000;
1970 : 111000000000000;
1971 : 111000000000000;
1972 : 111000000000000;
1973 : 111000000000000;
1974 : 111000000000000;
1975 : 111000000000000;
1976 : 111000000000000;
1977 : 111000000000000;
1978 : 111000000000000;
1979 : 111000000000000;
1980 : 111000000000000;
1981 : 111000000000000;
1982 : 111000000000000;
1983 : 111000000000000;
1984 : 111000000000000;
1985 : 111000000000000;
1986 : 111000000000000;
1987 : 111000000000000;
1988 : 111000000000000;
1989 : 111000000000000;
1990 : 111000000000000;
1991 : 111000000000000;
1992 : 111000000000000;
1993 : 111000000000000;
1994 : 111000000000000;
1995 : 111000000000000;
1996 : 111000000000000;
1997 : 111000000000000;
1998 : 111000000000000;
1999 : 111000000000000;
2000 : 111000000000000;
2001 : 111000000000000;
2002 : 111000000000000;
2003 : 111000000000000;
2004 : 111000000000000;
2005 : 111000000000000;
2006 : 111000000000000;
2007 : 111000000000000;
2008 : 111000000000000;
2009 : 111000000000000;
2010 : 111000000000000;
2011 : 111000000000000;
2012 : 111000000000000;
2013 : 111000000000000;
2014 : 111000000000000;
2015 : 111000000000000;
2016 : 111000000000000;
2017 : 111000000000000;
2018 : 111000000000000;
2019 : 111000000000000;
2020 : 111000000000000;
2021 : 111000000000000;
2022 : 111000000000000;
2023 : 111000000000000;
2024 : 111000000000000;
2025 : 111000000000000;
2026 : 111000000000000;
2027 : 111000000000000;
2028 : 111000000000000;
2029 : 111000000000000;
2030 : 111000000000000;
2031 : 111000000000000;
2032 : 111000000000000;
2033 : 111000000000000;
2034 : 111000000000000;
2035 : 111000000000000;
2036 : 111000000000000;
2037 : 111000000000000;
2038 : 111000000000000;
2039 : 111000000000000;
2040 : 111000000000000;
2041 : 111000000000000;
2042 : 111000000000000;
2043 : 111000000000000;
2044 : 111000000000000;
2045 : 111000000000000;
2046 : 111000000000000;
2047 : 111000000000000;
2048 : 111000000000000;
2049 : 111000000000000;
2050 : 111000000000000;
2051 : 111000000000000;
2052 : 111000000000000;
2053 : 111000000000000;
2054 : 111000000000000;
2055 : 111000000000000;
2056 : 111000000000000;
2057 : 111000000000000;
2058 : 111000000000000;
2059 : 111000000000000;
2060 : 111000000000000;
2061 : 111000000000000;
2062 : 111000000000000;
2063 : 111000000000000;
2064 : 111000000000000;
2065 : 111000000000000;
2066 : 111000000000000;
2067 : 111000000000000;
2068 : 111000000000000;
2069 : 111000000000000;
2070 : 111000000000000;
2071 : 111000000000000;
2072 : 111000000000000;
2073 : 111000000000000;
2074 : 111000000000000;
2075 : 111000000000000;
2076 : 111000000000000;
2077 : 111000000000000;
2078 : 111000000000000;
2079 : 111000000000000;
2080 : 111000000000000;
2081 : 111000000000000;
2082 : 111000000000000;
2083 : 111000000000000;
2084 : 111000000000000;
2085 : 111000000000000;
2086 : 111000000000000;
2087 : 111000000000000;
2088 : 111000000000000;
2089 : 111000000000000;
2090 : 111000000000000;
2091 : 111000000000000;
2092 : 111000000000000;
2093 : 111000000000000;
2094 : 111000000000000;
2095 : 111000000000000;
2096 : 111000000000000;
2097 : 111000000000000;
2098 : 111000000000000;
2099 : 111000000000000;
2100 : 111000000000000;
2101 : 111000000000000;
2102 : 111000000000000;
2103 : 111000000000000;
2104 : 111000000000000;
2105 : 111000000000000;
2106 : 111000000000000;
2107 : 111000000000000;
2108 : 111000000000000;
2109 : 111000000000000;
2110 : 111000000000000;
2111 : 111000000000000;
2112 : 111000000000000;
2113 : 111000000000000;
2114 : 111000000000000;
2115 : 111000000000000;
2116 : 111000000000000;
2117 : 111000000000000;
2118 : 111000000000000;
2119 : 111000000000000;
2120 : 111000000000000;
2121 : 111000000000000;
2122 : 111000000000000;
2123 : 111000000000000;
2124 : 111000000000000;
2125 : 111000000000000;
2126 : 111000000000000;
2127 : 111000000000000;
2128 : 111000000000000;
2129 : 111000000000000;
2130 : 111000000000000;
2131 : 111000000000000;
2132 : 111000000000000;
2133 : 111000000000000;
2134 : 111000000000000;
2135 : 111000000000000;
2136 : 111000000000000;
2137 : 111000000000000;
2138 : 111000000000000;
2139 : 111000000000000;
2140 : 111000000000000;
2141 : 111000000000000;
2142 : 111000000000000;
2143 : 111000000000000;
2144 : 111000000000000;
2145 : 111000000000000;
2146 : 111000000000000;
2147 : 111000000000000;
2148 : 111000000000000;
2149 : 111000000000000;
2150 : 111000000000000;
2151 : 111000000000000;
2152 : 111000000000000;
2153 : 111000000000000;
2154 : 111000000000000;
2155 : 111000000000000;
2156 : 111000000000000;
2157 : 111000000000000;
2158 : 111000000000000;
2159 : 111000000000000;
2160 : 111000000000000;
2161 : 111000000000000;
2162 : 111000000000000;
2163 : 111000000000000;
2164 : 111000000000000;
2165 : 111000000000000;
2166 : 111000000000000;
2167 : 111000000000000;
2168 : 111000000000000;
2169 : 111000000000000;
2170 : 111000000000000;
2171 : 111000000000000;
2172 : 111000000000000;
2173 : 111000000000000;
2174 : 111000000000000;
2175 : 111000000000000;
2176 : 111000000000000;
2177 : 111000000000000;
2178 : 111000000000000;
2179 : 111000000000000;
2180 : 111000000000000;
2181 : 111000000000000;
2182 : 111000000000000;
2183 : 111000000000000;
2184 : 111000000000000;
2185 : 111000000000000;
2186 : 111000000000000;
2187 : 111000000000000;
2188 : 111000000000000;
2189 : 111000000000000;
2190 : 111000000000000;
2191 : 111000000000000;
2192 : 111000000000000;
2193 : 111000000000000;
2194 : 111000000000000;
2195 : 111000000000000;
2196 : 111000000000000;
2197 : 111000000000000;
2198 : 111000000000000;
2199 : 111000000000000;
2200 : 111000000000000;
2201 : 111000000000000;
2202 : 111000000000000;
2203 : 111000000000000;
2204 : 111000000000000;
2205 : 111000000000000;
2206 : 111000000000000;
2207 : 111000000000000;
2208 : 111000000000000;
2209 : 111000000000000;
2210 : 111000000000000;
2211 : 111000000000000;
2212 : 111000000000000;
2213 : 111000000000000;
2214 : 111000000000000;
2215 : 111000000000000;
2216 : 111000000000000;
2217 : 111000000000000;
2218 : 111000000000000;
2219 : 111000000000000;
2220 : 111000000000000;
2221 : 111000000000000;
2222 : 111000000000000;
2223 : 111000000000000;
2224 : 111000000000000;
2225 : 111000000000000;
2226 : 111000000000000;
2227 : 111000000000000;
2228 : 111000000000000;
2229 : 111000000000000;
2230 : 111000000000000;
2231 : 111000000000000;
2232 : 111000000000000;
2233 : 111000000000000;
2234 : 111000000000000;
2235 : 111000000000000;
2236 : 111000000000000;
2237 : 111000000000000;
2238 : 111000000000000;
2239 : 111000000000000;
2240 : 111000000000000;
2241 : 111000000000000;
2242 : 111000000000000;
2243 : 111000000000000;
2244 : 111000000000000;
2245 : 111000000000000;
2246 : 111000000000000;
2247 : 111000000000000;
2248 : 111000000000000;
2249 : 111000000000000;
2250 : 111000000000000;
2251 : 111000000000000;
2252 : 111000000000000;
2253 : 111000000000000;
2254 : 111000000000000;
2255 : 111000000000000;
2256 : 111000000000000;
2257 : 111000000000000;
2258 : 111000000000000;
2259 : 111000000000000;
2260 : 111000000000000;
2261 : 111000000000000;
2262 : 111000000000000;
2263 : 111000000000000;
2264 : 111000000000000;
2265 : 111000000000000;
2266 : 111000000000000;
2267 : 111000000000000;
2268 : 111000000000000;
2269 : 111000000000000;
2270 : 111000000000000;
2271 : 111000000000000;
2272 : 111000000000000;
2273 : 111000000000000;
2274 : 111000000000000;
2275 : 111000000000000;
2276 : 111000000000000;
2277 : 111000000000000;
2278 : 111000000000000;
2279 : 111000000000000;
2280 : 111000000000000;
2281 : 111000000000000;
2282 : 111000000000000;
2283 : 111000000000000;
2284 : 111000000000000;
2285 : 111000000000000;
2286 : 111000000000000;
2287 : 111000000000000;
2288 : 111000000000000;
2289 : 111000000000000;
2290 : 111000000000000;
2291 : 111000000000000;
2292 : 111000000000000;
2293 : 111000000000000;
2294 : 111000000000000;
2295 : 111000000000000;
2296 : 111000000000000;
2297 : 111000000000000;
2298 : 111000000000000;
2299 : 111000000000000;
2300 : 111000000000000;
2301 : 111000000000000;
2302 : 111000000000000;
2303 : 111000000000000;
2304 : 111000000000000;
2305 : 111000000000000;
2306 : 111000000000000;
2307 : 111000000000000;
2308 : 111000000000000;
2309 : 111000000000000;
2310 : 111000000000000;
2311 : 111000000000000;
2312 : 111000000000000;
2313 : 111000000000000;
2314 : 111000000000000;
2315 : 111000000000000;
2316 : 111000000000000;
2317 : 111000000000000;
2318 : 111000000000000;
2319 : 111000000000000;
2320 : 111000000000000;
2321 : 111000000000000;
2322 : 111000000000000;
2323 : 111000000000000;
2324 : 111000000000000;
2325 : 111000000000000;
2326 : 111000000000000;
2327 : 111000000000000;
2328 : 111000000000000;
2329 : 111000000000000;
2330 : 111000000000000;
2331 : 111000000000000;
2332 : 111000000000000;
2333 : 111000000000000;
2334 : 111000000000000;
2335 : 111000000000000;
2336 : 111000000000000;
2337 : 111000000000000;
2338 : 111000000000000;
2339 : 111000000000000;
2340 : 111000000000000;
2341 : 111000000000000;
2342 : 111000000000000;
2343 : 111000000000000;
2344 : 111000000000000;
2345 : 111000000000000;
2346 : 111000000000000;
2347 : 111000000000000;
2348 : 111000000000000;
2349 : 111000000000000;
2350 : 111000000000000;
2351 : 111000000000000;
2352 : 111000000000000;
2353 : 111000000000000;
2354 : 111000000000000;
2355 : 111000000000000;
2356 : 111000000000000;
2357 : 111000000000000;
2358 : 111000000000000;
2359 : 111000000000000;
2360 : 111000000000000;
2361 : 111000000000000;
2362 : 111000000000000;
2363 : 111000000000000;
2364 : 111000000000000;
2365 : 111000000000000;
2366 : 111000000000000;
2367 : 111000000000000;
2368 : 111000000000000;
2369 : 111000000000000;
2370 : 111000000000000;
2371 : 111000000000000;
2372 : 111000000000000;
2373 : 111000000000000;
2374 : 111000000000000;
2375 : 111000000000000;
2376 : 111000000000000;
2377 : 111000000000000;
2378 : 111000000000000;
2379 : 111000000000000;
2380 : 111000000000000;
2381 : 111000000000000;
2382 : 111000000000000;
2383 : 111000000000000;
2384 : 111000000000000;
2385 : 111000000000000;
2386 : 111000000000000;
2387 : 111000000000000;
2388 : 111000000000000;
2389 : 111000000000000;
2390 : 111000000000000;
2391 : 111000000000000;
2392 : 111000000000000;
2393 : 111000000000000;
2394 : 111000000000000;
2395 : 111000000000000;
2396 : 111000000000000;
2397 : 111000000000000;
2398 : 111000000000000;
2399 : 111000000000000;
2400 : 111000000000000;
2401 : 111000000000000;
2402 : 111000000000000;
2403 : 111000000000000;
2404 : 111000000000000;
2405 : 111000000000000;
2406 : 111000000000000;
2407 : 111000000000000;
2408 : 111000000000000;
2409 : 111000000000000;
2410 : 111000000000000;
2411 : 111000000000000;
2412 : 111000000000000;
2413 : 111000000000000;
2414 : 111000000000000;
2415 : 111000000000000;
2416 : 111000000000000;
2417 : 111000000000000;
2418 : 111000000000000;
2419 : 111000000000000;
2420 : 111000000000000;
2421 : 111000000000000;
2422 : 111000000000000;
2423 : 111000000000000;
2424 : 111000000000000;
2425 : 111000000000000;
2426 : 111000000000000;
2427 : 111000000000000;
2428 : 111000000000000;
2429 : 111000000000000;
2430 : 111000000000000;
2431 : 111000000000000;
2432 : 111000000000000;
2433 : 111000000000000;
2434 : 111000000000000;
2435 : 111000000000000;
2436 : 111000000000000;
2437 : 111000000000000;
2438 : 111000000000000;
2439 : 111000000000000;
2440 : 111000000000000;
2441 : 111000000000000;
2442 : 111000000000000;
2443 : 111000000000000;
2444 : 111000000000000;
2445 : 111000000000000;
2446 : 111000000000000;
2447 : 111000000000000;
2448 : 111000000000000;
2449 : 111000000000000;
2450 : 111000000000000;
2451 : 111000000000000;
2452 : 111000000000000;
2453 : 111000000000000;
2454 : 111000000000000;
2455 : 111000000000000;
2456 : 111000000000000;
2457 : 111000000000000;
2458 : 111000000000000;
2459 : 111000000000000;
2460 : 111000000000000;
2461 : 111000000000000;
2462 : 111000000000000;
2463 : 111000000000000;
2464 : 111000000000000;
2465 : 111000000000000;
2466 : 111000000000000;
2467 : 111000000000000;
2468 : 111000000000000;
2469 : 111000000000000;
2470 : 111000000000000;
2471 : 111000000000000;
2472 : 111000000000000;
2473 : 111000000000000;
2474 : 111000000000000;
2475 : 111000000000000;
2476 : 111000000000000;
2477 : 111000000000000;
2478 : 111000000000000;
2479 : 111000000000000;
2480 : 111000000000000;
2481 : 111000000000000;
2482 : 111000000000000;
2483 : 111000000000000;
2484 : 111000000000000;
2485 : 111000000000000;
2486 : 111000000000000;
2487 : 111000000000000;
2488 : 111000000000000;
2489 : 111000000000000;
2490 : 111000000000000;
2491 : 111000000000000;
2492 : 111000000000000;
2493 : 111000000000000;
2494 : 111000000000000;
2495 : 111000000000000;
2496 : 111000000000000;
2497 : 111000000000000;
2498 : 111000000000000;
2499 : 111000000000000;
2500 : 111000000000000;
2501 : 111000000000000;
2502 : 111000000000000;
2503 : 111000000000000;
2504 : 111000000000000;
2505 : 111000000000000;
2506 : 111000000000000;
2507 : 111000000000000;
2508 : 111000000000000;
2509 : 111000000000000;
2510 : 111000000000000;
2511 : 111000000000000;
2512 : 111000000000000;
2513 : 111000000000000;
2514 : 111000000000000;
2515 : 111000000000000;
2516 : 111000000000000;
2517 : 111000000000000;
2518 : 111000000000000;
2519 : 111000000000000;
2520 : 111000000000000;
2521 : 111000000000000;
2522 : 111000000000000;
2523 : 111000000000000;
2524 : 111000000000000;
2525 : 111000000000000;
2526 : 111000000000000;
2527 : 111000000000000;
2528 : 111000000000000;
2529 : 111000000000000;
2530 : 111000000000000;
2531 : 111000000000000;
2532 : 111000000000000;
2533 : 111000000000000;
2534 : 111000000000000;
2535 : 111000000000000;
2536 : 111000000000000;
2537 : 111000000000000;
2538 : 111000000000000;
2539 : 111000000000000;
2540 : 111000000000000;
2541 : 111000000000000;
2542 : 111000000000000;
2543 : 111000000000000;
2544 : 111000000000000;
2545 : 111000000000000;
2546 : 111000000000000;
2547 : 111000000000000;
2548 : 111000000000000;
2549 : 111000000000000;
2550 : 111000000000000;
2551 : 111000000000000;
2552 : 111000000000000;
2553 : 111000000000000;
2554 : 111000000000000;
2555 : 111000000000000;
2556 : 111000000000000;
2557 : 111000000000000;
2558 : 111000000000000;
2559 : 111000000000000;
2560 : 111000000000000;
2561 : 111000000000000;
2562 : 111000000000000;
2563 : 111000000000000;
2564 : 111000000000000;
2565 : 111000000000000;
2566 : 111000000000000;
2567 : 111000000000000;
2568 : 111000000000000;
2569 : 111000000000000;
2570 : 111000000000000;
2571 : 111000000000000;
2572 : 111000000000000;
2573 : 111000000000000;
2574 : 111000000000000;
2575 : 111000000000000;
2576 : 111000000000000;
2577 : 111000000000000;
2578 : 111000000000000;
2579 : 111000000000000;
2580 : 111000000000000;
2581 : 111000000000000;
2582 : 111000000000000;
2583 : 111000000000000;
2584 : 111000000000000;
2585 : 111000000000000;
2586 : 111000000000000;
2587 : 111000000000000;
2588 : 111000000000000;
2589 : 111000000000000;
2590 : 111000000000000;
2591 : 111000000000000;
2592 : 111000000000000;
2593 : 111000000000000;
2594 : 111000000000000;
2595 : 111000000000000;
2596 : 111000000000000;
2597 : 111000000000000;
2598 : 111000000000000;
2599 : 111000000000000;
2600 : 111000000000000;
2601 : 111000000000000;
2602 : 111000000000000;
2603 : 111000000000000;
2604 : 111000000000000;
2605 : 111000000000000;
2606 : 111000000000000;
2607 : 111000000000000;
2608 : 111000000000000;
2609 : 111000000000000;
2610 : 111000000000000;
2611 : 111000000000000;
2612 : 111000000000000;
2613 : 111000000000000;
2614 : 111000000000000;
2615 : 111000000000000;
2616 : 111000000000000;
2617 : 111000000000000;
2618 : 111000000000000;
2619 : 111000000000000;
2620 : 111000000000000;
2621 : 111000000000000;
2622 : 111000000000000;
2623 : 111000000000000;
2624 : 111000000000000;
2625 : 111000000000000;
2626 : 111000000000000;
2627 : 111000000000000;
2628 : 111000000000000;
2629 : 111000000000000;
2630 : 111000000000000;
2631 : 111000000000000;
2632 : 111000000000000;
2633 : 111000000000000;
2634 : 111000000000000;
2635 : 111000000000000;
2636 : 111000000000000;
2637 : 111000000000000;
2638 : 111000000000000;
2639 : 111000000000000;
2640 : 111000000000000;
2641 : 111000000000000;
2642 : 111000000000000;
2643 : 111000000000000;
2644 : 111000000000000;
2645 : 111000000000000;
2646 : 111000000000000;
2647 : 111000000000000;
2648 : 111000000000000;
2649 : 111000000000000;
2650 : 111000000000000;
2651 : 111000000000000;
2652 : 111000000000000;
2653 : 111000000000000;
2654 : 111000000000000;
2655 : 111000000000000;
2656 : 111000000000000;
2657 : 111000000000000;
2658 : 111000000000000;
2659 : 111000000000000;
2660 : 111000000000000;
2661 : 111000000000000;
2662 : 111000000000000;
2663 : 111000000000000;
2664 : 111000000000000;
2665 : 111000000000000;
2666 : 111000000000000;
2667 : 111000000000000;
2668 : 111000000000000;
2669 : 111000000000000;
2670 : 111000000000000;
2671 : 111000000000000;
2672 : 111000000000000;
2673 : 111000000000000;
2674 : 111000000000000;
2675 : 111000000000000;
2676 : 111000000000000;
2677 : 111000000000000;
2678 : 111000000000000;
2679 : 111000000000000;
2680 : 111000000000000;
2681 : 111000000000000;
2682 : 111000000000000;
2683 : 111000000000000;
2684 : 111000000000000;
2685 : 111000000000000;
2686 : 111000000000000;
2687 : 111000000000000;
2688 : 111000000000000;
2689 : 111000000000000;
2690 : 111000000000000;
2691 : 111000000000000;
2692 : 111000000000000;
2693 : 111000000000000;
2694 : 111000000000000;
2695 : 111000000000000;
2696 : 111000000000000;
2697 : 111000000000000;
2698 : 111000000000000;
2699 : 111000000000000;
2700 : 111000000000000;
2701 : 111000000000000;
2702 : 111000000000000;
2703 : 111000000000000;
2704 : 111000000000000;
2705 : 111000000000000;
2706 : 111000000000000;
2707 : 111000000000000;
2708 : 111000000000000;
2709 : 111000000000000;
2710 : 111000000000000;
2711 : 111000000000000;
2712 : 111000000000000;
2713 : 111000000000000;
2714 : 111000000000000;
2715 : 111000000000000;
2716 : 111000000000000;
2717 : 111000000000000;
2718 : 111000000000000;
2719 : 111000000000000;
2720 : 111000000000000;
2721 : 111000000000000;
2722 : 111000000000000;
2723 : 111000000000000;
2724 : 111000000000000;
2725 : 111000000000000;
2726 : 111000000000000;
2727 : 111000000000000;
2728 : 111000000000000;
2729 : 111000000000000;
2730 : 111000000000000;
2731 : 111000000000000;
2732 : 111000000000000;
2733 : 111000000000000;
2734 : 111000000000000;
2735 : 111000000000000;
2736 : 111000000000000;
2737 : 111000000000000;
2738 : 111000000000000;
2739 : 111000000000000;
2740 : 111000000000000;
2741 : 111000000000000;
2742 : 111000000000000;
2743 : 111000000000000;
2744 : 111000000000000;
2745 : 111000000000000;
2746 : 111000000000000;
2747 : 111000000000000;
2748 : 111000000000000;
2749 : 111000000000000;
2750 : 111000000000000;
2751 : 111000000000000;
2752 : 111000000000000;
2753 : 111000000000000;
2754 : 111000000000000;
2755 : 111000000000000;
2756 : 111000000000000;
2757 : 111000000000000;
2758 : 111000000000000;
2759 : 111000000000000;
2760 : 111000000000000;
2761 : 111000000000000;
2762 : 111000000000000;
2763 : 111000000000000;
2764 : 111000000000000;
2765 : 111000000000000;
2766 : 111000000000000;
2767 : 111000000000000;
2768 : 111000000000000;
2769 : 111000000000000;
2770 : 111000000000000;
2771 : 111000000000000;
2772 : 111000000000000;
2773 : 111000000000000;
2774 : 111000000000000;
2775 : 111000000000000;
2776 : 111000000000000;
2777 : 111000000000000;
2778 : 111000000000000;
2779 : 111000000000000;
2780 : 111000000000000;
2781 : 111000000000000;
2782 : 111000000000000;
2783 : 111000000000000;
2784 : 111000000000000;
2785 : 111000000000000;
2786 : 111000000000000;
2787 : 111000000000000;
2788 : 111000000000000;
2789 : 111000000000000;
2790 : 111000000000000;
2791 : 111000000000000;
2792 : 111000000000000;
2793 : 111000000000000;
2794 : 111000000000000;
2795 : 111000000000000;
2796 : 111000000000000;
2797 : 111000000000000;
2798 : 111000000000000;
2799 : 111000000000000;
2800 : 111000000000000;
2801 : 111000000000000;
2802 : 111000000000000;
2803 : 111000000000000;
2804 : 111000000000000;
2805 : 111000000000000;
2806 : 111000000000000;
2807 : 111000000000000;
2808 : 111000000000000;
2809 : 111000000000000;
2810 : 111000000000000;
2811 : 111000000000000;
2812 : 111000000000000;
2813 : 111000000000000;
2814 : 111000000000000;
2815 : 111000000000000;
2816 : 111000000000000;
2817 : 111000000000000;
2818 : 111000000000000;
2819 : 111000000000000;
2820 : 111000000000000;
2821 : 111000000000000;
2822 : 111000000000000;
2823 : 111000000000000;
2824 : 111000000000000;
2825 : 111000000000000;
2826 : 111000000000000;
2827 : 111000000000000;
2828 : 111000000000000;
2829 : 111000000000000;
2830 : 111000000000000;
2831 : 111000000000000;
2832 : 111000000000000;
2833 : 111000000000000;
2834 : 111000000000000;
2835 : 111000000000000;
2836 : 111000000000000;
2837 : 111000000000000;
2838 : 111000000000000;
2839 : 111000000000000;
2840 : 111000000000000;
2841 : 111000000000000;
2842 : 111000000000000;
2843 : 111000000000000;
2844 : 111000000000000;
2845 : 111000000000000;
2846 : 111000000000000;
2847 : 111000000000000;
2848 : 111000000000000;
2849 : 111000000000000;
2850 : 111000000000000;
2851 : 111000000000000;
2852 : 111000000000000;
2853 : 111000000000000;
2854 : 111000000000000;
2855 : 111000000000000;
2856 : 111000000000000;
2857 : 111000000000000;
2858 : 111000000000000;
2859 : 111000000000000;
2860 : 111000000000000;
2861 : 111000000000000;
2862 : 111000000000000;
2863 : 111000000000000;
2864 : 111000000000000;
2865 : 111000000000000;
2866 : 111000000000000;
2867 : 111000000000000;
2868 : 111000000000000;
2869 : 111000000000000;
2870 : 111000000000000;
2871 : 111000000000000;
2872 : 111000000000000;
2873 : 111000000000000;
2874 : 111000000000000;
2875 : 111000000000000;
2876 : 111000000000000;
2877 : 111000000000000;
2878 : 111000000000000;
2879 : 111000000000000;
2880 : 111000000000000;
2881 : 111000000000000;
2882 : 111000000000000;
2883 : 111000000000000;
2884 : 111000000000000;
2885 : 111000000000000;
2886 : 111000000000000;
2887 : 111000000000000;
2888 : 111000000000000;
2889 : 111000000000000;
2890 : 111000000000000;
2891 : 111000000000000;
2892 : 111000000000000;
2893 : 111000000000000;
2894 : 111000000000000;
2895 : 111000000000000;
2896 : 111000000000000;
2897 : 111000000000000;
2898 : 111000000000000;
2899 : 111000000000000;
2900 : 111000000000000;
2901 : 111000000000000;
2902 : 111000000000000;
2903 : 111000000000000;
2904 : 111000000000000;
2905 : 111000000000000;
2906 : 111000000000000;
2907 : 111000000000000;
2908 : 111000000000000;
2909 : 111000000000000;
2910 : 111000000000000;
2911 : 111000000000000;
2912 : 111000000000000;
2913 : 000000000000000;
2914 : 000000000000000;
2915 : 000000000000000;
2916 : 000000000000000;
2917 : 000000000000000;
2918 : 000000000000000;
2919 : 000000000000000;
2920 : 000000000000000;
2921 : 000000000000000;
2922 : 000000000000000;
2923 : 000000000000000;
2924 : 000000000000000;
2925 : 000000000000000;
2926 : 000000000000000;
2927 : 000000000000000;
2928 : 000000000000000;
2929 : 000000000000000;
2930 : 000000000000000;
2931 : 000000000000000;
2932 : 000000000000000;
2933 : 000000000000000;
2934 : 000000000000000;
2935 : 000000000000000;
2936 : 000000000000000;
2937 : 000000000000000;
2938 : 000000000000000;
2939 : 000000000000000;
2940 : 000000000000000;
2941 : 000000000000000;
2942 : 000000000000000;
2943 : 000000000000000;
2944 : 000000000000000;
2945 : 000000000000000;
2946 : 000000000000000;
2947 : 000000000000000;
2948 : 000000000000000;
2949 : 000000000000000;
2950 : 000000000000000;
2951 : 000000000000000;
2952 : 000000000000000;
2953 : 000000000000000;
2954 : 000000000000000;
2955 : 000000000000000;
2956 : 000000000000000;
2957 : 000000000000000;
2958 : 000000000000000;
2959 : 000000000000000;
2960 : 000000000000000;
2961 : 000000000000000;
2962 : 000000000000000;
2963 : 000000000000000;
2964 : 000000000000000;
2965 : 000000000000000;
2966 : 000000000000000;
2967 : 000000000000000;
2968 : 000000000000000;
2969 : 000000000000000;
2970 : 000000000000000;
2971 : 000000000000000;
2972 : 000000000000000;
2973 : 000000000000000;
2974 : 000000000000000;
2975 : 000000000000000;
2976 : 000000000000000;
2977 : 000000000000000;
2978 : 000000000000000;
2979 : 000000000000000;
2980 : 000000000000000;
2981 : 000000000000000;
2982 : 000000000000000;
2983 : 000000000000000;
2984 : 000000000000000;
2985 : 000000000000000;
2986 : 000000000000000;
2987 : 000000000000000;
2988 : 000000000000000;
2989 : 000000000000000;
2990 : 000000000000000;
2991 : 000000000000000;
2992 : 000000000000000;
2993 : 000000000000000;
2994 : 000000000000000;
2995 : 000000000000000;
2996 : 000000000000000;
2997 : 000000000000000;
2998 : 000000000000000;
2999 : 000000000000000;
3000 : 000000000000000;
3001 : 000000000000000;
3002 : 000000000000000;
3003 : 000000000000000;
3004 : 000000000000000;
3005 : 000000000000000;
3006 : 000000000000000;
3007 : 000000000000000;
3008 : 000000000000000;
3009 : 000000000000000;
3010 : 000000000000000;
3011 : 000000000000000;
3012 : 000000000000000;
3013 : 000000000000000;
3014 : 000000000000000;
3015 : 000000000000000;
3016 : 000000000000000;
3017 : 000000000000000;
3018 : 000000000000000;
3019 : 000000000000000;
3020 : 000000000000000;
3021 : 000000000000000;
3022 : 000000000000000;
3023 : 000000000000000;
3024 : 000000000000000;
3025 : 000000000000000;
3026 : 000000000000000;
3027 : 000000000000000;
3028 : 000000000000000;
3029 : 000000000000000;
3030 : 000000000000000;
3031 : 000000000000000;
3032 : 000000000000000;
3033 : 000000000000000;
3034 : 000000000000000;
3035 : 000000000000000;
3036 : 000000000000000;
3037 : 000000000000000;
3038 : 000000000000000;
3039 : 000000000000000;
3040 : 000000000000000;
3041 : 000000000000000;
3042 : 000000000000000;
3043 : 000000000000000;
3044 : 000000000000000;
3045 : 000000000000000;
3046 : 000000000000000;
3047 : 000000000000000;
3048 : 000000000000000;
3049 : 000000000000000;
3050 : 000000000000000;
3051 : 000000000000000;
3052 : 000000000000000;
3053 : 000000000000000;
3054 : 000000000000000;
3055 : 000000000000000;
3056 : 000000000000000;
3057 : 000000000000000;
3058 : 000000000000000;
3059 : 000000000000000;
3060 : 000000000000000;
3061 : 000000000000000;
3062 : 000000000000000;
3063 : 000000000000000;
3064 : 000000000000000;
3065 : 000000000000000;
3066 : 000000000000000;
3067 : 000000000000000;
3068 : 000000000000000;
3069 : 000000000000000;
3070 : 000000000000000;
3071 : 000000000000000;
3072 : 000000000000000;
3073 : 000000000000000;
3074 : 000000000000000;
3075 : 000000000000000;
3076 : 000000000000000;
3077 : 000000000000000;
3078 : 000000000000000;
3079 : 000000000000000;
3080 : 000000000000000;
3081 : 000000000000000;
3082 : 000000000000000;
3083 : 000000000000000;
3084 : 000000000000000;
3085 : 000000000000000;
3086 : 000000000000000;
3087 : 000000000000000;
3088 : 000000000000000;
3089 : 000000000000000;
3090 : 000000000000000;
3091 : 000000000000000;
3092 : 000000000000000;
3093 : 000000000000000;
3094 : 000000000000000;
3095 : 000000000000000;
3096 : 000000000000000;
3097 : 000000000000000;
3098 : 000000000000000;
3099 : 000000000000000;
3100 : 000000000000000;
3101 : 000000000000000;
3102 : 000000000000000;
3103 : 000000000000000;
3104 : 000000000000000;
3105 : 000000000000000;
3106 : 000000000000000;
3107 : 000000000000000;
3108 : 000000000000000;
3109 : 000000000000000;
3110 : 000000000000000;
3111 : 000000000000000;
3112 : 000000000000000;
3113 : 000000000000000;
3114 : 000000000000000;
3115 : 000000000000000;
3116 : 000000000000000;
3117 : 000000000000000;
3118 : 000000000000000;
3119 : 000000000000000;
3120 : 000000000000000;
3121 : 000000000000000;
3122 : 000000000000000;
3123 : 000000000000000;
3124 : 000000000000000;
3125 : 000000000000000;
3126 : 000000000000000;
3127 : 000000000000000;
3128 : 000000000000000;
3129 : 000000000000000;
3130 : 000000000000000;
3131 : 000000000000000;
3132 : 000000000000000;
3133 : 000000000000000;
3134 : 000000000000000;
3135 : 000000000000000;
3136 : 000000000000000;
3137 : 000000000000000;
3138 : 000000000000000;
3139 : 000000000000000;
3140 : 000000000000000;
3141 : 000000000000000;
3142 : 000000000000000;
3143 : 000000000000000;
3144 : 000000000000000;
3145 : 000000000000000;
3146 : 000000000000000;
3147 : 000000000000000;
3148 : 000000000000000;
3149 : 000000000000000;
3150 : 000000000000000;
3151 : 000000000000000;
3152 : 000000000000000;
3153 : 000000000000000;
3154 : 000000000000000;
3155 : 000000000000000;
3156 : 000000000000000;
3157 : 000000000000000;
3158 : 000000000000000;
3159 : 000000000000000;
3160 : 000000000000000;
3161 : 000000000000000;
3162 : 000000000000000;
3163 : 000000000000000;
3164 : 000000000000000;
3165 : 000000000000000;
3166 : 000000000000000;
3167 : 000000000000000;
3168 : 000000000000000;
3169 : 000000000000000;
3170 : 000000000000000;
3171 : 000000000000000;
3172 : 000000000000000;
3173 : 000000000000000;
3174 : 000000000000000;
3175 : 000000000000000;
3176 : 000000000000000;
3177 : 000000000000000;
3178 : 000000000000000;
3179 : 000000000000000;
3180 : 000000000000000;
3181 : 000000000000000;
3182 : 000000000000000;
3183 : 000000000000000;
3184 : 000000000000000;
3185 : 000000000000000;
3186 : 000000000000000;
3187 : 000000000000000;
3188 : 000000000000000;
3189 : 000000000000000;
3190 : 000000000000000;
3191 : 000000000000000;
3192 : 000000000000000;
3193 : 000000000000000;
3194 : 000000000000000;
3195 : 000000000000000;
3196 : 000000000000000;
3197 : 000000000000000;
3198 : 000000000000000;
3199 : 000000000000000;
3200 : 000000000000000;
3201 : 000000000000000;
3202 : 000000000000000;
3203 : 000000000000000;
3204 : 000000000000000;
3205 : 000000000000000;
3206 : 000000000000000;
3207 : 000000000000000;
3208 : 000000000000000;
3209 : 000000000000000;
3210 : 000000000000000;
3211 : 000000000000000;
3212 : 000000000000000;
3213 : 000000000000000;
3214 : 000000000000000;
3215 : 000000000000000;
3216 : 000000000000000;
3217 : 000000000000000;
3218 : 000000000000000;
3219 : 000000000000000;
3220 : 000000000000000;
3221 : 000000000000000;
3222 : 000000000000000;
3223 : 000000000000000;
3224 : 000000000000000;
3225 : 000000000000000;
3226 : 000000000000000;
3227 : 000000000000000;
3228 : 000000000000000;
3229 : 000000000000000;
3230 : 000000000000000;
3231 : 000000000000000;
3232 : 000000000000000;
3233 : 000000000000000;
3234 : 000000000000000;
3235 : 000000000000000;
3236 : 000000000000000;
3237 : 000000000000000;
3238 : 000000000000000;
3239 : 000000000000000;
3240 : 000000000000000;
3241 : 000000000000000;
3242 : 000000000000000;
3243 : 000000000000000;
3244 : 000000000000000;
3245 : 000000000000000;
3246 : 000000000000000;
3247 : 000000000000000;
3248 : 000000000000000;
3249 : 000000000000000;
3250 : 000000000000000;
3251 : 000000000000000;
3252 : 000000000000000;
3253 : 000000000000000;
3254 : 000000000000000;
3255 : 000000000000000;
3256 : 000000000000000;
3257 : 000000000000000;
3258 : 000000000000000;
3259 : 000000000000000;
3260 : 000000000000000;
3261 : 000000000000000;
3262 : 000000000000000;
3263 : 000000000000000;
3264 : 000000000000000;
3265 : 000000000000000;
3266 : 000000000000000;
3267 : 000000000000000;
3268 : 000000000000000;
3269 : 000000000000000;
3270 : 000000000000000;
3271 : 000000000000000;
3272 : 000000000000000;
3273 : 000000000000000;
3274 : 000000000000000;
3275 : 000000000000000;
3276 : 000000000000000;
3277 : 000000000000000;
3278 : 000000000000000;
3279 : 000000000000000;
3280 : 000000000000000;
3281 : 000000000000000;
3282 : 000000000000000;
3283 : 000000000000000;
3284 : 000000000000000;
3285 : 000000000000000;
3286 : 000000000000000;
3287 : 000000000000000;
3288 : 000000000000000;
3289 : 000000000000000;
3290 : 000000000000000;
3291 : 000000000000000;
3292 : 000000000000000;
3293 : 000000000000000;
3294 : 000000000000000;
3295 : 000000000000000;
3296 : 000000000000000;
3297 : 000000000000000;
3298 : 000000000000000;
3299 : 000000000000000;
3300 : 000000000000000;
3301 : 000000000000000;
3302 : 000000000000000;
3303 : 000000000000000;
3304 : 000000000000000;
3305 : 000000000000000;
3306 : 000000000000000;
3307 : 000000000000000;
3308 : 000000000000000;
3309 : 000000000000000;
3310 : 000000000000000;
3311 : 000000000000000;
3312 : 000000000000000;
3313 : 000000000000000;
3314 : 000000000000000;
3315 : 000000000000000;
3316 : 000000000000000;
3317 : 000000000000000;
3318 : 000000000000000;
3319 : 000000000000000;
3320 : 000000000000000;
3321 : 000000000000000;
3322 : 000000000000000;
3323 : 000000000000000;
3324 : 000000000000000;
3325 : 000000000000000;
3326 : 000000000000000;
3327 : 000000000000000;
3328 : 000000000000000;
3329 : 000000000000000;
3330 : 000000000000000;
3331 : 000000000000000;
3332 : 000000000000000;
3333 : 000000000000000;
3334 : 000000000000000;
3335 : 000000000000000;
3336 : 000000000000000;
3337 : 000000000000000;
3338 : 000000000000000;
3339 : 000000000000000;
3340 : 000000000000000;
3341 : 000000000000000;
3342 : 000000000000000;
3343 : 000000000000000;
3344 : 000000000000000;
3345 : 000000000000000;
3346 : 000000000000000;
3347 : 000000000000000;
3348 : 000000000000000;
3349 : 000000000000000;
3350 : 000000000000000;
3351 : 000000000000000;
3352 : 000000000000000;
3353 : 000000000000000;
3354 : 000000000000000;
3355 : 000000000000000;
3356 : 000000000000000;
3357 : 000000000000000;
3358 : 000000000000000;
3359 : 000000000000000;
3360 : 000000000000000;
3361 : 000000000000000;
3362 : 000000000000000;
3363 : 000000000000000;
3364 : 000000000000000;
3365 : 000000000000000;
3366 : 000000000000000;
3367 : 000000000000000;
3368 : 000000000000000;
3369 : 000000000000000;
3370 : 000000000000000;
3371 : 000000000000000;
3372 : 000000000000000;
3373 : 000000000000000;
3374 : 000000000000000;
3375 : 000000000000000;
3376 : 000000000000000;
3377 : 000000000000000;
3378 : 000000000000000;
3379 : 000000000000000;
3380 : 000000000000000;
3381 : 000000000000000;
3382 : 000000000000000;
3383 : 000000000000000;
3384 : 000000000000000;
3385 : 000000000000000;
3386 : 000000000000000;
3387 : 000000000000000;
3388 : 000000000000000;
3389 : 000000000000000;
3390 : 000000000000000;
3391 : 000000000000000;
3392 : 000000000000000;
3393 : 000000000000000;
3394 : 000000000000000;
3395 : 000000000000000;
3396 : 000000000000000;
3397 : 000000000000000;
3398 : 000000000000000;
3399 : 000000000000000;
3400 : 000000000000000;
3401 : 000000000000000;
3402 : 000000000000000;
3403 : 000000000000000;
3404 : 000000000000000;
3405 : 000000000000000;
3406 : 000000000000000;
3407 : 000000000000000;
3408 : 000000000000000;
3409 : 000000000000000;
3410 : 000000000000000;
3411 : 000000000000000;
3412 : 000000000000000;
3413 : 000000000000000;
3414 : 000000000000000;
3415 : 000000000000000;
3416 : 000000000000000;
3417 : 000000000000000;
3418 : 000000000000000;
3419 : 000000000000000;
3420 : 000000000000000;
3421 : 000000000000000;
3422 : 000000000000000;
3423 : 000000000000000;
3424 : 000000000000000;
3425 : 000000000000000;
3426 : 000000000000000;
3427 : 000000000000000;
3428 : 000000000000000;
3429 : 000000000000000;
3430 : 000000000000000;
3431 : 000000000000000;
3432 : 000000000000000;
3433 : 000000000000000;
3434 : 000000000000000;
3435 : 000000000000000;
3436 : 000000000000000;
3437 : 000000000000000;
3438 : 000000000000000;
3439 : 000000000000000;
3440 : 000000000000000;
3441 : 000000000000000;
3442 : 000000000000000;
3443 : 000000000000000;
3444 : 000000000000000;
3445 : 000000000000000;
3446 : 000000000000000;
3447 : 000000000000000;
3448 : 000000000000000;
3449 : 000000000000000;
3450 : 000000000000000;
3451 : 000000000000000;
3452 : 000000000000000;
3453 : 000000000000000;
3454 : 000000000000000;
3455 : 000000000000000;
3456 : 000000000000000;
3457 : 000000000000000;
3458 : 000000000000000;
3459 : 000000000000000;
3460 : 000000000000000;
3461 : 000000000000000;
3462 : 000000000000000;
3463 : 000000000000000;
3464 : 000000000000000;
3465 : 000000000000000;
3466 : 000000000000000;
3467 : 000000000000000;
3468 : 000000000000000;
3469 : 000000000000000;
3470 : 000000000000000;
3471 : 000000000000000;
3472 : 000000000000000;
3473 : 000000000000000;
3474 : 000000000000000;
3475 : 000000000000000;
3476 : 000000000000000;
3477 : 000000000000000;
3478 : 000000000000000;
3479 : 000000000000000;
3480 : 000000000000000;
3481 : 000000000000000;
3482 : 000000000000000;
3483 : 000000000000000;
3484 : 000000000000000;
3485 : 000000000000000;
3486 : 000000000000000;
3487 : 000000000000000;
3488 : 000000000000000;
3489 : 000000000000000;
3490 : 000000000000000;
3491 : 000000000000000;
3492 : 000000000000000;
3493 : 000000000000000;
3494 : 000000000000000;
3495 : 000000000000000;
3496 : 000000000000000;
3497 : 000000000000000;
3498 : 000000000000000;
3499 : 000000000000000;
3500 : 000000000000000;
3501 : 000000000000000;
3502 : 000000000000000;
3503 : 000000000000000;
3504 : 000000000000000;
3505 : 000000000000000;
3506 : 000000000000000;
3507 : 000000000000000;
3508 : 000000000000000;
3509 : 000000000000000;
3510 : 000000000000000;
3511 : 000000000000000;
3512 : 000000000000000;
3513 : 000000000000000;
3514 : 000000000000000;
3515 : 000000000000000;
3516 : 000000000000000;
3517 : 000000000000000;
3518 : 000000000000000;
3519 : 000000000000000;
3520 : 000000000000000;
3521 : 000000000000000;
3522 : 000000000000000;
3523 : 000000000000000;
3524 : 000000000000000;
3525 : 000000000000000;
3526 : 000000000000000;
3527 : 000000000000000;
3528 : 000000000000000;
3529 : 000000000000000;
3530 : 000000000000000;
3531 : 000000000000000;
3532 : 000000000000000;
3533 : 000000000000000;
3534 : 000000000000000;
3535 : 000000000000000;
3536 : 000000000000000;
3537 : 000000000000000;
3538 : 000000000000000;
3539 : 000000000000000;
3540 : 000000000000000;
3541 : 000000000000000;
3542 : 000000000000000;
3543 : 000000000000000;
3544 : 000000000000000;
3545 : 000000000000000;
3546 : 000000000000000;
3547 : 000000000000000;
3548 : 000000000000000;
3549 : 000000000000000;
3550 : 000000000000000;
3551 : 000000000000000;
3552 : 000000000000000;
3553 : 000000000000000;
3554 : 000000000000000;
3555 : 000000000000000;
3556 : 000000000000000;
3557 : 000000000000000;
3558 : 000000000000000;
3559 : 000000000000000;
3560 : 000000000000000;
3561 : 000000000000000;
3562 : 000000000000000;
3563 : 000000000000000;
3564 : 000000000000000;
3565 : 000000000000000;
3566 : 000000000000000;
3567 : 000000000000000;
3568 : 000000000000000;
3569 : 000000000000000;
3570 : 000000000000000;
3571 : 000000000000000;
3572 : 000000000000000;
3573 : 000000000000000;
3574 : 000000000000000;
3575 : 000000000000000;
3576 : 000000000000000;
3577 : 000000000000000;
3578 : 000000000000000;
3579 : 000000000000000;
3580 : 000000000000000;
3581 : 000000000000000;
3582 : 000000000000000;
3583 : 000000000000000;
3584 : 000000000000000;
3585 : 000000000000000;
3586 : 000000000000000;
3587 : 000000000000000;
3588 : 000000000000000;
3589 : 000000000000000;
3590 : 000000000000000;
3591 : 000000000000000;
3592 : 000000000000000;
3593 : 000000000000000;
3594 : 000000000000000;
3595 : 000000000000000;
3596 : 000000000000000;
3597 : 000000000000000;
3598 : 000000000000000;
3599 : 000000000000000;
3600 : 000000000000000;
3601 : 000000000000000;
3602 : 000000000000000;
3603 : 000000000000000;
3604 : 000000000000000;
3605 : 000000000000000;
3606 : 000000000000000;
3607 : 000000000000000;
3608 : 000000000000000;
3609 : 000000000000000;
3610 : 000000000000000;
3611 : 000000000000000;
3612 : 000000000000000;
3613 : 000000000000000;
3614 : 000000000000000;
3615 : 000000000000000;
3616 : 000000000000000;
3617 : 000000000000000;
3618 : 000000000000000;
3619 : 000000000000000;
3620 : 000000000000000;
3621 : 000000000000000;
3622 : 000000000000000;
3623 : 000000000000000;
3624 : 000000000000000;
3625 : 000000000000000;
3626 : 000000000000000;
3627 : 000000000000000;
3628 : 000000000000000;
3629 : 000000000000000;
3630 : 000000000000000;
3631 : 000000000000000;
3632 : 000000000000000;
3633 : 000000000000000;
3634 : 000000000000000;
3635 : 000000000000000;
3636 : 000000000000000;
3637 : 000000000000000;
3638 : 000000000000000;
3639 : 000000000000000;
3640 : 000000000000000;
3641 : 000000000000000;
3642 : 000000000000000;
3643 : 000000000000000;
3644 : 000000000000000;
3645 : 000000000000000;
3646 : 000000000000000;
3647 : 000000000000000;
3648 : 000000000000000;
3649 : 000000000000000;
3650 : 000000000000000;
3651 : 000000000000000;
3652 : 000000000000000;
3653 : 000000000000000;
3654 : 000000000000000;
3655 : 000000000000000;
3656 : 000000000000000;
3657 : 000000000000000;
3658 : 000000000000000;
3659 : 000000000000000;
3660 : 000000000000000;
3661 : 000000000000000;
3662 : 000000000000000;
3663 : 000000000000000;
3664 : 000000000000000;
3665 : 000000000000000;
3666 : 000000000000000;
3667 : 000000000000000;
3668 : 000000000000000;
3669 : 000000000000000;
3670 : 000000000000000;
3671 : 000000000000000;
3672 : 000000000000000;
3673 : 000000000000000;
3674 : 000000000000000;
3675 : 000000000000000;
3676 : 000000000000000;
3677 : 000000000000000;
3678 : 000000000000000;
3679 : 000000000000000;
3680 : 000000000000000;
3681 : 000000000000000;
3682 : 000000000000000;
3683 : 000000000000000;
3684 : 000000000000000;
3685 : 000000000000000;
3686 : 000000000000000;
3687 : 000000000000000;
3688 : 000000000000000;
3689 : 000000000000000;
3690 : 000000000000000;
3691 : 000000000000000;
3692 : 000000000000000;
3693 : 000000000000000;
3694 : 000000000000000;
3695 : 000000000000000;
3696 : 000000000000000;
3697 : 000000000000000;
3698 : 000000000000000;
3699 : 000000000000000;
3700 : 000000000000000;
3701 : 000000000000000;
3702 : 000000000000000;
3703 : 000000000000000;
3704 : 000000000000000;
3705 : 000000000000000;
3706 : 000000000000000;
3707 : 000000000000000;
3708 : 000000000000000;
3709 : 000000000000000;
3710 : 000000000000000;
3711 : 000000000000000;
3712 : 000000000000000;
3713 : 000000000000000;
3714 : 000000000000000;
3715 : 000000000000000;
3716 : 000000000000000;
3717 : 000000000000000;
3718 : 000000000000000;
3719 : 000000000000000;
3720 : 000000000000000;
3721 : 000000000000000;
3722 : 000000000000000;
3723 : 000000000000000;
3724 : 000000000000000;
3725 : 000000000000000;
3726 : 000000000000000;
3727 : 000000000000000;
3728 : 000000000000000;
3729 : 000000000000000;
3730 : 000000000000000;
3731 : 000000000000000;
3732 : 000000000000000;
3733 : 000000000000000;
3734 : 000000000000000;
3735 : 000000000000000;
3736 : 000000000000000;
3737 : 000000000000000;
3738 : 000000000000000;
3739 : 000000000000000;
3740 : 000000000000000;
3741 : 000000000000000;
3742 : 000000000000000;
3743 : 000000000000000;
3744 : 000000000000000;
3745 : 000000000000000;
3746 : 000000000000000;
3747 : 000000000000000;
3748 : 000000000000000;
3749 : 000000000000000;
3750 : 000000000000000;
3751 : 000000000000000;
3752 : 000000000000000;
3753 : 000000000000000;
3754 : 000000000000000;
3755 : 000000000000000;
3756 : 000000000000000;
3757 : 000000000000000;
3758 : 000000000000000;
3759 : 000000000000000;
3760 : 000000000000000;
3761 : 000000000000000;
3762 : 000000000000000;
3763 : 000000000000000;
3764 : 000000000000000;
3765 : 000000000000000;
3766 : 000000000000000;
3767 : 000000000000000;
3768 : 000000000000000;
3769 : 000000000000000;
3770 : 000000000000000;
3771 : 000000000000000;
3772 : 000000000000000;
3773 : 000000000000000;
3774 : 000000000000000;
3775 : 000000000000000;
3776 : 000000000000000;
3777 : 000000000000000;
3778 : 000000000000000;
3779 : 000000000000000;
3780 : 000000000000000;
3781 : 000000000000000;
3782 : 000000000000000;
3783 : 000000000000000;
3784 : 000000000000000;
3785 : 000000000000000;
3786 : 000000000000000;
3787 : 000000000000000;
3788 : 000000000000000;
3789 : 000000000000000;
3790 : 000000000000000;
3791 : 000000000000000;
3792 : 000000000000000;
3793 : 000000000000000;
3794 : 000000000000000;
3795 : 000000000000000;
3796 : 000000000000000;
3797 : 000000000000000;
3798 : 000000000000000;
3799 : 000000000000000;
3800 : 000000000000000;
3801 : 000000000000000;
3802 : 000000000000000;
3803 : 000000000000000;
3804 : 000000000000000;
3805 : 000000000000000;
3806 : 000000000000000;
3807 : 000000000000000;
3808 : 000000000000000;
3809 : 000000000000000;
3810 : 000000000000000;
3811 : 000000000000000;
3812 : 000000000000000;
3813 : 000000000000000;
3814 : 000000000000000;
3815 : 000000000000000;
3816 : 000000000000000;
3817 : 000000000000000;
3818 : 000000000000000;
3819 : 000000000000000;
3820 : 000000000000000;
3821 : 000000000000000;
3822 : 000000000000000;
3823 : 000000000000000;
3824 : 000000000000000;
3825 : 000000000000000;
3826 : 000000000000000;
3827 : 000000000000000;
3828 : 000000000000000;
3829 : 000000000000000;
3830 : 000000000000000;
3831 : 000000000000000;
3832 : 000000000000000;
3833 : 000000000000000;
3834 : 000000000000000;
3835 : 000000000000000;
3836 : 000000000000000;
3837 : 000000000000000;
3838 : 000000000000000;
3839 : 000000000000000;
3840 : 000000000000000;
3841 : 000000000000000;
3842 : 000000000000000;
3843 : 000000000000000;
3844 : 000000000000000;
3845 : 000000000000000;
3846 : 000000000000000;
3847 : 000000000000000;
3848 : 000000000000000;
3849 : 000000000000000;
3850 : 000000000000000;
3851 : 000000000000000;
3852 : 000000000000000;
3853 : 000000000000000;
3854 : 000000000000000;
3855 : 000000000000000;
3856 : 000000000000000;
3857 : 000000000000000;
3858 : 000000000000000;
3859 : 000000000000000;
3860 : 000000000000000;
3861 : 000000000000000;
3862 : 000000000000000;
3863 : 000000000000000;
3864 : 000000000000000;
3865 : 000000000000000;
3866 : 000000000000000;
3867 : 000000000000000;
3868 : 000000000000000;
3869 : 000000000000000;
3870 : 000000000000000;
3871 : 000000000000000;
3872 : 000000000000000;
3873 : 000000000000000;
3874 : 000000000000000;
3875 : 000000000000000;
3876 : 000000000000000;
3877 : 000000000000000;
3878 : 000000000000000;
3879 : 000000000000000;
3880 : 000000000000000;
3881 : 000000000000000;
3882 : 000000000000000;
3883 : 000000000000000;
3884 : 000000000000000;
3885 : 000000000000000;
3886 : 000000000000000;
3887 : 000000000000000;
3888 : 000000000000000;
3889 : 000000000000000;
3890 : 000000000000000;
3891 : 000000000000000;
3892 : 000000000000000;
3893 : 000000000000000;
3894 : 000000000000000;
3895 : 000000000000000;
3896 : 000000000000000;
3897 : 000000000000000;
3898 : 000000000000000;
3899 : 000000000000000;
3900 : 000000000000000;
3901 : 000000000000000;
3902 : 000000000000000;
3903 : 000000000000000;
3904 : 000000000000000;
3905 : 000000000000000;
3906 : 000000000000000;
3907 : 000000000000000;
3908 : 000000000000000;
3909 : 000000000000000;
3910 : 000000000000000;
3911 : 000000000000000;
3912 : 000000000000000;
3913 : 000000000000000;
3914 : 000000000000000;
3915 : 000000000000000;
3916 : 000000000000000;
3917 : 000000000000000;
3918 : 000000000000000;
3919 : 000000000000000;
3920 : 000000000000000;
3921 : 000000000000000;
3922 : 000000000000000;
3923 : 000000000000000;
3924 : 000000000000000;
3925 : 000000000000000;
3926 : 000000000000000;
3927 : 000000000000000;
3928 : 000000000000000;
3929 : 000000000000000;
3930 : 000000000000000;
3931 : 000000000000000;
3932 : 000000000000000;
3933 : 000000000000000;
3934 : 000000000000000;
3935 : 000000000000000;
3936 : 000000000000000;
3937 : 000000000000000;
3938 : 000000000000000;
3939 : 000000000000000;
3940 : 000000000000000;
3941 : 000000000000000;
3942 : 000000000000000;
3943 : 000000000000000;
3944 : 000000000000000;
3945 : 000000000000000;
3946 : 000000000000000;
3947 : 000000000000000;
3948 : 000000000000000;
3949 : 000000000000000;
3950 : 000000000000000;
3951 : 000000000000000;
3952 : 000000000000000;
3953 : 000000000000000;
3954 : 000000000000000;
3955 : 000000000000000;
3956 : 000000000000000;
3957 : 000000000000000;
3958 : 000000000000000;
3959 : 000000000000000;
3960 : 000000000000000;
3961 : 000000000000000;
3962 : 000000000000000;
3963 : 000000000000000;
3964 : 000000000000000;
3965 : 000000000000000;
3966 : 000000000000000;
3967 : 000000000000000;
3968 : 000000000000000;
3969 : 000000000000000;
3970 : 000000000000000;
3971 : 000000000000000;
3972 : 000000000000000;
3973 : 000000000000000;
3974 : 000000000000000;
3975 : 000000000000000;
3976 : 000000000000000;
3977 : 000000000000000;
3978 : 000000000000000;
3979 : 000000000000000;
3980 : 000000000000000;
3981 : 000000000000000;
3982 : 000000000000000;
3983 : 000000000000000;
3984 : 000000000000000;
3985 : 000000000000000;
3986 : 000000000000000;
3987 : 000000000000000;
3988 : 000000000000000;
3989 : 000000000000000;
3990 : 000000000000000;
3991 : 000000000000000;
3992 : 000000000000000;
3993 : 000000000000000;
3994 : 000000000000000;
3995 : 000000000000000;
