MEMORY_INITIALIZATION_RADIX=2; 
MEMORY_INITIALIZATION_VECTOR=  
000000000000000,
000000000000000,
000000000000000,
000000000000000,
000000000000000,
000000000000000,
000000000000000,
000000000000000,
000000000000000,
000000000000000,
000000000000000,
000000000000000,
000000000000000,
000000000000000,
000000000000000,
000000000000000,
000000000000000,
000000000000000,
000000000000000,
000000000000000,
000000000000000,
000000000000000,
000000000000000,
000000000000000,
000000000000000,
000000000000000,
000000000000000,
000000000000000,
000000000000000,
000000000000000,
000000000000000,
000000000000000,
000000000000000,
000000000000000,
000000000000000,
010000000000000,
000000000000000,
000000000000000,
000000000000000,
000000000000000,
000000000000000,
000000000000000,
000000000000000,
000000000000000,
000000000000000,
000000000000000,
000000000000000,
000000000000000,
010000000000000,
000000000000000,
000000000000000,
000000000000000,
000000000000000,
000000000000000,
000000000000000,
000000000000000,
010000000000000,
000000000000000,
000000000000000,
000000000000000,
000000000000000,
000000000000000,
010000000000000,
000000000000000,
000000000000000,
000000000000000,
000000000000000,
000000000000000,
000000000000000,
000000000000000,
010000000000000,
000000000000000,
000000000000000,
000000000000000,
000000000000000,
010000000000000,
010000000000000,
000000000000000,
000000000000000,
000000000000000,
000000000000000,
000000000000000,
000000000000000,
000000000000000,
000000000000000,
000000000000000,
000000000000000,
000000000000000,
000000000000000,
000000000000000,
000000000000000,
000000000000000,
000000000000000,
000000000000000,
000000000000000,
000000000000000,
000000000000000,
000000000000000,
000000000000000,
000000000000000,
000000000000000,
000000000000000,
000000000000000,
000000000000000,
000000000000000,
010000000000000,
000000000000000,
000000000000000,
000000000000000,
010000000000000,
010000000000000,
000000000000000,
000000000000000,
000000000000000,
000000000000000,
000000000000000,
000000000000000,
000000000000000,
010000000000000,
000000000000000,
010000000000000,
010000000000000,
010000000000000,
000000000000000,
000000000000000,
000000000000000,
000000000000000,
000000000000000,
000000000000000,
000000000000000,
000000000000000,
000000000000000,
000000000000000,
000000000000000,
000000000000000,
000000000000000,
000000000000000,
000000000000000,
000000000000000,
000000000000000,
000000000000000,
000000000000000,
000000000000000,
000000000000000,
000000000000000,
000000000000000,
000000000000000,
000000000000000,
000000000000000,
000000000000000,
000000000000000,
000000000000000,
010000000000000,
000000000000000,
000000000000000,
000000000000000,
000000000000000,
000000000000000,
000000000000000,
000000000000000,
010000000000000,
000000000000000,
000000000000000,
000000000000000,
010000000000000,
000000000000000,
000000000000000,
000000000000000,
000000000000000,
000000000000000,
000000000000000,
000000000000000,
000000000000000,
000000000000000,
000000000000000,
000000000000000,
010000000000000,
010000000000000,
000000000000000,
000000000000000,
000000000000000,
000000000000000,
000000000000000,
000000000000000,
000000000000000,
000000000000000,
000000000000000,
010000000000000,
000000000000000,
000000000000000,
000000000000000,
000000000000000,
000000000000000,
000000000000000,
000000000000000,
000000000000000,
000000000000000,
000000000000000,
000000000000000,
000000000000000,
000000000000000,
000000000000000,
010000000000000,
000000000000000,
000000000000000,
000000000000000,
010000000000000,
010000000000000,
000000000000000,
000000000000000,
000000000000000,
000000000000000,
000000000000000,
000000000000000,
000000000000000,
010000000000000,
000000000000000,
010000000000000,
000000000000000,
000000000000000,
000000000000000,
000000000000000,
000000000000000,
010000000000000,
010000000000000,
000000000000000,
000000000000000,
000000000000000,
000000000000000,
000000000000000,
010000000000000,
000000000000000,
000000000000000,
000000000000000,
010000000000000,
010000000000000,
000000000000000,
000000000000000,
000000000000000,
000000000000000,
000000000000000,
010000000000000,
010000000000000,
000000000000000,
000000000000000,
000000000000000,
000000000000000,
000000000000000,
010000000000000,
010000000000000,
000000000000000,
000000000000000,
000000000000000,
000000000000000,
000000000000000,
010000000000000,
000000000000000,
000000000000000,
000000000000000,
000000000000000,
000000000000000,
010000000000000,
000000000000000,
000000000000000,
000000000000000,
000000000000000,
000000000000000,
000000000000000,
000000000000000,
000000000000000,
000000000000000,
000000000000000,
000000000000000,
000000000000000,
000000000000000,
000000000000000,
000000000000000,
000000000000000,
000000000000000,
000000000000000,
000000000000000,
000000000000000,
000000000000000,
000000000000000,
000000000000000,
000000000000000,
000000000000000,
000000000000000,
010000000000000,
000000000000000,
000000000000000,
010000000000000,
000000000000000,
000000000000000,
000000000000000,
000000000000000,
000000000000000,
000000000000000,
000000000000000,
000000000000000,
000000000000000,
000000000000000,
000000000000000,
000000000000000,
000000000000000,
000000000000000,
000000000000000,
000000000000000,
000000000000000,
000000000000000,
000000000000000,
000000000000000,
000000000000000,
000000000000000,
000000000000000,
000000000000000,
000000000000000,
010000000000000,
010000000000000,
010000000000000,
000000000000000,
000000000000000,
000000000000000,
000000000000000,
000000000000000,
000000000000000,
000000000000000,
010000000000000,
000000000000000,
000000000000000,
000000000000000,
000000000000000,
000000000000000,
000000000000000,
000000000000000,
000000000000000,
010000000000000,
010000000000000,
000000000000000,
000000000000000,
000000000000000,
000000000000000,
000000000000000,
000000000000000,
000000000000000,
000000000000000,
000000000000000,
000000000000000,
000000000000000,
000000000000000,
000000000000000,
000000000000000,
000000000000000,
000000000000000,
000000000000000,
000000000000000,
000000000000000,
000000000000000,
000000000000000,
010000000000000,
010000000000000,
010000000000000,
010000000000000,
010000000000000,
000000000000000,
000000000000000,
010000000000000,
010000000000000,
000000000000000,
000000000000000,
000000000000000,
000000000000000,
000000000000000,
010000000000000,
010000000000000,
010000000000000,
000000000000000,
000000000000000,
000000000000000,
000000000000000,
000000000000000,
000000000000000,
000000000000000,
000000000000000,
000000000000000,
000000000000000,
000000000000000,
000000000000000,
000000000000000,
000000000000000,
000000000000000,
000000000000000,
000000000000000,
000000000000000,
000000000000000,
000000000000000,
000000000000000,
000000000000000,
000000000000000,
000000000000000,
000000000000000,
000000000000000,
000000000000000,
000000000000000,
000000000000000,
000000000000000,
000000000000000,
000000000000000,
000000000000000,
000000000000000,
000000000000000,
000000000000000,
010000000000000,
000000000000000,
000000000000000,
010000000000000,
010000000000000,
000000000000000,
000000000000000,
000000000000000,
000000000000000,
000000000000000,
000000000000000,
000000000000000,
000000000000000,
000000000000000,
000000000000000,
000000000000000,
000000000000000,
000000000000000,
000000000000000,
000000000000000,
000000000000000,
000000000000000,
000000000000000,
000000000000000,
000000000000000,
000000000000000,
000000000000000,
000000000000000,
000000000000000,
000000000000000,
000000000000000,
000000000000000,
010000000000000,
000000000000000,
000000000000000,
000000000000000,
000000000000000,
000000000000000,
000000000000000,
010000000000000,
000000000000000,
010000000000000,
010000000000000,
000000000000000,
000000000000000,
000000000000000,
000000000000000,
010000000000000,
010000000000000,
010000000000000,
000000000000000,
010000000000000,
010000000000000,
000000000000000,
000000000000000,
000000000000000,
000000000000000,
000000000000000,
000000000000000,
000000000000000,
000000000000000,
010000000000000,
000000000000000,
000000000000000,
000000000000000,
000000000000000,
010000000000000,
000000000000000,
000000000000000,
010000000000000,
000000000000000,
000000000000000,
000000000000000,
000000000000000,
000000000000000,
000000000000000,
000000000000000,
000000000000000,
010000000000000,
000000000000000,
000000000000000,
000000000000000,
000000000000000,
000000000000000,
000000000000000,
000000000000000,
000000000000000,
000000000000000,
000000000000000,
000000000000000,
000000000000000,
000000000000000,
000000000000000,
000000000000000,
000000000000000,
000000000000000,
000000000000000,
000000000000000,
000000000000000,
000000000000000,
000000000000000,
000000000000000,
000000000000000,
000000000000000,
000000000000000,
000000000000000,
000000000000000,
000000000000000,
010000000000000,
010000000000000,
000000000000000,
000000000000000,
000000000000000,
010000000000000,
000000000000000,
000000000000000,
000000000000000,
010000000000000,
000000000000000,
000000000000000,
000000000000000,
000000000000000,
000000000000000,
000000000000000,
000000000000000,
000000000000000,
000000000000000,
000000000000000,
000000000000000,
000000000000000,
010000000000000,
000000000000000,
000000000000000,
000000000000000,
010000000000000,
000000000000000,
010000000000000,
010000000000000,
000000000000000,
000000000000000,
000000000000000,
000000000000000,
010000000000000,
000000000000000,
000000000000000,
000000000000000,
000000000000000,
010000000000000,
000000000000000,
000000000000000,
000000000000000,
000000000000000,
000000000000000,
000000000000000,
000000000000000,
000000000000000,
000000000000000,
000000000000000,
000000000000000,
000000000000000,
000000000000000,
000000000000000,
000000000000000,
000000000000000,
000000000000000,
000000000000000,
000000000000000,
000000000000000,
000000000000000,
000000000000000,
000000000000000,
000000000000000,
000000000000000,
000000000000000,
000000000000000,
010000000000000,
010000000000000,
000000000000000,
000000000000000,
010000000000000,
010000000000000,
000000000000000,
010000000000000,
010000000000000,
000000000000000,
000000000000000,
000000000000000,
000000000000000,
000000000000000,
000000000000000,
000000000000000,
000000000000000,
000000000000000,
000000000000000,
000000000000000,
000000000000000,
000000000000000,
000000000000000,
000000000000000,
000000000000000,
000000000000000,
000000000000000,
000000000000000,
000000000000000,
000000000000000,
000000000000000,
000000000000000,
000000000000000,
000000000000000,
000000000000000,
000000000000000,
000000000000000,
010000000000000,
010000000000000,
000000000000000,
000000000000000,
000000000000000,
000000000000000,
000000000000000,
000000000000000,
000000000000000,
000000000000000,
000000000000000,
000000000000000,
000000000000000,
000000000000000,
000000000000000,
000000000000000,
000000000000000,
000000000000000,
000000000000000,
000000000000000,
000000000000000,
000000000000000,
000000000000000,
000000000000000,
000000000000000,
000000000000000,
000000000000000,
000000000000000,
000000000000000,
000000000000000,
000000000000000,
010000000000000,
000000000000000,
000000000000000,
000000000000000,
010000000000000,
000000000000000,
000000000000000,
000000000000000,
000000000000000,
000000000000000,
010000000000000,
010000000000000,
000000000000000,
000000000000000,
000000000000000,
000000000000000,
000000000000000,
000000000000000,
000000000000000,
000000000000000,
010000000000000,
000000000000000,
000000000000000,
010000000000000,
010000000000000,
010000000000000,
000000000000000,
000000000000000,
010000000000000,
000000000000000,
000000000000000,
010000000000000,
000000000000000,
000000000000000,
000000000000000,
000000000000000,
010000000000000,
000000000000000,
000000000000000,
010000000000000,
000000000000000,
000000000000000,
000000000000000,
000000000000000,
010000000000000,
010000000000000,
000000000000000,
000000000000000,
000000000000000,
010000000000000,
010000000000000,
010000000000000,
000000000000000,
000000000000000,
000000000000000,
000000000000000,
000000000000000,
000000000000000,
000000000000000,
000000000000000,
000000000000000,
000000000000000,
000000000000000,
000000000000000,
000000000000000,
000000000000000,
000000000000000,
010000000000000,
000000000000000,
000000000000000,
000000000000000,
010000000000000,
000000000000000,
000000000000000,
000000000000000,
000000000000000,
000000000000000,
000000000000000,
000000000000000,
000000000000000,
000000000000000,
000000000000000,
000000000000000,
000000000000000,
000000000000000,
000000000000000,
000000000000000,
000000000000000,
000000000000000,
000000000000000,
000000000000000,
000000000000000,
000000000000000,
000000000000000,
000000000000000,
000000000000000,
010000000000000,
010000000000000,
000000000000000,
000000000000000,
000000000000000,
010000000000000,
010000000000000,
010000000000000,
000000000000000,
000000000000000,
010000000000000,
000000000000000,
000000000000000,
000000000000000,
000000000000000,
000000000000000,
000000000000000,
000000000000000,
000000000000000,
010000000000000,
000000000000000,
000000000000000,
000000000000000,
000000000000000,
010000000000000,
000000000000000,
000000000000000,
010000000000000,
000000000000000,
000000000000000,
000000000000000,
000000000000000,
000000000000000,
010000000000000,
000000000000000,
010000000000000,
000000000000000,
000000000000000,
000000000000000,
000000000000000,
000000000000000,
000000000000000,
000000000000000,
000000000000000,
000000000000000,
000000000000000,
000000000000000,
000000000000000,
000000000000000,
010000000000000,
000000000000000,
000000000000000,
000000000000000,
000000000000000,
000000000000000,
000000000000000,
010000000000000,
000000000000000,
000000000000000,
000000000000000,
000000000000000,
000000000000000,
000000000000000,
000000000000000,
000000000000000,
000000000000000,
000000000000000,
000000000000000,
010000000000000,
000000000000000,
000000000000000,
000000000000000,
000000000000000,
000000000000000,
000000000000000,
000000000000000,
000000000000000,
000000000000000,
000000000000000,
000000000000000,
000000000000000,
000000000000000,
010000000000000,
000000000000000,
000000000000000,
000000000000000,
000000000000000,
000000000000000,
000000000000000,
000000000000000,
000000000000000,
000000000000000,
000000000000000,
000000000000000,
000000000000000,
000000000000000,
000000000000000,
000000000000000,
000000000000000,
000000000000000,
010000000000000,
000000000000000,
000000000000000,
000000000000000,
010000000000000,
000000000000000,
000000000000000,
000000000000000,
010000000000000,
000000000000000,
010000000000000,
010000000000000,
000000000000000,
000000000000000,
010000000000000,
010000000000000,
000000000000000,
010000000000000,
000000000000000,
000000000000000,
000000000000000,
000000000000000,
000000000000000,
000000000000000,
000000000000000,
010000000000000,
000000000000000,
000000000000000,
000000000000000,
000000000000000,
000000000000000,
000000000000000,
000000000000000,
000000000000000,
000000000000000,
000000000000000,
000000000000000,
000000000000000,
000000000000000,
000000000000000,
000000000000000,
000000000000000,
000000000000000,
000000000000000,
000000000000000,
000000000000000,
000000000000000,
000000000000000,
000000000000000,
000000000000000,
000000000000000,
000000000000000,
000000000000000,
000000000000000,
000000000000000,
000000000000000,
000000000000000,
000000000000000,
000000000000000,
000000000000000,
010000000000000,
010000000000000,
000000000000000,
000000000000000,
000000000000000,
000000000000000,
000000000000000,
000000000000000,
000000000000000,
010000000000000,
000000000000000,
000000000000000,
000000000000000,
000000000000000,
000000000000000,
000000000000000,
000000000000000,
000000000000000,
000000000000000,
000000000000000,
000000000000000,
000000000000000,
000000000000000,
000000000000000,
000000000000000,
000000000000000,
000000000000000,
000000000000000,
000000000000000,
000000000000000,
000000000000000,
000000000000000,
000000000000000,
000000000000000,
000000000000000,
010000000000000,
010000000000000,
000000000000000,
010000000000000,
010000000000000,
010000000000000,
000000000000000,
010000000000000,
000000000000000,
010000000000000,
000000000000000,
010000000000000,
000000000000000,
010000000000000,
000000000000000,
000000000000000,
010000000000000,
000000000000000,
000000000000000,
010000000000000,
010000000000000,
000000000000000,
010000000000000,
000000000000000,
000000000000000,
000000000000000,
000000000000000,
000000000000000,
000000000000000,
000000000000000,
000000000000000,
010000000000000,
010000000000000,
000000000000000,
010000000000000,
010000000000000,
000000000000000,
000000000000000,
000000000000000,
000000000000000,
000000000000000,
000000000000000,
000000000000000,
000000000000000,
010000000000000,
010000000000000,
000000000000000,
000000000000000,
000000000000000,
000000000000000,
000000000000000,
000000000000000,
000000000000000,
000000000000000,
000000000000000,
000000000000000,
000000000000000,
000000000000000,
000000000000000,
000000000000000,
000000000000000,
000000000000000,
000000000000000,
010000000000000,
000000000000000,
000000000000000,
010000000000000,
010000000000000,
000000000000000,
000000000000000,
010000000000000,
010000000000000,
010000000000000,
000000000000000,
000000000000000,
010000000000000,
000000000000000,
000000000000000,
000000000000000,
000000000000000,
000000000000000,
000000000000000,
000000000000000,
000000000000000,
000000000000000,
000000000000000,
000000000000000,
000000000000000,
000000000000000,
000000000000000,
000000000000000,
000000000000000,
000000000000000,
000000000000000,
000000000000000,
000000000000000,
000000000000000,
000000000000000,
010000000000000,
000000000000000,
010000000000000,
010000000000000,
000000000000000,
000000000000000,
000000000000000,
000000000000000,
000000000000000,
000000000000000,
000000000000000,
000000000000000,
000000000000000,
010000000000000,
010000000000000,
000000000000000,
000000000000000,
000000000000000,
000000000000000,
000000000000000,
000000000000000,
000000000000000,
000000000000000,
000000000000000,
000000000000000,
000000000000000,
000000000000000,
000000000000000,
000000000000000,
000000000000000,
010000000000000,
000000000000000,
000000000000000,
000000000000000,
000000000000000,
000000000000000,
010000000000000,
010000000000000,
000000000000000,
010000000000000,
000000000000000,
000000000000000,
000000000000000,
010000000000000,
000000000000000,
000000000000000,
000000000000000,
000000000000000,
000000000000000,
000000000000000,
010000000000000,
010000000000000,
010000000000000,
000000000000000,
010000000000000,
000000000000000,
010000000000000,
000000000000000,
000000000000000,
000000000000000,
000000000000000,
000000000000000,
000000000000000,
000000000000000,
000000000000000,
000000000000000,
000000000000000,
000000000000000,
000000000000000,
000000000000000,
000000000000000,
000000000000000,
000000000000000,
000000000000000,
000000000000000,
000000000000000,
000000000000000,
000000000000000,
000000000000000,
000000000000000,
000000000000000,
000000000000000,
000000000000000,
000000000000000,
000000000000000,
000000000000000,
000000000000000,
000000000000000,
000000000000000,
000000000000000,
000000000000000,
000000000000000,
000000000000000,
010000000000000,
010000000000000,
010000000000000,
000000000000000,
010000000000000,
000000000000000,
000000000000000,
000000000000000,
000000000000000,
000000000000000,
000000000000000,
000000000000000,
000000000000000,
000000000000000,
000000000000000,
000000000000000,
000000000000000,
000000000000000,
000000000000000,
000000000000000,
000000000000000,
000000000000000,
000000000000000,
000000000000000,
010000000000000,
000000000000000,
000000000000000,
000000000000000,
000000000000000,
000000000000000,
000000000000000,
000000000000000,
000000000000000,
000000000000000,
000000000000000,
000000000000000,
000000000000000,
000000000000000,
000000000000000,
000000000000000,
010000000000000,
000000000000000,
010000000000000,
010000000000000,
010000000000000,
000000000000000,
000000000000000,
010000000000000,
000000000000000,
000000000000000,
000000000000000,
000000000000000,
000000000000000,
000000000000000,
000000000000000,
000000000000000,
000000000000000,
000000000000000,
000000000000000,
000000000000000,
000000000000000,
000000000000000,
000000000000000,
000000000000000,
000000000000000,
000000000000000,
000000000000000,
000000000000000,
000000000000000,
000000000000000,
000000000000000,
000000000000000,
010000000000000,
010000000000000,
010000000000000,
010000000000000,
000000000000000,
000000000000000,
000000000000000,
000000000000000,
000000000000000,
000000000000000,
000000000000000,
000000000000000,
000000000000000,
000000000000000,
000000000000000,
000000000000000,
000000000000000,
010000000000000,
000000000000000,
000000000000000,
000000000000000,
000000000000000,
000000000000000,
000000000000000,
010000000000000,
010000000000000,
000000000000000,
000000000000000,
000000000000000,
010000000000000,
000000000000000,
000000000000000,
000000000000000,
000000000000000,
010000000000000,
000000000000000,
000000000000000,
000000000000000,
000000000000000,
000000000000000,
000000000000000,
000000000000000,
000000000000000,
000000000000000,
000000000000000,
000000000000000,
000000000000000,
010000000000000,
000000000000000,
000000000000000,
000000000000000,
000000000000000,
000000000000000,
010000000000000,
000000000000000,
010000000000000,
010000000000000,
010000000000000,
000000000000000,
000000000000000,
000000000000000,
000000000000000,
000000000000000,
000000000000000,
000000000000000,
000000000000000,
000000000000000,
000000000000000,
000000000000000,
000000000000000,
000000000000000,
000000000000000,
000000000000000,
000000000000000,
000000000000000,
000000000000000,
000000000000000,
000000000000000,
000000000000000,
000000000000000,
010000000000000,
000000000000000,
010000000000000,
000000000000000,
010000000000000,
000000000000000,
010000000000000,
000000000000000,
010000000000000,
010000000000000,
010000000000000,
000000000000000,
010000000000000,
010000000000000,
010000000000000,
010000000000000,
010000000000000,
010000000000000,
010000000000000,
010000000000000,
000000000000000,
000000000000000,
000000000000000,
010000000000000,
000000000000000,
000000000000000,
010000000000000,
000000000000000,
000000000000000,
000000000000000,
000000000000000,
000000000000000,
000000000000000,
000000000000000,
000000000000000,
000000000000000,
010000000000000,
010000000000000,
000000000000000,
000000000000000,
010000000000000,
010000000000000,
000000000000000,
000000000000000,
000000000000000,
000000000000000,
010000000000000,
010000000000000,
000000000000000,
000000000000000,
000000000000000,
000000000000000,
000000000000000,
000000000000000,
000000000000000,
000000000000000,
000000000000000,
000000000000000,
000000000000000,
010000000000000,
000000000000000,
000000000000000,
000000000000000,
000000000000000,
010000000000000,
010000000000000,
010000000000000,
000000000000000,
000000000000000,
000000000000000,
000000000000000,
000000000000000,
000000000000000,
000000000000000,
000000000000000,
000000000000000,
000000000000000,
000000000000000,
000000000000000,
000000000000000,
000000000000000,
010000000000000,
010000000000000,
010000000000000,
000000000000000,
000000000000000,
000000000000000,
000000000000000,
010000000000000,
000000000000000,
000000000000000,
000000000000000,
000000000000000,
000000000000000,
000000000000000,
000000000000000,
000000000000000,
000000000000000,
000000000000000,
000000000000000,
010000000000000,
010000000000000,
000000000000000,
000000000000000,
000000000000000,
000000000000000,
000000000000000,
000000000000000,
000000000000000,
000000000000000,
000000000000000,
000000000000000,
000000000000000,
000000000000000,
000000000000000,
000000000000000,
000000000000000,
000000000000000,
010000000000000,
010000000000000,
000000000000000,
000000000000000,
010000000000000,
000000000000000,
000000000000000,
000000000000000,
000000000000000,
000000000000000,
000000000000000,
000000000000000,
000000000000000,
000000000000000,
000000000000000,
000000000000000,
000000000000000,
010000000000000,
000000000000000,
000000000000000,
010000000000000,
000000000000000,
000000000000000,
000000000000000,
000000000000000,
000000000000000,
000000000000000,
000000000000000,
000000000000000,
000000000000000,
000000000000000,
000000000000000,
000000000000000,
000000000000000,
000000000000000,
000000000000000,
000000000000000,
000000000000000,
000000000000000,
000000000000000,
000000000000000,
010000000000000,
000000000000000,
000000000000000,
010000000000000,
000000000000000,
000000000000000,
000000000000000,
000000000000000,
000000000000000,
000000000000000,
000000000000000,
010000000000000,
000000000000000,
000000000000000,
000000000000000,
000000000000000,
000000000000000,
000000000000000,
000000000000000,
000000000000000,
010000000000000,
010000000000000,
010000000000000,
000000000000000,
010000000000000,
000000000000000,
000000000000000,
000000000000000,
000000000000000,
000000000000000,
000000000000000,
000000000000000,
000000000000000,
000000000000000,
010000000000000,
010000000000000,
010000000000000,
010000000000000,
000000000000000,
010000000000000,
010000000000000,
010000000000000,
010000000000000,
010000000000000,
000000000000000,
010000000000000,
000000000000000,
000000000000000,
010000000000000,
010000000000000,
000000000000000,
000000000000000,
010000000000000,
000000000000000,
010000000000000,
010000000000000,
010000000000000,
010000000000000,
000000000000000,
000000000000000,
000000000000000,
000000000000000,
010000000000000,
010000000000000,
000000000000000,
010000000000000,
000000000000000,
010000000000000,
000000000000000,
000000000000000,
000000000000000,
000000000000000,
010000000000000,
010000000000000,
000000000000000,
000000000000000,
000000000000000,
000000000000000,
000000000000000,
000000000000000,
000000000000000,
000000000000000,
010000000000000,
000000000000000,
000000000000000,
000000000000000,
000000000000000,
000000000000000,
000000000000000,
000000000000000,
000000000000000,
000000000000000,
000000000000000,
000000000000000,
010000000000000,
000000000000000,
000000000000000,
000000000000000,
000000000000000,
000000000000000,
010000000000000,
000000000000000,
000000000000000,
000000000000000,
000000000000000,
000000000000000,
000000000000000,
000000000000000,
010000000000000,
000000000000000,
000000000000000,
000000000000000,
000000000000000,
000000000000000,
000000000000000,
000000000000000,
000000000000000,
010000000000000,
010000000000000,
000000000000000,
000000000000000,
000000000000000,
000000000000000,
010000000000000,
000000000000000,
000000000000000,
000000000000000,
000000000000000,
010000000000000,
010000000000000,
000000000000000,
000000000000000,
000000000000000,
000000000000000,
000000000000000,
010000000000000,
000000000000000,
000000000000000,
000000000000000,
000000000000000,
000000000000000,
000000000000000,
000000000000000,
000000000000000,
000000000000000,
000000000000000,
000000000000000,
000000000000000,
010000000000000,
000000000000000,
000000000000000,
000000000000000,
000000000000000,
000000000000000,
000000000000000,
000000000000000,
000000000000000,
010000000000000,
000000000000000,
010000000000000,
000000000000000,
000000000000000,
010000000000000,
000000000000000,
010000000000000,
000000000000000,
000000000000000,
000000000000000,
000000000000000,
000000000000000,
000000000000000,
000000000000000,
000000000000000,
000000000000000,
000000000000000,
000000000000000,
000000000000000,
000000000000000,
000000000000000,
000000000000000,
000000000000000,
000000000000000,
000000000000000,
000000000000000,
000000000000000,
000000000000000,
000000000000000,
000000000000000,
000000000000000,
000000000000000,
000000000000000,
000000000000000,
000000000000000,
000000000000000,
000000000000000,
000000000000000,
000000000000000,
000000000000000,
000000000000000,
000000000000000,
010000000000000,
000000000000000,
000000000000000,
010000000000000,
010000000000000,
010000000000000,
000000000000000,
000000000000000,
000000000000000,
010000000000000,
010000000000000,
000000000000000,
010000000000000,
000000000000000,
000000000000000,
000000000000000,
000000000000000,
000000000000000,
000000000000000,
000000000000000,
010000000000000,
010000000000000,
000000000000000,
000000000000000,
000000000000000,
000000000000000,
000000000000000,
000000000000000,
000000000000000,
010000000000000,
000000000000000,
000000000000000,
010000000000000,
000000000000000,
000000000000000,
010000000000000,
010000000000000,
010000000000000,
000000000000000,
000000000000000,
000000000000000,
000000000000000,
000000000000000,
000000000000000,
000000000000000,
000000000000000,
000000000000000,
000000000000000,
000000000000000,
000000000000000,
000000000000000,
000000000000000,
000000000000000,
000000000000000,
010000000000000,
000000000000000,
000000000000000,
000000000000000,
000000000000000,
000000000000000,
000000000000000,
000000000000000,
000000000000000,
000000000000000,
000000000000000,
010000000000000,
000000000000000,
000000000000000,
000000000000000,
000000000000000,
000000000000000,
000000000000000,
010000000000000,
000000000000000,
000000000000000,
000000000000000,
000000000000000,
000000000000000,
010000000000000,
000000000000000,
000000000000000,
000000000000000,
000000000000000,
000000000000000,
000000000000000,
000000000000000,
000000000000000,
000000000000000,
000000000000000,
000000000000000,
000000000000000,
000000000000000,
000000000000000,
000000000000000,
000000000000000,
000000000000000,
000000000000000,
000000000000000,
000000000000000,
000000000000000,
000000000000000,
000000000000000,
000000000000000,
010000000000000,
000000000000000,
000000000000000,
000000000000000,
000000000000000,
000000000000000,
000000000000000,
000000000000000,
000000000000000,
000000000000000,
000000000000000,
000000000000000,
010000000000000,
010000000000000,
000000000000000,
010000000000000,
000000000000000,
010000000000000,
010000000000000,
000000000000000,
000000000000000,
000000000000000,
000000000000000,
000000000000000,
000000000000000,
000000000000000,
000000000000000,
000000000000000,
000000000000000,
000000000000000,
000000000000000,
000000000000000,
000000000000000,
000000000000000,
000000000000000,
010000000000000,
000000000000000,
000000000000000,
010000000000000,
000000000000000,
010000000000000,
000000000000000,
000000000000000,
000000000000000,
000000000000000,
000000000000000,
000000000000000,
000000000000000,
000000000000000,
010000000000000,
000000000000000,
000000000000000,
000000000000000,
000000000000000,
010000000000000,
000000000000000,
000000000000000,
000000000000000,
000000000000000,
010000000000000,
000000000000000,
000000000000000,
010000000000000,
000000000000000,
000000000000000,
010000000000000,
000000000000000,
000000000000000,
000000000000000,
010000000000000,
010000000000000,
000000000000000,
000000000000000,
000000000000000,
000000000000000,
000000000000000,
000000000000000,
000000000000000,
000000000000000,
010000000000000,
000000000000000,
000000000000000,
010000000000000,
000000000000000,
000000000000000,
000000000000000,
010000000000000,
010000000000000,
000000000000000,
010000000000000,
010000000000000,
000000000000000,
000000000000000,
000000000000000,
000000000000000,
000000000000000,
000000000000000,
000000000000000,
000000000000000,
000000000000000,
000000000000000,
000000000000000,
000000000000000,
000000000000000,
000000000000000,
000000000000000,
000000000000000,
000000000000000,
000000000000000,
000000000000000,
000000000000000,
010000000000000,
000000000000000,
000000000000000,
000000000000000,
000000000000000,
000000000000000,
000000000000000,
000000000000000,
000000000000000,
000000000000000,
000000000000000,
000000000000000,
010000000000000,
000000000000000,
000000000000000,
000000000000000,
000000000000000,
000000000000000,
010000000000000,
000000000000000,
000000000000000,
010000000000000,
010000000000000,
000000000000000,
000000000000000,
000000000000000,
000000000000000,
000000000000000,
000000000000000,
000000000000000,
010000000000000,
010000000000000,
000000000000000,
000000000000000,
000000000000000,
000000000000000,
000000000000000,
000000000000000,
010000000000000,
010000000000000,
000000000000000,
000000000000000,
000000000000000,
000000000000000,
000000000000000,
000000000000000,
000000000000000,
000000000000000,
000000000000000,
000000000000000,
000000000000000,
010000000000000,
010000000000000,
010000000000000,
000000000000000,
010000000000000,
000000000000000,
000000000000000,
000000000000000,
000000000000000,
000000000000000,
000000000000000,
000000000000000,
000000000000000,
000000000000000,
000000000000000,
000000000000000,
000000000000000,
000000000000000,
000000000000000,
000000000000000,
000000000000000,
000000000000000,
000000000000000,
000000000000000,
000000000000000,
000000000000000,
000000000000000,
010000000000000,
000000000000000,
000000000000000,
000000000000000,
000000000000000,
000000000000000,
010000000000000,
010000000000000,
000000000000000,
010000000000000,
010000000000000,
010000000000000,
000000000000000,
000000000000000,
000000000000000,
000000000000000,
010000000000000,
000000000000000,
010000000000000,
000000000000000,
000000000000000,
000000000000000,
000000000000000,
010000000000000,
000000000000000,
000000000000000,
000000000000000,
010000000000000,
000000000000000,
000000000000000,
000000000000000,
000000000000000,
000000000000000,
000000000000000,
000000000000000,
000000000000000,
000000000000000,
000000000000000,
010000000000000,
000000000000000,
000000000000000,
000000000000000,
000000000000000,
000000000000000,
000000000000000,
010000000000000,
000000000000000,
000000000000000,
000000000000000,
000000000000000,
000000000000000,
000000000000000,
010000000000000,
000000000000000,
000000000000000,
000000000000000,
000000000000000,
000000000000000,
000000000000000,
000000000000000,
000000000000000,
000000000000000,
000000000000000,
010000000000000,
010000000000000,
010000000000000,
000000000000000,
000000000000000,
000000000000000,
010000000000000,
000000000000000,
000000000000000,
000000000000000,
000000000000000,
000000000000000,
010000000000000,
000000000000000,
010000000000000,
000000000000000,
010000000000000,
010000000000000,
010000000000000,
000000000000000,
000000000000000,
000000000000000,
010000000000000,
000000000000000,
000000000000000,
000000000000000,
000000000000000,
000000000000000,
000000000000000,
000000000000000,
000000000000000,
000000000000000,
000000000000000,
010000000000000,
000000000000000,
000000000000000,
010000000000000,
010000000000000,
010000000000000,
010000000000000,
000000000000000,
000000000000000,
000000000000000,
010000000000000,
010000000000000,
000000000000000,
000000000000000,
000000000000000,
000000000000000,
000000000000000,
000000000000000,
000000000000000,
000000000000000,
000000000000000,
000000000000000,
000000000000000,
000000000000000,
000000000000000,
010000000000000,
000000000000000,
000000000000000,
000000000000000,
000000000000000,
000000000000000,
010000000000000,
000000000000000,
000000000000000,
010000000000000,
000000000000000,
010000000000000,
010000000000000,
010000000000000,
000000000000000,
010000000000000,
000000000000000,
000000000000000,
000000000000000,
000000000000000,
000000000000000,
000000000000000,
000000000000000,
010000000000000,
000000000000000,
000000000000000,
000000000000000,
000000000000000,
010000000000000,
010000000000000,
010000000000000,
010000000000000,
000000000000000,
000000000000000,
010000000000000,
010000000000000,
000000000000000,
000000000000000,
000000000000000,
000000000000000,
000000000000000,
010000000000000,
010000000000000,
010000000000000,
010000000000000,
010000000000000,
000000000000000,
000000000000000,
000000000000000,
000000000000000,
000000000000000,
000000000000000,
000000000000000,
000000000000000,
000000000000000,
000000000000000,
000000000000000,
000000000000000,
000000000000000,
000000000000000,
000000000000000,
000000000000000,
000000000000000,
000000000000000,
000000000000000,
000000000000000,
000000000000000,
000000000000000,
000000000000000,
000000000000000,
000000000000000,
000000000000000,
000000000000000,
000000000000000,
000000000000000,
000000000000000,
000000000000000,
000000000000000,
000000000000000,
000000000000000,
000000000000000,
010000000000000,
000000000000000,
000000000000000,
000000000000000,
010000000000000,
000000000000000,
000000000000000,
000000000000000,
000000000000000,
000000000000000,
000000000000000,
010000000000000,
000000000000000,
000000000000000,
000000000000000,
000000000000000,
000000000000000,
000000000000000,
000000000000000,
000000000000000,
000000000000000,
000000000000000,
010000000000000,
010000000000000,
010000000000000,
010000000000000,
000000000000000,
000000000000000,
010000000000000,
000000000000000,
000000000000000,
000000000000000,
010000000000000,
000000000000000,
000000000000000,
000000000000000,
000000000000000,
000000000000000,
000000000000000,
010000000000000,
000000000000000,
000000000000000,
000000000000000,
000000000000000,
010000000000000,
000000000000000,
000000000000000,
010000000000000,
000000000000000,
000000000000000,
010000000000000,
000000000000000,
000000000000000,
000000000000000,
000000000000000,
010000000000000,
000000000000000,
010000000000000,
000000000000000,
000000000000000,
000000000000000,
000000000000000,
010000000000000,
010000000000000,
010000000000000,
000000000000000,
000000000000000,
000000000000000,
000000000000000,
000000000000000,
000000000000000,
000000000000000,
000000000000000,
000000000000000,
000000000000000,
000000000000000,
000000000000000,
000000000000000,
000000000000000,
000000000000000,
000000000000000,
000000000000000,
000000000000000,
000000000000000,
000000000000000,
000000000000000,
000000000000000,
000000000000000,
010000000000000,
000000000000000,
000000000000000,
000000000000000,
000000000000000,
000000000000000,
000000000000000,
000000000000000,
010000000000000,
000000000000000,
000000000000000,
000000000000000,
000000000000000,
000000000000000,
000000000000000,
010000000000000,
000000000000000,
000000000000000,
000000000000000,
000000000000000,
000000000000000,
000000000000000,
010000000000000,
010000000000000,
000000000000000,
000000000000000,
000000000000000,
000000000000000,
000000000000000,
000000000000000,
000000000000000,
000000000000000,
000000000000000,
000000000000000,
010000000000000,
010000000000000,
000000000000000,
000000000000000,
000000000000000,
000000000000000,
000000000000000,
000000000000000,
000000000000000,
010000000000000,
000000000000000,
010000000000000,
000000000000000,
000000000000000,
010000000000000,
010000000000000,
000000000000000,
000000000000000,
000000000000000,
000000000000000,
000000000000000,
000000000000000,
000000000000000,
010000000000000,
000000000000000,
010000000000000,
010000000000000,
010000000000000,
010000000000000,
000000000000000,
000000000000000,
000000000000000,
000000000000000,
000000000000000,
000000000000000,
000000000000000,
000000000000000,
000000000000000,
000000000000000,
000000000000000,
000000000000000,
000000000000000,
000000000000000,
000000000000000,
000000000000000,
000000000000000,
000000000000000,
000000000000000,
000000000000000,
000000000000000,
000000000000000,
000000000000000,
000000000000000,
000000000000000,
010000000000000,
000000000000000,
010000000000000,
010000000000000,
010000000000000,
000000000000000,
000000000000000,
000000000000000,
000000000000000,
000000000000000,
000000000000000,
010000000000000,
000000000000000,
000000000000000,
000000000000000,
000000000000000,
000000000000000,
000000000000000,
000000000000000,
010000000000000,
010000000000000,
010000000000000,
000000000000000,
010000000000000,
000000000000000,
000000000000000,
000000000000000,
000000000000000,
010000000000000,
010000000000000,
000000000000000,
000000000000000,
010000000000000,
010000000000000,
000000000000000,
000000000000000,
010000000000000,
000000000000000,
010000000000000,
000000000000000,
000000000000000,
000000000000000,
000000000000000,
000000000000000,
000000000000000,
000000000000000,
000000000000000,
010000000000000,
000000000000000,
000000000000000,
010000000000000,
010000000000000,
000000000000000,
000000000000000,
000000000000000,
000000000000000,
010000000000000,
000000000000000,
000000000000000,
000000000000000,
010000000000000,
000000000000000,
000000000000000,
000000000000000,
010000000000000,
010000000000000,
000000000000000,
000000000000000,
010000000000000,
000000000000000,
000000000000000,
000000000000000,
000000000000000,
000000000000000,
000000000000000,
000000000000000,
000000000000000,
010000000000000,
000000000000000,
000000000000000,
000000000000000,
000000000000000,
000000000000000,
000000000000000,
000000000000000,
000000000000000,
000000000000000,
000000000000000,
000000000000000,
000000000000000,
000000000000000,
000000000000000,
000000000000000,
000000000000000,
010000000000000,
000000000000000,
000000000000000,
000000000000000,
000000000000000,
000000000000000,
000000000000000,
000000000000000,
000000000000000,
000000000000000,
000000000000000,
000000000000000,
000000000000000,
010000000000000,
000000000000000,
000000000000000,
010000000000000,
010000000000000,
000000000000000,
000000000000000,
000000000000000,
010000000000000,
000000000000000,
000000000000000,
010000000000000,
010000000000000,
010000000000000,
000000000000000,
000000000000000,
010000000000000,
000000000000000,
000000000000000,
000000000000000,
010000000000000,
000000000000000,
000000000000000,
010000000000000,
000000000000000,
000000000000000,
000000000000000,
000000000000000,
000000000000000,
000000000000000,
000000000000000,
010000000000000,
010000000000000,
000000000000000,
000000000000000,
010000000000000,
000000000000000,
000000000000000,
010000000000000,
000000000000000,
000000000000000,
000000000000000,
000000000000000,
000000000000000,
000000000000000,
000000000000000,
000000000000000,
000000000000000,
000000000000000,
000000000000000,
000000000000000,
000000000000000,
000000000000000,
000000000000000,
010000000000000,
000000000000000,
000000000000000,
000000000000000,
000000000000000,
000000000000000,
010000000000000,
000000000000000,
000000000000000,
000000000000000,
000000000000000,
010000000000000,
010000000000000,
010000000000000,
010000000000000,
000000000000000,
000000000000000,
010000000000000,
000000000000000,
000000000000000,
000000000000000,
000000000000000,
010000000000000,
000000000000000,
000000000000000,
000000000000000,
000000000000000,
000000000000000,
000000000000000,
000000000000000,
000000000000000,
010000000000000,
010000000000000,
000000000000000,
010000000000000,
000000000000000,
000000000000000,
000000000000000,
000000000000000,
000000000000000,
000000000000000,
000000000000000,
000000000000000,
000000000000000,
000000000000000,
000000000000000,
000000000000000,
000000000000000,
000000000000000,
000000000000000,
000000000000000,
000000000000000,
000000000000000,
000000000000000,
000000000000000,
000000000000000,
010000000000000,
010000000000000,
010000000000000,
000000000000000,
010000000000000,
010000000000000,
000000000000000,
010000000000000,
010000000000000,
010000000000000,
000000000000000,
000000000000000,
000000000000000,
000000000000000,
000000000000000,
000000000000000,
000000000000000,
000000000000000,
010000000000000,
000000000000000,
010000000000000,
000000000000000,
000000000000000,
000000000000000,
000000000000000,
000000000000000,
000000000000000,
000000000000000,
000000000000000,
000000000000000,
000000000000000,
000000000000000,
000000000000000,
010000000000000,
000000000000000,
000000000000000,
000000000000000,
000000000000000,
000000000000000,
000000000000000,
000000000000000,
000000000000000,
000000000000000,
000000000000000,
000000000000000,
010000000000000,
010000000000000,
010000000000000,
010000000000000,
010000000000000,
000000000000000,
000000000000000,
010000000000000,
000000000000000,
010000000000000,
010000000000000,
000000000000000,
010000000000000,
000000000000000,
000000000000000,
010000000000000,
000000000000000,
010000000000000,
010000000000000,
000000000000000,
000000000000000,
000000000000000,
000000000000000,
000000000000000,
000000000000000,
000000000000000,
000000000000000,
000000000000000,
010000000000000,
000000000000000,
000000000000000,
010000000000000,
010000000000000,
000000000000000,
000000000000000,
000000000000000,
010000000000000,
000000000000000,
000000000000000,
000000000000000,
000000000000000,
000000000000000,
000000000000000,
000000000000000,
000000000000000,
000000000000000,
010000000000000,
000000000000000,
000000000000000,
000000000000000,
000000000000000,
000000000000000,
000000000000000,
000000000000000,
000000000000000,
000000000000000,
000000000000000,
000000000000000,
000000000000000,
000000000000000,
000000000000000,
010000000000000,
010000000000000,
000000000000000,
000000000000000,
010000000000000,
010000000000000,
000000000000000,
010000000000000,
000000000000000,
000000000000000,
000000000000000,
000000000000000,
010000000000000,
000000000000000,
000000000000000,
010000000000000,
000000000000000,
000000000000000,
000000000000000,
000000000000000,
000000000000000,
000000000000000,
000000000000000,
000000000000000,
000000000000000,
000000000000000,
000000000000000,
000000000000000,
000000000000000,
010000000000000,
010000000000000,
000000000000000,
000000000000000,
010000000000000,
010000000000000,
000000000000000,
000000000000000,
000000000000000,
010000000000000,
000000000000000,
000000000000000,
000000000000000,
000000000000000,
000000000000000,
000000000000000,
000000000000000,
000000000000000,
000000000000000,
000000000000000,
000000000000000,
000000000000000,
000000000000000,
000000000000000,
000000000000000,
000000000000000,
000000000000000,
000000000000000,
000000000000000,
000000000000000,
000000000000000,
000000000000000,
000000000000000,
000000000000000,
000000000000000,
000000000000000,
010000000000000,
010000000000000,
000000000000000,
000000000000000,
000000000000000,
010000000000000,
000000000000000,
000000000000000,
000000000000000,
000000000000000,
000000000000000,
000000000000000,
010000000000000,
000000000000000,
000000000000000,
000000000000000,
000000000000000,
010000000000000,
000000000000000,
000000000000000,
000000000000000,
000000000000000,
010000000000000,
000000000000000,
000000000000000,
000000000000000,
000000000000000,
000000000000000,
000000000000000,
000000000000000,
000000000000000,
000000000000000,
000000000000000,
000000000000000,
000000000000000,
000000000000000,
000000000000000,
000000000000000,
000000000000000,
000000000000000,
000000000000000,
000000000000000,
000000000000000,
000000000000000,
000000000000000,
000000000000000,
000000000000000,
000000000000000,
000000000000000,
000000000000000,
000000000000000,
010000000000000,
000000000000000,
010000000000000,
000000000000000,
000000000000000,
000000000000000,
000000000000000,
000000000000000,
000000000000000,
000000000000000,
000000000000000,
000000000000000,
010000000000000,
010000000000000,
010000000000000,
000000000000000,
000000000000000,
010000000000000,
000000000000000,
010000000000000,
010000000000000,
010000000000000,
010000000000000,
000000000000000,
000000000000000,
000000000000000,
000000000000000,
000000000000000,
000000000000000,
010000000000000,
000000000000000,
000000000000000,
000000000000000,
000000000000000,
000000000000000,
000000000000000,
000000000000000,
010000000000000,
010000000000000,
000000000000000,
010000000000000,
010000000000000,
010000000000000,
010000000000000,
010000000000000,
000000000000000,
000000000000000,
000000000000000,
000000000000000,
000000000000000,
000000000000000,
000000000000000,
000000000000000,
000000000000000,
000000000000000,
000000000000000,
000000000000000,
000000000000000,
000000000000000,
010000000000000,
010000000000000,
000000000000000,
000000000000000,
000000000000000,
000000000000000,
000000000000000,
000000000000000,
000000000000000,
000000000000000,
010000000000000,
000000000000000,
000000000000000,
000000000000000,
000000000000000,
000000000000000,
010000000000000,
000000000000000,
000000000000000,
000000000000000,
000000000000000,
000000000000000,
010000000000000,
000000000000000,
000000000000000,
000000000000000,
000000000000000,
000000000000000,
000000000000000,
000000000000000,
010000000000000,
000000000000000,
000000000000000,
000000000000000,
000000000000000,
010000000000000,
000000000000000,
000000000000000,
000000000000000,
000000000000000,
000000000000000,
010000000000000,
010000000000000,
000000000000000,
000000000000000,
000000000000000,
000000000000000,
000000000000000,
000000000000000,
000000000000000,
010000000000000,
000000000000000,
000000000000000,
000000000000000,
000000000000000,
000000000000000,
000000000000000,
000000000000000,
000000000000000,
010000000000000,
010000000000000,
010000000000000,
010000000000000,
010000000000000,
010000000000000,
010000000000000,
010000000000000,
010000000000000,
000000000000000,
000000000000000,
000000000000000,
000000000000000,
000000000000000,
000000000000000,
000000000000000,
000000000000000,
000000000000000,
000000000000000,
010000000000000,
010000000000000,
000000000000000,
000000000000000,
010000000000000,
010000000000000,
000000000000000,
010000000000000,
000000000000000,
000000000000000,
000000000000000,
000000000000000,
000000000000000,
000000000000000,
000000000000000,
000000000000000,
000000000000000,
000000000000000,
010000000000000,
000000000000000,
000000000000000,
000000000000000,
000000000000000,
000000000000000,
000000000000000,
000000000000000,
000000000000000,
000000000000000,
000000000000000,
000000000000000,
000000000000000,
000000000000000,
000000000000000,
000000000000000,
000000000000000,
000000000000000,
000000000000000,
000000000000000,
000000000000000,
000000000000000,
000000000000000,
000000000000000,
000000000000000,
000000000000000,
000000000000000,
000000000000000,
000000000000000,
000000000000000,
000000000000000,
000000000000000,
000000000000000,
000000000000000,
000000000000000,
000000000000000,
000000000000000,
000000000000000,
000000000000000,
000000000000000,
000000000000000,
000000000000000,
000000000000000,
000000000000000,
000000000000000,
000000000000000,
000000000000000,
000000000000000,
000000000000000,
000000000000000,
000000000000000,
000000000000000,
000000000000000,
000000000000000,
000000000000000,
000000000000000,
000000000000000,
000000000000000,
000000000000000,
000000000000000,
000000000000000,
000000000000000,
000000000000000,
000000000000000,
000000000000000,
000000000000000,
000000000000000,
000000000000000,
000000000000000,
000000000000000,
000000000000000,
000000000000000,
000000000000000,
000000000000000,
000000000000000,
000000000000000,
000000000000000,
000000000000000,
000000000000000,
000000000000000,
000000000000000,
000000000000000,
000000000000000,
000000000000000,
000000000000000,
000000000000000,
000000000000000,
000000000000000,
000000000000000,
000000000000000,
000000000000000,
000000000000000,
000000000000000,
000000000000000,
000000000000000,
000000000000000,
000000000000000,
000000000000000,
000000000000000,
000000000000000,
000000000000000,
000000000000000,
000000000000000,
000000000000000,
000000000000000,
000000000000000,
000000000000000,
000000000000000,
000000000000000,
000000000000000,
000000000000000,
000000000000000,
000000000000000,
000000000000000,
000000000000000,
000000000000000,
000000000000000,
000000000000000,
000000000000000,
000000000000000,
000000000000000,
000000000000000,
000000000000000,
000000000000000,
000000000000000,
000000000000000,
000000000000000,
000000000000000,
000000000000000,
000000000000000,
000000000000000,
000000000000000,
000000000000000,
000000000000000,
000000000000000,
000000000000000,
000000000000000,
000000000000000,
000000000000000,
000000000000000,
000000000000000,
000000000000000,
000000000000000,
000000000000000,
000000000000000,
000000000000000,
000000000000000,
000000000000000,
000000000000000,
000000000000000,
000000000000000,
000000000000000,
000000000000000,
000000000000000,
000000000000000,
000000000000000,
000000000000000,
000000000000000,
000000000000000,
000000000000000,
000000000000000,
000000000000000,
000000000000000,
000000000000000,
000000000000000,
000000000000000,
000000000000000,
000000000000000,
000000000000000,
000000000000000,
000000000000000,
000000000000000,
000000000000000,
000000000000000,
000000000000000,
000000000000000,
000000000000000,
000000000000000,
000000000000000,
000000000000000,
000000000000000,
000000000000000,
000000000000000,
000000000000000,
000000000000000,
000000000000000,
000000000000000,
000000000000000,
000000000000000,
000000000000000,
000000000000000,
000000000000000,
000000000000000,
000000000000000,
000000000000000,
000000000000000,
000000000000000,
000000000000000,
000000000000000,
000000000000000,
000000000000000,
000000000000000,
000000000000000,
000000000000000,
000000000000000,
000000000000000,
000000000000000,
000000000000000,
000000000000000,
000000000000000,
000000000000000,
000000000000000,
000000000000000,
000000000000000,
000000000000000,
000000000000000,
000000000000000,
000000000000000,
000000000000000,
000000000000000,
000000000000000,
000000000000000,
000000000000000,
000000000000000,
000000000000000,
000000000000000,
000000000000000,
000000000000000,
000000000000000,
000000000000000,
000000000000000,
000000000000000,
000000000000000,
000000000000000,
000000000000000,
000000000000000,
000000000000000,
000000000000000,
000000000000000,
000000000000000,
000000000000000,
000000000000000,
000000000000000,
000000000000000,
000000000000000,
000000000000000,
000000000000000,
000000000000000,
000000000000000,
000000000000000,
000000000000000,
000000000000000,
000000000000000,
000000000000000,
000000000000000,
000000000000000,
000000000000000,
000000000000000,
000000000000000,
000000000000000,
000000000000000,
000000000000000,
000000000000000,
000000000000000,
000000000000000,
000000000000000,
000000000000000,
000000000000000,
000000000000000,
000000000000000,
000000000000000,
000000000000000,
000000000000000,
000000000000000,
000000000000000,
000000000000000,
000000000000000,
000000000000000,
000000000000000,
000000000000000,
000000000000000,
000000000000000,
000000000000000,
000000000000000,
000000000000000,
000000000000000,
000000000000000,
000000000000000,
000000000000000,
000000000000000,
000000000000000,
000000000000000,
000000000000000,
000000000000000,
000000000000000,
000000000000000,
000000000000000,
000000000000000,
000000000000000,
000000000000000,
000000000000000,
000000000000000,
000000000000000,
000000000000000,
000000000000000,
000000000000000,
000000000000000,
000000000000000,
000000000000000,
000000000000000,
000000000000000,
000000000000000,
000000000000000,
000000000000000,
000000000000000,
000000000000000,
000000000000000,
000000000000000,
000000000000000,
000000000000000,
000000000000000,
000000000000000,
000000000000000,
000000000000000,
000000000000000,
000000000000000,
000000000000000,
000000000000000,
000000000000000,
000000000000000,
000000000000000,
000000000000000,
000000000000000,
000000000000000,
000000000000000,
000000000000000,
000000000000000,
000000000000000,
000000000000000,
000000000000000,
000000000000000,
000000000000000,
000000000000000,
000000000000000,
000000000000000,
000000000000000,
000000000000000,
000000000000000,
000000000000000,
000000000000000,
000000000000000,
000000000000000,
000000000000000,
000000000000000,
000000000000000,
000000000000000,
000000000000000,
000000000000000,
000000000000000,
000000000000000,
000000000000000,
000000000000000,
000000000000000,
000000000000000,
000000000000000,
000000000000000,
000000000000000,
000000000000000,
000000000000000,
000000000000000,
000000000000000,
000000000000000,
000000000000000,
000000000000000,
000000000000000,
000000000000000,
000000000000000,
000000000000000,
000000000000000,
000000000000000,
000000000000000,
000000000000000,
000000000000000,
000000000000000,
000000000000000,
000000000000000,
000000000000000,
000000000000000,
000000000000000,
000000000000000,
000000000000000,
000000000000000,
000000000000000,
000000000000000,
000000000000000,
000000000000000,
000000000000000,
000000000000000,
000000000000000,
000000000000000,
000000000000000,
000000000000000,
000000000000000,
000000000000000,
000000000000000,
000000000000000,
000000000000000,
000000000000000,
000000000000000,
000000000000000,
000000000000000,
000000000000000,
000000000000000,
000000000000000,
000000000000000,
000000000000000,
000000000000000,
000000000000000,
000000000000000,
000000000000000,
000000000000000,
000000000000000,
000000000000000,
000000000000000,
000000000000000,
000000000000000,
000000000000000,
000000000000000,
000000000000000,
000000000000000,
000000000000000,
000000000000000,
000000000000000,
000000000000000,
000000000000000,
000000000000000,
000000000000000,
000000000000000,
000000000000000,
000000000000000,
000000000000000,
000000000000000,
000000000000000,
000000000000000,
000000000000000,
000000000000000,
000000000000000,
000000000000000,
000000000000000,
000000000000000,
000000000000000,
000000000000000,
000000000000000,
000000000000000,
000000000000000,
000000000000000,
000000000000000,
000000000000000,
000000000000000,
000000000000000,
000000000000000,
000000000000000,
000000000000000,
000000000000000,
000000000000000,
000000000000000,
000000000000000,
000000000000000,
000000000000000,
000000000000000,
000000000000000,
000000000000000,
000000000000000,
000000000000000,
000000000000000,
000000000000000,
000000000000000,
000000000000000,
000000000000000,
000000000000000,
000000000000000,
000000000000000,
000000000000000,
000000000000000,
000000000000000,
000000000000000,
000000000000000,
000000000000000,
000000000000000,
000000000000000,
000000000000000,
000000000000000,
000000000000000,
000000000000000,
000000000000000,
000000000000000,
000000000000000,
000000000000000,
000000000000000,
000000000000000,
000000000000000,
000000000000000,
000000000000000,
000000000000000,
000000000000000,
000000000000000,
000000000000000,
000000000000000,
000000000000000,
000000000000000,
000000000000000,
000000000000000,
000000000000000,
000000000000000,
000000000000000,
000000000000000,
000000000000000,
000000000000000,
000000000000000,
000000000000000,
000000000000000,
000000000000000,
000000000000000,
000000000000000,
000000000000000,
000000000000000,
000000000000000,
000000000000000,
000000000000000,
000000000000000,
000000000000000,
000000000000000,
000000000000000,
000000000000000,
000000000000000,
000000000000000,
000000000000000,
000000000000000,
000000000000000,
000000000000000,
000000000000000,
000000000000000,
000000000000000,
000000000000000,
000000000000000,
000000000000000,
000000000000000,
000000000000000,
000000000000000,
000000000000000,
000000000000000,
000000000000000,
000000000000000,
000000000000000,
000000000000000,
000000000000000,
000000000000000,
000000000000000,
000000000000000,
000000000000000,
000000000000000,
000000000000000,
000000000000000,
000000000000000,
000000000000000,
000000000000000,
000000000000000,
000000000000000,
000000000000000,
000000000000000,
000000000000000,
000000000000000,
000000000000000,
000000000000000,
000000000000000,
000000000000000,
000000000000000,
000000000000000,
000000000000000,
000000000000000,
000000000000000,
000000000000000,
000000000000000,
000000000000000,
000000000000000,
000000000000000,
000000000000000,
000000000000000,
000000000000000,
000000000000000,
000000000000000,
000000000000000,
000000000000000,
000000000000000,
000000000000000,
000000000000000,
000000000000000,
000000000000000,
000000000000000,
000000000000000,
000000000000000,
000000000000000,
000000000000000,
000000000000000,
000000000000000,
000000000000000,
000000000000000,
000000000000000,
000000000000000,
000000000000000,
000000000000000,
000000000000000,
000000000000000,
000000000000000,
000000000000000,
000000000000000,
000000000000000,
000000000000000,
000000000000000,
000000000000000,
000000000000000,
000000000000000,
000000000000000,
000000000000000,
000000000000000,
000000000000000,
000000000000000,
000000000000000,
000000000000000,
000000000000000,
000000000000000,
000000000000000,
000000000000000,
000000000000000,
000000000000000,
000000000000000,
000000000000000,
000000000000000,
000000000000000,
000000000000000,
000000000000000,
000000000000000,
000000000000000,
000000000000000,
000000000000000,
000000000000000,
000000000000000,
000000000000000,
000000000000000,
000000000000000,
000000000000000,
000000000000000,
000000000000000,
000000000000000,
000000000000000,
000000000000000,
000000000000000,
000000000000000,
000000000000000,
000000000000000,
000000000000000,
000000000000000,
000000000000000,
000000000000000,
000000000000000,
000000000000000,
000000000000000,
000000000000000,
000000000000000,
000000000000000,
000000000000000,
000000000000000,
000000000000000,
000000000000000,
000000000000000,
000000000000000,
000000000000000,
000000000000000,
000000000000000,
000000000000000,
000000000000000,
000000000000000,
000000000000000,
000000000000000,
000000000000000,
000000000000000,
000000000000000,
000000000000000,
000000000000000,
000000000000000,
000000000000000,
000000000000000,
000000000000000,
000000000000000,
000000000000000,
000000000000000,
000000000000000,
000000000000000,
000000000000000,
000000000000000,
000000000000000,
000000000000000,
000000000000000,
000000000000000,
000000000000000,
000000000000000,
000000000000000,
000000000000000,
000000000000000,
000000000000000,
000000000000000,
000000000000000,
000000000000000,
000000000000000,
000000000000000,
000000000000000,
000000000000000,
000000000000000,
000000000000000,
000000000000000,
000000000000000,
000000000000000,
000000000000000,
000000000000000,
000000000000000,
000000000000000,
000000000000000,
000000000000000,
000000000000000,
000000000000000,
000000000000000,
000000000000000,
000000000000000,
000000000000000,
000000000000000,
000000000000000,
000000000000000,
000000000000000,
000000000000000,
000000000000000,
000000000000000,
000000000000000,
000000000000000,
000000000000000,
000000000000000,
000000000000000,
000000000000000,
000000000000000,
000000000000000,
000000000000000,
000000000000000,
000000000000000,
000000000000000,
000000000000000,
000000000000000,
000000000000000,
000000000000000,
000000000000000,
000000000000000,
000000000000000,
000000000000000,
000000000000000,
000000000000000,
000000000000000,
000000000000000,
000000000000000,
000000000000000,
000000000000000,
000000000000000,
000000000000000,
000000000000000,
000000000000000,
000000000000000,
000000000000000,
000000000000000,
000000000000000,
000000000000000,
000000000000000,
000000000000000,
000000000000000,
000000000000000,
000000000000000,
000000000000000,
000000000000000,
000000000000000,
000000000000000,
000000000000000,
000000000000000,
000000000000000,
000000000000000,
000000000000000,
000000000000000,
000000000000000,
000000000000000,
000000000000000,
000000000000000,
000000000000000,
000000000000000,
000000000000000,
000000000000000,
000000000000000,
000000000000000,
000000000000000,
000000000000000,
000000000000000,
000000000000000,
000000000000000,
000000000000000,
000000000000000,
000000000000000,
000000000000000,
000000000000000,
000000000000000,
000000000000000,
000000000000000,
000000000000000,
000000000000000,
000000000000000,
000000000000000,
000000000000000,
000000000000000,
000000000000000,
000000000000000,
000000000000000,
000000000000000,
000000000000000,
000000000000000,
000000000000000,
000000000000000,
000000000000000,
000000000000000,
000000000000000,
000000000000000,
000000000000000,
000000000000000,
000000000000000,
000000000000000,
000000000000000,
000000000000000,
000000000000000,
000000000000000,
000000000000000,
000000000000000,
000000000000000,
000000000000000,
000000000000000,
000000000000000,
000000000000000,
000000000000000,
000000000000000,
000000000000000,
000000000000000,
000000000000000,
000000000000000,
000000000000000,
000000000000000,
000000000000000,
000000000000000,
000000000000000,
000000000000000,
000000000000000,
000000000000000,
000000000000000,
000000000000000,
000000000000000,
000000000000000,
000000000000000,
000000000000000,
000000000000000,
000000000000000,
000000000000000,
000000000000000,
000000000000000,
000000000000000,
000000000000000,
000000000000000,
000000000000000,
000000000000000,
000000000000000,
000000000000000,
000000000000000,
000000000000000,
000000000000000,
000000000000000,
000000000000000,
000000000000000,
000000000000000,
000000000000000,
000000000000000,
000000000000000,
000000000000000,
000000000000000,
000000000000000,
000000000000000,
000000000000000,
000000000000000,
000000000000000,
000000000000000,
000000000000000,
000000000000000,
000000000000000,
000000000000000,
000000000000000,
000000000000000,
000000000000000,
000000000000000,
000000000000000,
000000000000000,
000000000000000,
000000000000000,
000000000000000,
000000000000000,
000000000000000,
000000000000000,
000000000000000,
000000000000000,
000000000000000,
000000000000000,
000000000000000,
000000000000000,
000000000000000,
000000000000000,
000000000000000,
000000000000000,
000000000000000,
000000000000000,
000000000000000,
000000000000000,
000000000000000,
000000000000000,
000000000000000,
000000000000000,
000000000000000,
000000000000000,
000000000000000,
000000000000000,
000000000000000,
000000000000000,
000000000000000,
000000000000000,
000000000000000,
000000000000000,
000000000000000,
000000000000000,
000000000000000,
000000000000000,
000000000000000,
000000000000000,
000000000000000,
000000000000000,
000000000000000,
000000000000000,
000000000000000,
000000000000000,
000000000000000,
000000000000000,
000000000000000,
000000000000000,
000000000000000,
000000000000000,
000000000000000,
000000000000000,
000000000000000,
000000000000000,
000000000000000,
000000000000000,
000000000000000,
000000000000000,
000000000000000,
000000000000000,
000000000000000,
000000000000000,
000000000000000,
000000000000000,
000000000000000,
000000000000000,
000000000000000,
000000000000000,
000000000000000,
000000000000000,
000000000000000,
000000000000000,
000000000000000,
000000000000000,
000000000000000,
000000000000000,
000000000000000,
000000000000000,
000000000000000,
000000000000000,
000000000000000,
000000000000000,
000000000000000,
000000000000000,
000000000000000,
000000000000000,
000000000000000,
000000000000000,
000000000000000,
000000000000000,
000000000000000,
000000000000000,
000000000000000,
000000000000000,
000000000000000,
000000000000000,
000000000000000,
000000000000000,
000000000000000,
000000000000000,
000000000000000,
000000000000000,
000000000000000,
000000000000000,
000000000000000,
000000000000000,
000000000000000,
000000000000000,
000000000000000,
000000000000000,
000000000000000,
000000000000000,
000000000000000,
000000000000000,
000000000000000,
000000000000000,
000000000000000,
000000000000000,
000000000000000,
000000000000000,
000000000000000,
000000000000000,
000000000000000,
000000000000000,
000000000000000,
000000000000000,
000000000000000,
000000000000000,
000000000000000,
000000000000000,
000000000000000,
000000000000000,
000000000000000,
000000000000000,
000000000000000,
000000000000000,
000000000000000,
000000000000000,
000000000000000,
000000000000000,
000000000000000,
000000000000000,
000000000000000,
000000000000000,
000000000000000,
000000000000000,
000000000000000,
000000000000000,
000000000000000,
000000000000000,
000000000000000,
000000000000000,
000000000000000,
000000000000000,
000000000000000,
000000000000000,
000000000000000,
000000000000000,
000000000000000,
000000000000000,
000000000000000,
000000000000000,
000000000000000,
000000000000000,
000000000000000,
000000000000000,
000000000000000,
000000000000000,
000000000000000,
000000000000000,
000000000000000,
000000000000000,
000000000000000,
000000000000000,
000000000000000,
000000000000000,
000000000000000,
000000000000000,
000000000000000,
000000000000000,
000000000000000,
000000000000000,
000000000000000,
000000000000000,
000000000000000,
000000000000000,
000000000000000,
000000000000000,
000000000000000,
000000000000000,
000000000000000,
000000000000000,
000000000000000,
000000000000000,
000000000000000,
000000000000000,
000000000000000,
000000000000000,
000000000000000,
000000000000000,
000000000000000,
000000000000000,
000000000000000,
000000000000000,
000000000000000,
000000000000000,
000000000000000,
000000000000000,
000000000000000,
000000000000000,
000000000000000,
000000000000000,
000000000000000,
000000000000000,
000000000000000,
000000000000000,
000000000000000,
000000000000000,
000000000000000,
000000000000000,
000000000000000,
000000000000000,
000000000000000,
000000000000000,
000000000000000,
000000000000000,
000000000000000,
000000000000000,
000000000000000,
000000000000000,
000000000000000,
000000000000000,
000000000000000,
000000000000000,
000000000000000,
000000000000000,
000000000000000,
000000000000000,
000000000000000,
000000000000000,
000000000000000,
000000000000000,
000000000000000,
000000000000000,
000000000000000,
000000000000000,
000000000000000,
000000000000000,
000000000000000,
000000000000000,
000000000000000,
000000000000000,
000000000000000,
000000000000000,
000000000000000,
000000000000000,
000000000000000,
000000000000000,
000000000000000,
000000000000000,
000000000000000,
000000000000000,
000000000000000,
000000000000000,
000000000000000,
000000000000000,
000000000000000,
000000000000000,
000000000000000,
000000000000000,
000000000000000,
000000000000000,
000000000000000,
000000000000000;