 MEMORY_INITIALIZATION_RADIX=2;
 MEMORY_INITIALIZATION_VECTOR=  
 011000000000000,
 011000000000000,
 011000000000000,
 011000000000000,
 010000000000000,
 010000000000000,
 010000000000000,
 010000000000000,
 010000000000000,
 011000000000000,
 011000000000000,
 011000000000000,
 011000000000000,
 011000000000000,
 010000000000000,
 011000000000000,
 011000000000000,
 011000000000000,
 011000000000000,
 010000000000000,
 011000000000000,
 011000000000000,
 011000000000000,
 011000000000000,
 010000000000000,
 011000000000000,
 010000000000000,
 010000000000000,
 011000000000000,
 010000000000000,
 011000000000000,
 011000000000000,
 010000000000000,
 010000000000000,
 011000000000000,
 010000000000000,
 011000000000000,
 010000000000000,
 010000000000000,
 011000000000000,
 010000000000000,
 010000000000000,
 011000000000000,
 011000000000000,
 010000000000000,
 011000000000000,
 010000000000000,
 010000000000000,
 010000000000000,
 010000000000000,
 010000000000000,
 011000000000000,
 011000000000000,
 011000000000000,
 011000000000000,
 011000000000000,
 010000000000000,
 010000000000000,
 010000000000000,
 011000000000000,
 011000000000000,
 010000000000000,
 010000000000000,
 011000000000000,
 010000000000000,
 011000000000000,
 011000000000000,
 010000000000000,
 010000000000000,
 010000000000000,
 010000000000000,
 011000000000000,
 011000000000000,
 011000000000000,
 011000000000000,
 010000000000000,
 010000000000000,
 011000000000000,
 011000000000000,
 011000000000000,
 011000000000000,
 011000000000000,
 011000000000000,
 011000000000000,
 011000000000000,
 011000000000000,
 011000000000000,
 010000000000000,
 011000000000000,
 010000000000000,
 011000000000000,
 010000000000000,
 010000000000000,
 010000000000000,
 010000000000000,
 010000000000000,
 010000000000000,
 011000000000000,
 010000000000000,
 010000000000000,
 011000000000000,
 011000000000000,
 010000000000000,
 010000000000000,
 010000000000000,
 010000000000000,
 010000000000000,
 011000000000000,
 010000000000000,
 010000000000000,
 010000000000000,
 011000000000000,
 011000000000000,
 011000000000000,
 011000000000000,
 011000000000000,
 010000000000000,
 010000000000000,
 010000000000000,
 010000000000000,
 010000000000000,
 010000000000000,
 010000000000000,
 011000000000000,
 010000000000000,
 010000000000000,
 010000000000000,
 011000000000000,
 010000000000000,
 010000000000000,
 010000000000000,
 010000000000000,
 011000000000000,
 011000000000000,
 011000000000000,
 011000000000000,
 011000000000000,
 010000000000000,
 011000000000000,
 010000000000000,
 011000000000000,
 011000000000000,
 011000000000000,
 010000000000000,
 010000000000000,
 010000000000000,
 010000000000000,
 010000000000000,
 011000000000000,
 011000000000000,
 011000000000000,
 010000000000000,
 010000000000000,
 011000000000000,
 011000000000000,
 010000000000000,
 010000000000000,
 011000000000000,
 010000000000000,
 010000000000000,
 010000000000000,
 011000000000000,
 010000000000000,
 011000000000000,
 010000000000000,
 011000000000000,
 011000000000000,
 011000000000000,
 011000000000000,
 011000000000000,
 011000000000000,
 011000000000000,
 010000000000000,
 010000000000000,
 010000000000000,
 011000000000000,
 010000000000000,
 010000000000000,
 010000000000000,
 010000000000000,
 010000000000000,
 010000000000000,
 010000000000000,
 011000000000000,
 011000000000000,
 010000000000000,
 011000000000000,
 010000000000000,
 011000000000000,
 010000000000000,
 010000000000000,
 010000000000000,
 010000000000000,
 011000000000000,
 011000000000000,
 010000000000000,
 010000000000000,
 011000000000000,
 010000000000000,
 010000000000000,
 011000000000000,
 011000000000000,
 010000000000000,
 010000000000000,
 011000000000000,
 011000000000000,
 010000000000000,
 010000000000000,
 011000000000000,
 011000000000000,
 010000000000000,
 010000000000000,
 011000000000000,
 011000000000000,
 011000000000000,
 010000000000000,
 011000000000000,
 010000000000000,
 010000000000000,
 010000000000000,
 011000000000000,
 011000000000000,
 011000000000000,
 010000000000000,
 010000000000000,
 011000000000000,
 011000000000000,
 010000000000000,
 011000000000000,
 011000000000000,
 010000000000000,
 011000000000000,
 011000000000000,
 011000000000000,
 010000000000000,
 010000000000000,
 010000000000000,
 010000000000000,
 011000000000000,
 011000000000000,
 010000000000000,
 010000000000000,
 010000000000000,
 011000000000000,
 011000000000000,
 010000000000000,
 010000000000000,
 010000000000000,
 010000000000000,
 010000000000000,
 011000000000000,
 011000000000000,
 011000000000000,
 011000000000000,
 010000000000000,
 010000000000000,
 011000000000000,
 010000000000000,
 011000000000000,
 011000000000000,
 011000000000000,
 010000000000000,
 010000000000000,
 010000000000000,
 010000000000000,
 011000000000000,
 010000000000000,
 011000000000000,
 010000000000000,
 010000000000000,
 011000000000000,
 011000000000000,
 010000000000000,
 011000000000000,
 011000000000000,
 011000000000000,
 010000000000000,
 011000000000000,
 010000000000000,
 010000000000000,
 010000000000000,
 010000000000000,
 011000000000000,
 011000000000000,
 011000000000000,
 011000000000000,
 010000000000000,
 010000000000000,
 010000000000000,
 011000000000000,
 011000000000000,
 010000000000000,
 010000000000000,
 010000000000000,
 011000000000000,
 010000000000000,
 011000000000000,
 011000000000000,
 010000000000000,
 011000000000000,
 011000000000000,
 011000000000000,
 011000000000000,
 011000000000000,
 010000000000000,
 010000000000000,
 010000000000000,
 010000000000000,
 010000000000000,
 011000000000000,
 011000000000000,
 011000000000000,
 011000000000000,
 011000000000000,
 011000000000000,
 011000000000000,
 010000000000000,
 010000000000000,
 010000000000000,
 010000000000000,
 010000000000000,
 011000000000000,
 011000000000000,
 011000000000000,
 011000000000000,
 011000000000000,
 011000000000000,
 010000000000000,
 010000000000000,
 010000000000000,
 011000000000000,
 010000000000000,
 011000000000000,
 011000000000000,
 010000000000000,
 011000000000000,
 010000000000000,
 010000000000000,
 011000000000000,
 011000000000000,
 011000000000000,
 011000000000000,
 010000000000000,
 011000000000000,
 011000000000000,
 011000000000000,
 011000000000000,
 011000000000000,
 011000000000000,
 010000000000000,
 011000000000000,
 010000000000000,
 011000000000000,
 010000000000000,
 010000000000000,
 010000000000000,
 011000000000000,
 011000000000000,
 011000000000000,
 010000000000000,
 010000000000000,
 010000000000000,
 010000000000000,
 010000000000000,
 011000000000000,
 011000000000000,
 010000000000000,
 010000000000000,
 011000000000000,
 011000000000000,
 011000000000000,
 011000000000000,
 011000000000000,
 010000000000000,
 010000000000000,
 010000000000000,
 011000000000000,
 010000000000000,
 010000000000000,
 010000000000000,
 011000000000000,
 011000000000000,
 011000000000000,
 011000000000000,
 010000000000000,
 011000000000000,
 011000000000000,
 011000000000000,
 011000000000000,
 011000000000000,
 011000000000000,
 011000000000000,
 010000000000000,
 011000000000000,
 011000000000000,
 011000000000000,
 011000000000000,
 011000000000000,
 010000000000000,
 011000000000000,
 011000000000000,
 011000000000000,
 011000000000000,
 010000000000000,
 010000000000000,
 011000000000000,
 011000000000000,
 011000000000000,
 011000000000000,
 011000000000000,
 010000000000000,
 011000000000000,
 010000000000000,
 010000000000000,
 010000000000000,
 010000000000000,
 010000000000000,
 011000000000000,
 011000000000000,
 011000000000000,
 011000000000000,
 010000000000000,
 010000000000000,
 011000000000000,
 011000000000000,
 011000000000000,
 010000000000000,
 011000000000000,
 011000000000000,
 011000000000000,
 011000000000000,
 010000000000000,
 010000000000000,
 011000000000000,
 011000000000000,
 010000000000000,
 010000000000000,
 011000000000000,
 010000000000000,
 011000000000000,
 011000000000000,
 011000000000000,
 011000000000000,
 010000000000000,
 010000000000000,
 010000000000000,
 010000000000000,
 011000000000000,
 010000000000000,
 011000000000000,
 011000000000000,
 010000000000000,
 010000000000000,
 010000000000000,
 010000000000000,
 010000000000000,
 010000000000000,
 010000000000000,
 011000000000000,
 010000000000000,
 010000000000000,
 010000000000000,
 011000000000000,
 010000000000000,
 010000000000000,
 011000000000000,
 010000000000000,
 011000000000000,
 011000000000000,
 011000000000000,
 010000000000000,
 011000000000000,
 011000000000000,
 010000000000000,
 010000000000000,
 011000000000000,
 011000000000000,
 011000000000000,
 010000000000000,
 011000000000000,
 011000000000000,
 010000000000000,
 010000000000000,
 011000000000000,
 011000000000000,
 011000000000000,
 011000000000000,
 010000000000000,
 010000000000000,
 010000000000000,
 010000000000000,
 011000000000000,
 011000000000000,
 011000000000000,
 011000000000000,
 010000000000000,
 010000000000000,
 011000000000000,
 011000000000000,
 011000000000000,
 011000000000000,
 011000000000000,
 011000000000000,
 011000000000000,
 011000000000000,
 010000000000000,
 011000000000000,
 011000000000000,
 011000000000000,
 010000000000000,
 011000000000000,
 011000000000000,
 011000000000000,
 011000000000000,
 011000000000000,
 011000000000000,
 011000000000000,
 010000000000000,
 011000000000000,
 011000000000000,
 010000000000000,
 010000000000000,
 010000000000000,
 010000000000000,
 010000000000000,
 010000000000000,
 011000000000000,
 011000000000000,
 011000000000000,
 010000000000000,
 011000000000000,
 010000000000000,
 011000000000000,
 011000000000000,
 011000000000000,
 011000000000000,
 011000000000000,
 010000000000000,
 010000000000000,
 010000000000000,
 010000000000000,
 011000000000000,
 010000000000000,
 010000000000000,
 011000000000000,
 011000000000000,
 010000000000000,
 011000000000000,
 010000000000000,
 010000000000000,
 010000000000000,
 011000000000000,
 010000000000000,
 010000000000000,
 010000000000000,
 011000000000000,
 011000000000000,
 011000000000000,
 011000000000000,
 010000000000000,
 011000000000000,
 011000000000000,
 011000000000000,
 011000000000000,
 010000000000000,
 010000000000000,
 010000000000000,
 010000000000000,
 011000000000000,
 011000000000000,
 011000000000000,
 011000000000000,
 010000000000000,
 011000000000000,
 010000000000000,
 010000000000000,
 011000000000000,
 011000000000000,
 011000000000000,
 011000000000000,
 011000000000000,
 011000000000000,
 011000000000000,
 011000000000000,
 010000000000000,
 011000000000000,
 011000000000000,
 010000000000000,
 010000000000000,
 011000000000000,
 011000000000000,
 010000000000000,
 010000000000000,
 011000000000000,
 010000000000000,
 010000000000000,
 011000000000000,
 011000000000000,
 010000000000000,
 011000000000000,
 010000000000000,
 010000000000000,
 010000000000000,
 010000000000000,
 011000000000000,
 011000000000000,
 010000000000000,
 010000000000000,
 011000000000000,
 010000000000000,
 011000000000000,
 010000000000000,
 010000000000000,
 011000000000000,
 010000000000000,
 011000000000000,
 011000000000000,
 011000000000000,
 011000000000000,
 011000000000000,
 010000000000000,
 011000000000000,
 010000000000000,
 010000000000000,
 010000000000000,
 010000000000000,
 010000000000000,
 010000000000000,
 011000000000000,
 010000000000000,
 010000000000000,
 010000000000000,
 011000000000000,
 010000000000000,
 011000000000000,
 011000000000000,
 011000000000000,
 010000000000000,
 011000000000000,
 010000000000000,
 011000000000000,
 011000000000000,
 011000000000000,
 011000000000000,
 010000000000000,
 011000000000000,
 011000000000000,
 011000000000000,
 010000000000000,
 011000000000000,
 011000000000000,
 011000000000000,
 011000000000000,
 011000000000000,
 011000000000000,
 010000000000000,
 011000000000000,
 011000000000000,
 011000000000000,
 010000000000000,
 011000000000000,
 011000000000000,
 011000000000000,
 010000000000000,
 010000000000000,
 010000000000000,
 010000000000000,
 010000000000000,
 011000000000000,
 010000000000000,
 010000000000000,
 011000000000000,
 011000000000000,
 010000000000000,
 010000000000000,
 010000000000000,
 011000000000000,
 011000000000000,
 010000000000000,
 010000000000000,
 010000000000000,
 010000000000000,
 010000000000000,
 010000000000000,
 010000000000000,
 011000000000000,
 010000000000000,
 011000000000000,
 011000000000000,
 011000000000000,
 010000000000000,
 010000000000000,
 011000000000000,
 011000000000000,
 010000000000000,
 010000000000000,
 010000000000000,
 011000000000000,
 011000000000000,
 010000000000000,
 010000000000000,
 010000000000000,
 011000000000000,
 010000000000000,
 010000000000000,
 010000000000000,
 010000000000000,
 011000000000000,
 011000000000000,
 010000000000000,
 010000000000000,
 011000000000000,
 011000000000000,
 010000000000000,
 010000000000000,
 010000000000000,
 011000000000000,
 010000000000000,
 010000000000000,
 010000000000000,
 011000000000000,
 010000000000000,
 010000000000000,
 011000000000000,
 010000000000000,
 010000000000000,
 010000000000000,
 010000000000000,
 010000000000000,
 011000000000000,
 011000000000000,
 011000000000000,
 011000000000000,
 011000000000000,
 011000000000000,
 011000000000000,
 011000000000000,
 011000000000000,
 011000000000000,
 010000000000000,
 010000000000000,
 010000000000000,
 010000000000000,
 010000000000000,
 011000000000000,
 010000000000000,
 011000000000000,
 011000000000000,
 011000000000000,
 010000000000000,
 010000000000000,
 010000000000000,
 010000000000000,
 010000000000000,
 011000000000000,
 011000000000000,
 010000000000000,
 010000000000000,
 010000000000000,
 011000000000000,
 011000000000000,
 010000000000000,
 011000000000000,
 011000000000000,
 010000000000000,
 010000000000000,
 010000000000000,
 011000000000000,
 011000000000000,
 011000000000000,
 010000000000000,
 011000000000000,
 011000000000000,
 010000000000000,
 011000000000000,
 010000000000000,
 010000000000000,
 010000000000000,
 010000000000000,
 011000000000000,
 010000000000000,
 010000000000000,
 010000000000000,
 010000000000000,
 010000000000000,
 011000000000000,
 010000000000000,
 011000000000000,
 011000000000000,
 011000000000000,
 011000000000000,
 011000000000000,
 011000000000000,
 010000000000000,
 010000000000000,
 011000000000000,
 011000000000000,
 011000000000000,
 010000000000000,
 011000000000000,
 010000000000000,
 010000000000000,
 011000000000000,
 010000000000000,
 010000000000000,
 011000000000000,
 011000000000000,
 010000000000000,
 011000000000000,
 010000000000000,
 010000000000000,
 011000000000000,
 010000000000000,
 011000000000000,
 011000000000000,
 010000000000000,
 010000000000000,
 010000000000000,
 011000000000000,
 010000000000000,
 011000000000000,
 011000000000000,
 011000000000000,
 011000000000000,
 010000000000000,
 010000000000000,
 011000000000000,
 011000000000000,
 010000000000000,
 011000000000000,
 011000000000000,
 010000000000000,
 011000000000000,
 010000000000000,
 011000000000000,
 011000000000000,
 011000000000000,
 011000000000000,
 011000000000000,
 011000000000000,
 011000000000000,
 011000000000000,
 010000000000000,
 010000000000000,
 010000000000000,
 011000000000000,
 011000000000000,
 011000000000000,
 011000000000000,
 010000000000000,
 010000000000000,
 010000000000000,
 011000000000000,
 011000000000000,
 011000000000000,
 010000000000000,
 010000000000000,
 011000000000000,
 011000000000000,
 010000000000000,
 011000000000000,
 010000000000000,
 010000000000000,
 010000000000000,
 010000000000000,
 010000000000000,
 010000000000000,
 011000000000000,
 010000000000000,
 011000000000000,
 010000000000000,
 011000000000000,
 010000000000000,
 010000000000000,
 010000000000000,
 011000000000000,
 010000000000000,
 010000000000000,
 011000000000000,
 011000000000000,
 011000000000000,
 011000000000000,
 011000000000000,
 010000000000000,
 011000000000000,
 011000000000000,
 011000000000000,
 011000000000000,
 011000000000000,
 011000000000000,
 011000000000000,
 011000000000000,
 010000000000000,
 010000000000000,
 010000000000000,
 011000000000000,
 010000000000000,
 010000000000000,
 011000000000000,
 010000000000000,
 010000000000000,
 011000000000000,
 010000000000000,
 011000000000000,
 010000000000000,
 010000000000000,
 010000000000000,
 010000000000000,
 010000000000000,
 011000000000000,
 011000000000000,
 010000000000000,
 010000000000000,
 010000000000000,
 011000000000000,
 010000000000000,
 011000000000000,
 011000000000000,
 011000000000000,
 011000000000000,
 010000000000000,
 011000000000000,
 010000000000000,
 010000000000000,
 011000000000000,
 011000000000000,
 011000000000000,
 011000000000000,
 011000000000000,
 011000000000000,
 011000000000000,
 011000000000000,
 011000000000000,
 010000000000000,
 010000000000000,
 011000000000000,
 011000000000000,
 011000000000000,
 011000000000000,
 010000000000000,
 010000000000000,
 011000000000000,
 011000000000000,
 011000000000000,
 011000000000000,
 010000000000000,
 010000000000000,
 010000000000000,
 011000000000000,
 010000000000000,
 010000000000000,
 010000000000000,
 011000000000000,
 010000000000000,
 010000000000000,
 010000000000000,
 010000000000000,
 010000000000000,
 011000000000000,
 010000000000000,
 010000000000000,
 010000000000000,
 010000000000000,
 010000000000000,
 010000000000000,
 010000000000000,
 010000000000000,
 011000000000000,
 010000000000000,
 010000000000000,
 011000000000000,
 010000000000000,
 010000000000000,
 010000000000000,
 011000000000000,
 011000000000000,
 011000000000000,
 010000000000000,
 010000000000000,
 011000000000000,
 010000000000000,
 010000000000000,
 010000000000000,
 010000000000000,
 010000000000000,
 011000000000000,
 010000000000000,
 011000000000000,
 010000000000000,
 011000000000000,
 010000000000000,
 010000000000000,
 011000000000000,
 011000000000000,
 010000000000000,
 010000000000000,
 011000000000000,
 011000000000000,
 010000000000000,
 010000000000000,
 011000000000000,
 011000000000000,
 011000000000000,
 011000000000000,
 010000000000000,
 010000000000000,
 010000000000000,
 011000000000000,
 011000000000000,
 010000000000000,
 011000000000000,
 011000000000000,
 010000000000000,
 010000000000000,
 010000000000000,
 011000000000000,
 010000000000000,
 010000000000000,
 010000000000000,
 011000000000000,
 011000000000000,
 010000000000000,
 011000000000000,
 011000000000000,
 011000000000000,
 010000000000000,
 010000000000000,
 010000000000000,
 010000000000000,
 010000000000000,
 011000000000000,
 011000000000000,
 011000000000000,
 011000000000000,
 011000000000000,
 010000000000000,
 010000000000000,
 011000000000000,
 010000000000000,
 010000000000000,
 011000000000000,
 011000000000000,
 011000000000000,
 011000000000000,
 010000000000000,
 011000000000000,
 010000000000000,
 010000000000000,
 010000000000000,
 011000000000000,
 011000000000000,
 010000000000000,
 010000000000000,
 010000000000000,
 011000000000000,
 011000000000000,
 011000000000000,
 010000000000000,
 010000000000000,
 010000000000000,
 010000000000000,
 011000000000000,
 010000000000000,
 011000000000000,
 010000000000000,
 011000000000000,
 010000000000000,
 011000000000000,
 011000000000000,
 010000000000000,
 011000000000000,
 011000000000000,
 011000000000000,
 011000000000000,
 010000000000000,
 011000000000000,
 011000000000000,
 011000000000000,
 010000000000000,
 010000000000000,
 010000000000000,
 010000000000000,
 011000000000000,
 010000000000000,
 010000000000000,
 010000000000000,
 011000000000000,
 010000000000000,
 010000000000000,
 010000000000000,
 011000000000000,
 010000000000000,
 011000000000000,
 011000000000000,
 010000000000000,
 010000000000000,
 010000000000000,
 011000000000000,
 010000000000000,
 010000000000000,
 010000000000000,
 010000000000000,
 010000000000000,
 010000000000000,
 010000000000000,
 011000000000000,
 010000000000000,
 011000000000000,
 011000000000000,
 010000000000000,
 011000000000000,
 011000000000000,
 011000000000000,
 011000000000000,
 010000000000000,
 011000000000000,
 010000000000000,
 010000000000000,
 011000000000000,
 011000000000000,
 010000000000000,
 010000000000000,
 010000000000000,
 010000000000000,
 011000000000000,
 011000000000000,
 010000000000000,
 010000000000000,
 011000000000000,
 011000000000000,
 011000000000000,
 010000000000000,
 010000000000000,
 010000000000000,
 011000000000000,
 010000000000000,
 010000000000000,
 010000000000000,
 010000000000000,
 010000000000000,
 011000000000000,
 010000000000000,
 011000000000000,
 011000000000000,
 010000000000000,
 011000000000000,
 011000000000000,
 011000000000000,
 011000000000000,
 011000000000000,
 011000000000000,
 011000000000000,
 011000000000000,
 011000000000000,
 011000000000000,
 010000000000000,
 011000000000000,
 011000000000000,
 011000000000000,
 011000000000000,
 011000000000000,
 010000000000000,
 011000000000000,
 011000000000000,
 011000000000000,
 011000000000000,
 011000000000000,
 011000000000000,
 011000000000000,
 011000000000000,
 010000000000000,
 010000000000000,
 011000000000000,
 011000000000000,
 011000000000000,
 011000000000000,
 011000000000000,
 010000000000000,
 010000000000000,
 010000000000000,
 010000000000000,
 010000000000000,
 011000000000000,
 011000000000000,
 010000000000000,
 011000000000000,
 011000000000000,
 010000000000000,
 010000000000000,
 011000000000000,
 010000000000000,
 010000000000000,
 010000000000000,
 011000000000000,
 011000000000000,
 011000000000000,
 011000000000000,
 011000000000000,
 011000000000000,
 010000000000000,
 010000000000000,
 010000000000000,
 011000000000000,
 010000000000000,
 011000000000000,
 011000000000000,
 011000000000000,
 011000000000000,
 011000000000000,
 010000000000000,
 010000000000000,
 010000000000000,
 010000000000000,
 011000000000000,
 011000000000000,
 011000000000000,
 011000000000000,
 011000000000000,
 011000000000000,
 011000000000000,
 011000000000000,
 010000000000000,
 011000000000000,
 011000000000000,
 011000000000000,
 011000000000000,
 010000000000000,
 010000000000000,
 011000000000000,
 010000000000000,
 011000000000000,
 010000000000000,
 011000000000000,
 010000000000000,
 010000000000000,
 010000000000000,
 011000000000000,
 010000000000000,
 010000000000000,
 011000000000000,
 010000000000000,
 010000000000000,
 010000000000000,
 010000000000000,
 010000000000000,
 011000000000000,
 011000000000000,
 011000000000000,
 010000000000000,
 011000000000000,
 010000000000000,
 010000000000000,
 011000000000000,
 010000000000000,
 011000000000000,
 011000000000000,
 010000000000000,
 011000000000000,
 011000000000000,
 011000000000000,
 011000000000000,
 010000000000000,
 010000000000000,
 010000000000000,
 010000000000000,
 010000000000000,
 010000000000000,
 011000000000000,
 011000000000000,
 011000000000000,
 011000000000000,
 010000000000000,
 010000000000000,
 011000000000000,
 011000000000000,
 011000000000000,
 011000000000000,
 011000000000000,
 011000000000000,
 011000000000000,
 011000000000000,
 011000000000000,
 011000000000000,
 011000000000000,
 011000000000000,
 011000000000000,
 011000000000000,
 011000000000000,
 011000000000000,
 010000000000000,
 011000000000000,
 010000000000000,
 010000000000000,
 010000000000000,
 011000000000000,
 010000000000000,
 010000000000000,
 010000000000000,
 010000000000000,
 010000000000000,
 010000000000000,
 010000000000000,
 010000000000000,
 010000000000000,
 010000000000000,
 010000000000000,
 010000000000000,
 010000000000000,
 010000000000000,
 011000000000000,
 011000000000000,
 011000000000000,
 010000000000000,
 011000000000000,
 011000000000000,
 010000000000000,
 011000000000000,
 011000000000000,
 011000000000000,
 010000000000000,
 011000000000000,
 011000000000000,
 011000000000000,
 011000000000000,
 010000000000000,
 010000000000000,
 010000000000000,
 010000000000000,
 011000000000000,
 010000000000000,
 010000000000000,
 011000000000000,
 011000000000000,
 011000000000000,
 011000000000000,
 010000000000000,
 010000000000000,
 010000000000000,
 010000000000000,
 010000000000000,
 010000000000000,
 011000000000000,
 011000000000000,
 010000000000000,
 010000000000000,
 011000000000000,
 010000000000000,
 011000000000000,
 010000000000000,
 011000000000000,
 011000000000000,
 011000000000000,
 011000000000000,
 010000000000000,
 010000000000000,
 010000000000000,
 011000000000000,
 010000000000000,
 010000000000000,
 011000000000000,
 010000000000000,
 011000000000000,
 011000000000000,
 011000000000000,
 010000000000000,
 011000000000000,
 011000000000000,
 011000000000000,
 011000000000000,
 010000000000000,
 010000000000000,
 010000000000000,
 010000000000000,
 010000000000000,
 011000000000000,
 011000000000000,
 011000000000000,
 010000000000000,
 011000000000000,
 011000000000000,
 010000000000000,
 010000000000000,
 010000000000000,
 010000000000000,
 010000000000000,
 011000000000000,
 011000000000000,
 011000000000000,
 011000000000000,
 010000000000000,
 010000000000000,
 010000000000000,
 010000000000000,
 010000000000000,
 010000000000000,
 011000000000000,
 011000000000000,
 011000000000000,
 010000000000000,
 010000000000000,
 010000000000000,
 011000000000000,
 010000000000000,
 011000000000000,
 010000000000000,
 011000000000000,
 010000000000000,
 010000000000000,
 010000000000000,
 010000000000000,
 011000000000000,
 010000000000000,
 010000000000000,
 010000000000000,
 011000000000000,
 010000000000000,
 010000000000000,
 010000000000000,
 010000000000000,
 010000000000000,
 011000000000000,
 010000000000000,
 010000000000000,
 010000000000000,
 010000000000000,
 010000000000000,
 011000000000000,
 010000000000000,
 011000000000000,
 011000000000000,
 011000000000000,
 011000000000000,
 011000000000000,
 011000000000000,
 011000000000000,
 011000000000000,
 010000000000000,
 010000000000000,
 010000000000000,
 010000000000000,
 011000000000000,
 011000000000000,
 011000000000000,
 011000000000000,
 011000000000000,
 011000000000000,
 011000000000000,
 011000000000000,
 010000000000000,
 011000000000000,
 011000000000000,
 010000000000000,
 010000000000000,
 011000000000000,
 010000000000000,
 011000000000000,
 011000000000000,
 011000000000000,
 011000000000000,
 010000000000000,
 010000000000000,
 010000000000000,
 010000000000000,
 011000000000000,
 010000000000000,
 011000000000000,
 011000000000000,
 010000000000000,
 010000000000000,
 010000000000000,
 010000000000000,
 010000000000000,
 010000000000000,
 010000000000000,
 010000000000000,
 010000000000000,
 011000000000000,
 011000000000000,
 011000000000000,
 010000000000000,
 011000000000000,
 010000000000000,
 010000000000000,
 010000000000000,
 010000000000000,
 010000000000000,
 011000000000000,
 010000000000000,
 010000000000000,
 010000000000000,
 010000000000000,
 010000000000000,
 010000000000000,
 010000000000000,
 011000000000000,
 011000000000000,
 010000000000000,
 010000000000000,
 011000000000000,
 011000000000000,
 010000000000000,
 011000000000000,
 010000000000000,
 010000000000000,
 010000000000000,
 010000000000000,
 010000000000000,
 011000000000000,
 010000000000000,
 010000000000000,
 010000000000000,
 010000000000000,
 011000000000000,
 010000000000000,
 011000000000000,
 010000000000000,
 011000000000000,
 010000000000000,
 011000000000000,
 011000000000000,
 010000000000000,
 010000000000000,
 011000000000000,
 011000000000000,
 010000000000000,
 011000000000000,
 011000000000000,
 010000000000000,
 011000000000000,
 011000000000000,
 010000000000000,
 011000000000000,
 010000000000000,
 011000000000000,
 011000000000000,
 010000000000000,
 010000000000000,
 011000000000000,
 010000000000000,
 011000000000000,
 011000000000000,
 010000000000000,
 010000000000000,
 011000000000000,
 010000000000000,
 010000000000000,
 010000000000000,
 010000000000000,
 010000000000000,
 010000000000000,
 010000000000000,
 010000000000000,
 011000000000000,
 010000000000000,
 010000000000000,
 010000000000000,
 010000000000000,
 011000000000000,
 010000000000000,
 010000000000000,
 011000000000000,
 011000000000000,
 011000000000000,
 011000000000000,
 010000000000000,
 010000000000000,
 010000000000000,
 010000000000000,
 011000000000000,
 010000000000000,
 010000000000000,
 010000000000000,
 010000000000000,
 011000000000000,
 011000000000000,
 011000000000000,
 010000000000000,
 010000000000000,
 011000000000000,
 011000000000000,
 011000000000000,
 010000000000000,
 010000000000000,
 010000000000000,
 010000000000000,
 011000000000000,
 011000000000000,
 011000000000000,
 011000000000000,
 011000000000000,
 011000000000000,
 011000000000000,
 011000000000000,
 011000000000000,
 011000000000000,
 011000000000000,
 010000000000000,
 010000000000000,
 011000000000000,
 011000000000000,
 010000000000000,
 010000000000000,
 011000000000000,
 011000000000000,
 011000000000000,
 010000000000000,
 011000000000000,
 010000000000000,
 011000000000000,
 010000000000000,
 010000000000000,
 010000000000000,
 010000000000000,
 011000000000000,
 010000000000000,
 010000000000000,
 010000000000000,
 011000000000000,
 011000000000000,
 011000000000000,
 011000000000000,
 010000000000000,
 010000000000000,
 010000000000000,
 011000000000000,
 010000000000000,
 011000000000000,
 010000000000000,
 011000000000000,
 010000000000000,
 010000000000000,
 011000000000000,
 011000000000000,
 011000000000000,
 010000000000000,
 010000000000000,
 010000000000000,
 011000000000000,
 011000000000000,
 010000000000000,
 010000000000000,
 010000000000000,
 010000000000000,
 011000000000000,
 010000000000000,
 010000000000000,
 010000000000000,
 010000000000000,
 010000000000000,
 010000000000000,
 010000000000000,
 010000000000000,
 010000000000000,
 010000000000000,
 011000000000000,
 011000000000000,
 011000000000000,
 010000000000000,
 010000000000000,
 010000000000000,
 010000000000000,
 010000000000000,
 010000000000000,
 011000000000000,
 011000000000000,
 011000000000000,
 010000000000000,
 011000000000000,
 010000000000000,
 010000000000000,
 010000000000000,
 010000000000000,
 011000000000000,
 011000000000000,
 010000000000000,
 010000000000000,
 010000000000000,
 010000000000000,
 011000000000000,
 011000000000000,
 010000000000000,
 010000000000000,
 010000000000000,
 010000000000000,
 010000000000000,
 010000000000000,
 010000000000000,
 011000000000000,
 011000000000000,
 011000000000000,
 011000000000000,
 011000000000000,
 010000000000000,
 010000000000000,
 011000000000000,
 011000000000000,
 011000000000000,
 011000000000000,
 011000000000000,
 010000000000000,
 011000000000000,
 011000000000000,
 010000000000000,
 010000000000000,
 010000000000000,
 011000000000000,
 011000000000000,
 010000000000000,
 011000000000000,
 010000000000000,
 011000000000000,
 011000000000000,
 011000000000000,
 010000000000000,
 010000000000000,
 011000000000000,
 011000000000000,
 010000000000000,
 010000000000000,
 011000000000000,
 010000000000000,
 010000000000000,
 010000000000000,
 011000000000000,
 011000000000000,
 010000000000000,
 010000000000000,
 010000000000000,
 011000000000000,
 011000000000000,
 011000000000000,
 010000000000000,
 010000000000000,
 010000000000000,
 011000000000000,
 010000000000000,
 011000000000000,
 011000000000000,
 011000000000000,
 011000000000000,
 011000000000000,
 011000000000000,
 011000000000000,
 011000000000000,
 011000000000000,
 011000000000000,
 011000000000000,
 011000000000000,
 010000000000000,
 011000000000000,
 010000000000000,
 010000000000000,
 011000000000000,
 010000000000000,
 011000000000000,
 010000000000000,
 011000000000000,
 010000000000000,
 010000000000000,
 011000000000000,
 010000000000000,
 011000000000000,
 010000000000000,
 010000000000000,
 010000000000000,
 011000000000000,
 010000000000000,
 010000000000000,
 010000000000000,
 010000000000000,
 011000000000000,
 011000000000000,
 011000000000000,
 011000000000000,
 010000000000000,
 010000000000000,
 010000000000000,
 010000000000000,
 010000000000000,
 011000000000000,
 011000000000000,
 010000000000000,
 011000000000000,
 011000000000000,
 010000000000000,
 011000000000000,
 010000000000000,
 011000000000000,
 010000000000000,
 010000000000000,
 010000000000000,
 010000000000000,
 011000000000000,
 010000000000000,
 010000000000000,
 010000000000000,
 011000000000000,
 011000000000000,
 011000000000000,
 011000000000000,
 010000000000000,
 011000000000000,
 010000000000000,
 010000000000000,
 011000000000000,
 010000000000000,
 010000000000000,
 010000000000000,
 010000000000000,
 011000000000000,
 010000000000000,
 011000000000000,
 011000000000000,
 010000000000000,
 011000000000000,
 010000000000000,
 010000000000000,
 011000000000000,
 010000000000000,
 011000000000000,
 010000000000000,
 010000000000000,
 011000000000000,
 011000000000000,
 011000000000000,
 010000000000000,
 011000000000000,
 011000000000000,
 011000000000000,
 011000000000000,
 010000000000000,
 011000000000000,
 011000000000000,
 010000000000000,
 011000000000000,
 011000000000000,
 011000000000000,
 010000000000000,
 010000000000000,
 011000000000000,
 010000000000000,
 010000000000000,
 010000000000000,
 010000000000000,
 011000000000000,
 010000000000000,
 011000000000000,
 011000000000000,
 011000000000000,
 011000000000000,
 011000000000000,
 011000000000000,
 011000000000000,
 011000000000000,
 011000000000000,
 011000000000000,
 010000000000000,
 011000000000000,
 011000000000000,
 011000000000000,
 011000000000000,
 011000000000000,
 010000000000000,
 011000000000000,
 011000000000000,
 011000000000000,
 010000000000000,
 011000000000000,
 011000000000000,
 011000000000000,
 011000000000000,
 011000000000000,
 010000000000000,
 010000000000000,
 010000000000000,
 010000000000000,
 010000000000000,
 010000000000000,
 010000000000000,
 011000000000000,
 010000000000000,
 011000000000000,
 011000000000000,
 010000000000000,
 010000000000000,
 010000000000000,
 010000000000000,
 011000000000000,
 011000000000000,
 011000000000000,
 011000000000000,
 011000000000000,
 010000000000000,
 010000000000000,
 010000000000000,
 011000000000000,
 011000000000000,
 011000000000000,
 011000000000000,
 010000000000000,
 010000000000000,
 010000000000000,
 011000000000000,
 011000000000000,
 011000000000000,
 011000000000000,
 011000000000000,
 011000000000000,
 011000000000000,
 011000000000000,
 011000000000000,
 010000000000000,
 011000000000000,
 010000000000000,
 010000000000000,
 010000000000000,
 010000000000000,
 010000000000000,
 011000000000000,
 011000000000000,
 010000000000000,
 010000000000000,
 010000000000000,
 010000000000000,
 010000000000000,
 011000000000000,
 011000000000000,
 011000000000000,
 011000000000000,
 010000000000000,
 011000000000000,
 011000000000000,
 010000000000000,
 011000000000000,
 010000000000000,
 011000000000000,
 011000000000000,
 011000000000000,
 011000000000000,
 011000000000000,
 010000000000000,
 010000000000000,
 010000000000000,
 010000000000000,
 011000000000000,
 011000000000000,
 010000000000000,
 010000000000000,
 011000000000000,
 010000000000000,
 010000000000000,
 010000000000000,
 011000000000000,
 011000000000000,
 011000000000000,
 010000000000000,
 010000000000000,
 011000000000000,
 010000000000000,
 011000000000000,
 010000000000000,
 011000000000000,
 010000000000000,
 010000000000000,
 011000000000000,
 010000000000000,
 011000000000000,
 010000000000000,
 011000000000000,
 010000000000000,
 011000000000000,
 010000000000000,
 010000000000000,
 011000000000000,
 011000000000000,
 010000000000000,
 010000000000000,
 010000000000000,
 010000000000000,
 011000000000000,
 011000000000000,
 011000000000000,
 011000000000000,
 011000000000000,
 010000000000000,
 010000000000000,
 010000000000000,
 010000000000000,
 011000000000000,
 010000000000000,
 011000000000000,
 011000000000000,
 010000000000000,
 010000000000000,
 011000000000000,
 011000000000000,
 010000000000000,
 010000000000000,
 010000000000000,
 011000000000000,
 010000000000000,
 010000000000000,
 011000000000000,
 010000000000000,
 010000000000000,
 010000000000000,
 011000000000000,
 010000000000000,
 011000000000000,
 010000000000000,
 011000000000000,
 010000000000000,
 011000000000000,
 011000000000000,
 010000000000000,
 010000000000000,
 011000000000000,
 010000000000000,
 010000000000000,
 010000000000000,
 010000000000000,
 010000000000000,
 011000000000000,
 010000000000000,
 011000000000000,
 010000000000000,
 011000000000000,
 011000000000000,
 011000000000000,
 011000000000000,
 011000000000000,
 011000000000000,
 011000000000000,
 010000000000000,
 011000000000000,
 011000000000000,
 010000000000000,
 010000000000000,
 011000000000000,
 010000000000000,
 010000000000000,
 010000000000000,
 010000000000000,
 010000000000000,
 010000000000000,
 011000000000000,
 010000000000000,
 010000000000000,
 011000000000000,
 011000000000000,
 011000000000000,
 011000000000000,
 011000000000000,
 010000000000000,
 010000000000000,
 011000000000000,
 010000000000000,
 011000000000000,
 011000000000000,
 011000000000000,
 010000000000000,
 010000000000000,
 011000000000000,
 011000000000000,
 011000000000000,
 011000000000000,
 011000000000000,
 010000000000000,
 010000000000000,
 010000000000000,
 010000000000000,
 010000000000000,
 010000000000000,
 010000000000000,
 010000000000000,
 011000000000000,
 010000000000000,
 011000000000000,
 010000000000000,
 011000000000000,
 010000000000000,
 010000000000000,
 010000000000000,
 010000000000000,
 010000000000000,
 011000000000000,
 011000000000000,
 011000000000000,
 011000000000000,
 010000000000000,
 010000000000000,
 010000000000000,
 010000000000000,
 011000000000000,
 010000000000000,
 010000000000000,
 010000000000000,
 011000000000000,
 011000000000000,
 010000000000000,
 011000000000000,
 011000000000000,
 010000000000000,
 010000000000000,
 010000000000000,
 010000000000000,
 010000000000000,
 011000000000000,
 010000000000000,
 010000000000000,
 010000000000000,
 011000000000000,
 010000000000000,
 010000000000000,
 010000000000000,
 010000000000000,
 011000000000000,
 010000000000000,
 011000000000000,
 011000000000000,
 011000000000000,
 011000000000000,
 011000000000000,
 011000000000000,
 011000000000000,
 011000000000000,
 011000000000000,
 010000000000000,
 011000000000000,
 011000000000000,
 011000000000000,
 010000000000000,
 010000000000000,
 010000000000000,
 011000000000000,
 010000000000000,
 011000000000000,
 010000000000000,
 010000000000000,
 011000000000000,
 011000000000000,
 010000000000000,
 010000000000000,
 011000000000000,
 011000000000000,
 011000000000000,
 010000000000000,
 010000000000000,
 010000000000000,
 011000000000000,
 011000000000000,
 011000000000000,
 011000000000000,
 010000000000000,
 011000000000000,
 010000000000000,
 010000000000000,
 010000000000000,
 011000000000000,
 011000000000000,
 011000000000000,
 011000000000000,
 011000000000000,
 011000000000000,
 010000000000000,
 010000000000000,
 010000000000000,
 010000000000000,
 011000000000000,
 011000000000000,
 010000000000000,
 011000000000000,
 011000000000000,
 011000000000000,
 010000000000000,
 011000000000000,
 011000000000000,
 010000000000000,
 010000000000000,
 011000000000000,
 011000000000000,
 010000000000000,
 011000000000000,
 011000000000000,
 011000000000000,
 011000000000000,
 010000000000000,
 011000000000000,
 011000000000000,
 010000000000000,
 010000000000000,
 010000000000000,
 010000000000000,
 011000000000000,
 011000000000000,
 011000000000000,
 011000000000000,
 010000000000000,
 011000000000000,
 010000000000000,
 011000000000000,
 011000000000000,
 010000000000000,
 011000000000000,
 010000000000000,
 010000000000000,
 010000000000000,
 011000000000000,
 011000000000000,
 011000000000000,
 011000000000000,
 011000000000000,
 011000000000000,
 010000000000000,
 010000000000000,
 011000000000000,
 011000000000000,
 011000000000000,
 010000000000000,
 011000000000000,
 011000000000000,
 011000000000000,
 011000000000000,
 011000000000000,
 011000000000000,
 010000000000000,
 010000000000000,
 011000000000000,
 011000000000000,
 011000000000000,
 010000000000000,
 011000000000000,
 011000000000000,
 011000000000000,
 011000000000000,
 011000000000000,
 011000000000000,
 010000000000000,
 010000000000000,
 010000000000000,
 010000000000000,
 011000000000000,
 010000000000000,
 010000000000000,
 010000000000000,
 010000000000000,
 010000000000000,
 010000000000000,
 010000000000000,
 011000000000000,
 010000000000000,
 011000000000000,
 010000000000000,
 010000000000000,
 011000000000000,
 010000000000000,
 011000000000000,
 011000000000000,
 011000000000000,
 011000000000000,
 011000000000000,
 011000000000000,
 011000000000000,
 010000000000000,
 010000000000000,
 010000000000000,
 010000000000000,
 011000000000000,
 011000000000000,
 010000000000000,
 010000000000000,
 010000000000000,
 010000000000000,
 010000000000000,
 010000000000000,
 010000000000000,
 011000000000000,
 010000000000000,
 010000000000000,
 010000000000000,
 011000000000000,
 010000000000000,
 011000000000000,
 011000000000000,
 011000000000000,
 011000000000000,
 010000000000000,
 010000000000000,
 011000000000000,
 010000000000000,
 010000000000000,
 010000000000000,
 010000000000000,
 011000000000000,
 011000000000000,
 010000000000000,
 010000000000000,
 011000000000000,
 010000000000000,
 010000000000000,
 010000000000000,
 011000000000000,
 011000000000000,
 011000000000000,
 011000000000000,
 010000000000000,
 010000000000000,
 011000000000000,
 011000000000000,
 011000000000000,
 011000000000000,
 011000000000000,
 011000000000000,
 011000000000000,
 011000000000000,
 011000000000000,
 011000000000000,
 010000000000000,
 010000000000000,
 010000000000000,
 010000000000000,
 010000000000000,
 010000000000000,
 010000000000000,
 011000000000000,
 010000000000000,
 010000000000000,
 011000000000000,
 011000000000000,
 010000000000000,
 011000000000000,
 010000000000000,
 010000000000000,
 011000000000000,
 011000000000000,
 011000000000000,
 011000000000000,
 010000000000000,
 010000000000000,
 010000000000000,
 011000000000000,
 010000000000000,
 011000000000000,
 011000000000000,
 011000000000000,
 011000000000000,
 010000000000000,
 010000000000000,
 010000000000000,
 010000000000000,
 010000000000000,
 010000000000000,
 011000000000000,
 011000000000000,
 010000000000000,
 011000000000000,
 010000000000000,
 010000000000000,
 010000000000000,
 010000000000000,
 010000000000000,
 010000000000000,
 011000000000000,
 011000000000000,
 011000000000000,
 010000000000000,
 011000000000000,
 011000000000000,
 010000000000000,
 010000000000000,
 010000000000000,
 010000000000000,
 010000000000000,
 011000000000000,
 010000000000000,
 011000000000000,
 010000000000000,
 010000000000000,
 010000000000000,
 011000000000000,
 011000000000000,
 010000000000000,
 010000000000000,
 010000000000000,
 010000000000000,
 010000000000000,
 010000000000000,
 010000000000000,
 010000000000000,
 011000000000000,
 011000000000000,
 010000000000000,
 010000000000000,
 010000000000000,
 011000000000000,
 010000000000000,
 011000000000000,
 011000000000000,
 011000000000000,
 011000000000000,
 010000000000000,
 010000000000000,
 010000000000000,
 011000000000000,
 010000000000000,
 010000000000000,
 011000000000000,
 011000000000000,
 011000000000000,
 011000000000000,
 011000000000000,
 010000000000000,
 010000000000000,
 011000000000000,
 011000000000000,
 011000000000000,
 010000000000000,
 011000000000000,
 011000000000000,
 010000000000000,
 010000000000000,
 010000000000000,
 011000000000000,
 011000000000000,
 011000000000000,
 010000000000000,
 011000000000000,
 010000000000000,
 010000000000000,
 010000000000000,
 011000000000000,
 011000000000000,
 011000000000000,
 010000000000000,
 010000000000000,
 010000000000000,
 010000000000000,
 010000000000000,
 010000000000000,
 010000000000000,
 011000000000000,
 010000000000000,
 011000000000000,
 010000000000000,
 010000000000000,
 010000000000000,
 011000000000000,
 011000000000000,
 010000000000000,
 010000000000000,
 011000000000000,
 011000000000000,
 010000000000000,
 010000000000000,
 010000000000000,
 011000000000000,
 010000000000000,
 010000000000000,
 011000000000000,
 011000000000000,
 010000000000000,
 011000000000000,
 010000000000000,
 010000000000000,
 011000000000000,
 011000000000000,
 011000000000000,
 011000000000000,
 011000000000000,
 011000000000000,
 011000000000000,
 011000000000000,
 011000000000000,
 011000000000000,
 011000000000000,
 010000000000000,
 010000000000000,
 010000000000000,
 011000000000000,
 010000000000000,
 011000000000000,
 010000000000000,
 010000000000000,
 010000000000000,
 011000000000000,
 010000000000000,
 011000000000000,
 011000000000000,
 011000000000000,
 011000000000000,
 010000000000000,
 010000000000000,
 010000000000000,
 010000000000000,
 010000000000000,
 011000000000000,
 010000000000000,
 011000000000000,
 011000000000000,
 010000000000000,
 011000000000000,
 010000000000000,
 011000000000000,
 011000000000000,
 010000000000000,
 010000000000000,
 010000000000000,
 010000000000000,
 010000000000000,
 011000000000000,
 010000000000000,
 010000000000000,
 011000000000000,
 010000000000000,
 011000000000000,
 010000000000000,
 010000000000000,
 011000000000000,
 011000000000000,
 011000000000000,
 011000000000000,
 011000000000000,
 011000000000000,
 011000000000000,
 011000000000000,
 011000000000000,
 011000000000000,
 010000000000000,
 010000000000000,
 011000000000000,
 010000000000000,
 010000000000000,
 010000000000000,
 011000000000000,
 011000000000000,
 010000000000000,
 010000000000000,
 010000000000000,
 011000000000000,
 010000000000000,
 010000000000000,
 011000000000000,
 010000000000000,
 010000000000000,
 010000000000000,
 011000000000000,
 011000000000000,
 011000000000000,
 011000000000000,
 011000000000000,
 010000000000000,
 011000000000000,
 011000000000000,
 010000000000000,
 011000000000000,
 010000000000000,
 011000000000000,
 010000000000000,
 010000000000000,
 010000000000000,
 011000000000000,
 010000000000000,
 010000000000000,
 011000000000000,
 011000000000000,
 011000000000000,
 011000000000000,
 011000000000000,
 010000000000000,
 010000000000000,
 011000000000000,
 011000000000000,
 010000000000000,
 010000000000000,
 011000000000000,
 011000000000000,
 011000000000000,
 011000000000000,
 011000000000000,
 011000000000000,
 010000000000000,
 010000000000000,
 010000000000000,
 010000000000000,
 010000000000000,
 010000000000000,
 010000000000000,
 010000000000000,
 011000000000000,
 010000000000000,
 010000000000000,
 010000000000000,
 010000000000000,
 011000000000000,
 011000000000000,
 010000000000000,
 011000000000000,
 010000000000000,
 010000000000000,
 011000000000000,
 011000000000000,
 011000000000000,
 011000000000000,
 010000000000000,
 010000000000000,
 010000000000000,
 011000000000000,
 011000000000000,
 010000000000000,
 011000000000000,
 011000000000000,
 010000000000000,
 010000000000000,
 010000000000000,
 010000000000000,
 011000000000000,
 010000000000000,
 011000000000000,
 011000000000000,
 011000000000000,
 011000000000000,
 011000000000000,
 010000000000000,
 010000000000000,
 010000000000000,
 011000000000000,
 010000000000000,
 010000000000000,
 010000000000000,
 011000000000000,
 011000000000000,
 011000000000000,
 010000000000000,
 010000000000000,
 011000000000000,
 010000000000000,
 010000000000000,
 010000000000000,
 011000000000000,
 010000000000000,
 011000000000000,
 010000000000000,
 010000000000000,
 010000000000000,
 011000000000000,
 010000000000000,
 010000000000000,
 010000000000000,
 010000000000000,
 010000000000000,
 010000000000000,
 011000000000000,
 011000000000000,
 010000000000000,
 011000000000000,
 011000000000000,
 010000000000000,
 011000000000000,
 011000000000000,
 011000000000000,
 011000000000000,
 011000000000000,
 011000000000000,
 011000000000000,
 011000000000000,
 010000000000000,
 010000000000000,
 011000000000000,
 011000000000000,
 011000000000000,
 010000000000000,
 010000000000000,
 011000000000000,
 011000000000000,
 010000000000000,
 010000000000000,
 010000000000000,
 011000000000000,
 011000000000000,
 010000000000000,
 011000000000000,
 010000000000000,
 010000000000000,
 011000000000000,
 011000000000000,
 010000000000000,
 010000000000000,
 011000000000000,
 011000000000000,
 010000000000000,
 011000000000000,
 010000000000000,
 011000000000000,
 010000000000000,
 010000000000000,
 011000000000000,
 011000000000000,
 011000000000000,
 011000000000000,
 011000000000000,
 011000000000000,
 011000000000000,
 011000000000000,
 010000000000000,
 010000000000000,
 010000000000000,
 010000000000000,
 010000000000000,
 011000000000000,
 011000000000000,
 011000000000000,
 010000000000000,
 010000000000000,
 011000000000000,
 011000000000000,
 010000000000000,
 010000000000000,
 011000000000000,
 010000000000000,
 010000000000000,
 010000000000000,
 011000000000000,
 010000000000000,
 010000000000000,
 011000000000000,
 011000000000000,
 011000000000000,
 011000000000000,
 010000000000000,
 010000000000000,
 011000000000000,
 010000000000000,
 010000000000000,
 011000000000000,
 011000000000000,
 011000000000000,
 010000000000000,
 011000000000000,
 010000000000000,
 011000000000000,
 011000000000000,
 011000000000000,
 011000000000000,
 011000000000000,
 010000000000000,
 010000000000000,
 011000000000000,
 010000000000000,
 010000000000000,
 010000000000000,
 010000000000000,
 010000000000000,
 011000000000000,
 011000000000000,
 011000000000000,
 010000000000000,
 010000000000000,
 010000000000000,
 011000000000000,
 010000000000000,
 011000000000000,
 010000000000000,
 010000000000000,
 010000000000000,
 011000000000000,
 011000000000000,
 011000000000000,
 011000000000000,
 011000000000000,
 010000000000000,
 010000000000000,
 010000000000000,
 011000000000000,
 010000000000000,
 010000000000000,
 010000000000000,
 010000000000000,
 010000000000000,
 010000000000000,
 010000000000000,
 011000000000000,
 011000000000000,
 011000000000000,
 011000000000000,
 010000000000000,
 011000000000000,
 010000000000000,
 011000000000000,
 011000000000000,
 010000000000000,
 010000000000000,
 010000000000000,
 010000000000000,
 010000000000000,
 010000000000000,
 010000000000000,
 011000000000000,
 010000000000000,
 010000000000000,
 010000000000000,
 010000000000000,
 010000000000000,
 011000000000000,
 011000000000000,
 011000000000000,
 011000000000000,
 011000000000000,
 011000000000000,
 011000000000000,
 011000000000000,
 011000000000000,
 011000000000000,
 011000000000000,
 010000000000000,
 010000000000000,
 010000000000000,
 010000000000000,
 010000000000000,
 010000000000000,
 011000000000000,
 010000000000000,
 011000000000000,
 011000000000000,
 011000000000000,
 011000000000000,
 011000000000000,
 010000000000000,
 011000000000000,
 011000000000000,
 011000000000000,
 011000000000000,
 010000000000000,
 010000000000000,
 011000000000000,
 011000000000000,
 011000000000000,
 011000000000000,
 010000000000000,
 010000000000000,
 011000000000000,
 011000000000000,
 011000000000000,
 011000000000000,
 011000000000000,
 011000000000000,
 011000000000000,
 010000000000000,
 011000000000000,
 011000000000000,
 011000000000000,
 011000000000000,
 010000000000000,
 010000000000000,
 011000000000000,
 011000000000000,
 010000000000000,
 010000000000000,
 010000000000000,
 010000000000000,
 010000000000000,
 010000000000000,
 010000000000000,
 010000000000000,
 010000000000000,
 010000000000000,
 011000000000000,
 010000000000000,
 010000000000000,
 011000000000000,
 011000000000000,
 011000000000000,
 010000000000000,
 011000000000000,
 010000000000000,
 011000000000000,
 010000000000000,
 010000000000000,
 010000000000000,
 010000000000000,
 010000000000000,
 010000000000000,
 010000000000000,
 010000000000000,
 010000000000000,
 011000000000000,
 011000000000000,
 011000000000000,
 011000000000000,
 011000000000000,
 011000000000000,
 010000000000000,
 011000000000000,
 011000000000000,
 011000000000000,
 010000000000000,
 010000000000000,
 010000000000000,
 010000000000000,
 010000000000000,
 010000000000000,
 011000000000000,
 010000000000000,
 011000000000000,
 010000000000000,
 011000000000000,
 011000000000000,
 011000000000000,
 011000000000000,
 011000000000000,
 011000000000000,
 011000000000000,
 010000000000000,
 010000000000000,
 000000000000000,
 000000000000000,
 000000000000000,
 000000000000000,
 000000000000000,
 000000000000000,
 000000000000000,
 000000000000000,
 000000000000000,
 000000000000000,
 000000000000000,
 000000000000000,
 000000000000000,
 000000000000000,
 000000000000000,
 000000000000000,
 000000000000000,
 000000000000000,
 000000000000000,
 000000000000000,
 000000000000000,
 000000000000000,
 000000000000000,
 000000000000000,
 000000000000000,
 000000000000000,
 000000000000000,
 000000000000000,
 000000000000000,
 000000000000000,
 000000000000000,
 000000000000000,
 000000000000000,
 000000000000000,
 000000000000000,
 000000000000000,
 000000000000000,
 000000000000000,
 000000000000000,
 000000000000000,
 000000000000000,
 000000000000000,
 000000000000000,
 000000000000000,
 000000000000000,
 000000000000000,
 000000000000000,
 000000000000000,
 000000000000000,
 000000000000000,
 000000000000000,
 000000000000000,
 000000000000000,
 000000000000000,
 000000000000000,
 000000000000000,
 000000000000000,
 000000000000000,
 000000000000000,
 000000000000000,
 000000000000000,
 000000000000000,
 000000000000000,
 000000000000000,
 000000000000000,
 000000000000000,
 000000000000000,
 000000000000000,
 000000000000000,
 000000000000000,
 000000000000000,
 000000000000000,
 000000000000000,
 000000000000000,
 000000000000000,
 000000000000000,
 000000000000000,
 000000000000000,
 000000000000000,
 000000000000000,
 000000000000000,
 000000000000000,
 000000000000000,
 000000000000000,
 000000000000000,
 000000000000000,
 000000000000000,
 000000000000000,
 000000000000000,
 000000000000000,
 000000000000000,
 000000000000000,
 000000000000000,
 000000000000000,
 000000000000000,
 000000000000000,
 000000000000000,
 000000000000000,
 000000000000000,
 000000000000000,
 000000000000000,
 000000000000000,
 000000000000000,
 000000000000000,
 000000000000000,
 000000000000000,
 000000000000000,
 000000000000000,
 000000000000000,
 000000000000000,
 000000000000000,
 000000000000000,
 000000000000000,
 000000000000000,
 000000000000000,
 000000000000000,
 000000000000000,
 000000000000000,
 000000000000000,
 000000000000000,
 000000000000000,
 000000000000000,
 000000000000000,
 000000000000000,
 000000000000000,
 000000000000000,
 000000000000000,
 000000000000000,
 000000000000000,
 000000000000000,
 000000000000000,
 000000000000000,
 000000000000000,
 000000000000000,
 000000000000000,
 000000000000000,
 000000000000000,
 000000000000000,
 000000000000000,
 000000000000000,
 000000000000000,
 000000000000000,
 000000000000000,
 000000000000000,
 000000000000000,
 000000000000000,
 000000000000000,
 000000000000000,
 000000000000000,
 000000000000000,
 000000000000000,
 000000000000000,
 000000000000000,
 000000000000000,
 000000000000000,
 000000000000000,
 000000000000000,
 000000000000000,
 000000000000000,
 000000000000000,
 000000000000000,
 000000000000000,
 000000000000000,
 000000000000000,
 000000000000000,
 000000000000000,
 000000000000000,
 000000000000000,
 000000000000000,
 000000000000000,
 000000000000000,
 000000000000000,
 000000000000000,
 000000000000000,
 000000000000000,
 000000000000000,
 000000000000000,
 000000000000000,
 000000000000000,
 000000000000000,
 000000000000000,
 000000000000000,
 000000000000000,
 000000000000000,
 000000000000000,
 000000000000000,
 000000000000000,
 000000000000000,
 000000000000000,
 000000000000000,
 000000000000000,
 000000000000000,
 000000000000000,
 000000000000000,
 000000000000000,
 000000000000000,
 000000000000000,
 000000000000000,
 000000000000000,
 000000000000000,
 000000000000000,
 000000000000000,
 000000000000000,
 000000000000000,
 000000000000000,
 000000000000000,
 000000000000000,
 000000000000000,
 000000000000000,
 000000000000000,
 000000000000000,
 000000000000000,
 000000000000000,
 000000000000000,
 000000000000000,
 000000000000000,
 000000000000000,
 000000000000000,
 000000000000000,
 000000000000000,
 000000000000000,
 000000000000000,
 000000000000000,
 000000000000000,
 000000000000000,
 000000000000000,
 000000000000000,
 000000000000000,
 000000000000000,
 000000000000000,
 000000000000000,
 000000000000000,
 000000000000000,
 000000000000000,
 000000000000000,
 000000000000000,
 000000000000000,
 000000000000000,
 000000000000000,
 000000000000000,
 000000000000000,
 000000000000000,
 000000000000000,
 000000000000000,
 000000000000000,
 000000000000000,
 000000000000000,
 000000000000000,
 000000000000000,
 000000000000000,
 000000000000000,
 000000000000000,
 000000000000000,
 000000000000000,
 000000000000000,
 000000000000000,
 000000000000000,
 000000000000000,
 000000000000000,
 000000000000000,
 000000000000000,
 000000000000000,
 000000000000000,
 000000000000000,
 000000000000000,
 000000000000000,
 000000000000000,
 000000000000000,
 000000000000000,
 000000000000000,
 000000000000000,
 000000000000000,
 000000000000000,
 000000000000000,
 000000000000000,
 000000000000000,
 000000000000000,
 000000000000000,
 000000000000000,
 000000000000000,
 000000000000000,
 000000000000000,
 000000000000000,
 000000000000000,
 000000000000000,
 000000000000000,
 000000000000000,
 000000000000000,
 000000000000000,
 000000000000000,
 000000000000000,
 000000000000000,
 000000000000000,
 000000000000000,
 000000000000000,
 000000000000000,
 000000000000000,
 000000000000000,
 000000000000000,
 000000000000000,
 000000000000000,
 000000000000000,
 000000000000000,
 000000000000000,
 000000000000000,
 000000000000000,
 000000000000000,
 000000000000000,
 000000000000000,
 000000000000000,
 000000000000000,
 000000000000000,
 000000000000000,
 000000000000000,
 000000000000000,
 000000000000000,
 000000000000000,
 000000000000000,
 000000000000000,
 000000000000000,
 000000000000000,
 000000000000000,
 000000000000000,
 000000000000000,
 000000000000000,
 000000000000000,
 000000000000000,
 000000000000000,
 000000000000000,
 000000000000000,
 000000000000000,
 000000000000000,
 000000000000000,
 000000000000000,
 000000000000000,
 000000000000000,
 000000000000000,
 000000000000000,
 000000000000000,
 000000000000000,
 000000000000000,
 000000000000000,
 000000000000000,
 000000000000000,
 000000000000000,
 000000000000000,
 000000000000000,
 000000000000000,
 000000000000000,
 000000000000000,
 000000000000000,
 000000000000000,
 000000000000000,
 000000000000000,
 000000000000000,
 000000000000000,
 000000000000000,
 000000000000000,
 000000000000000,
 000000000000000,
 000000000000000,
 000000000000000,
 000000000000000,
 000000000000000,
 000000000000000,
 000000000000000,
 000000000000000,
 000000000000000,
 000000000000000,
 000000000000000,
 000000000000000,
 000000000000000,
 000000000000000,
 000000000000000,
 000000000000000,
 000000000000000,
 000000000000000,
 000000000000000,
 000000000000000,
 000000000000000,
 000000000000000,
 000000000000000,
 000000000000000,
 000000000000000,
 000000000000000,
 000000000000000,
 000000000000000,
 000000000000000,
 000000000000000,
 000000000000000,
 000000000000000,
 000000000000000,
 000000000000000,
 000000000000000,
 000000000000000,
 000000000000000,
 000000000000000,
 000000000000000,
 000000000000000,
 000000000000000,
 000000000000000,
 000000000000000,
 000000000000000,
 000000000000000,
 000000000000000,
 000000000000000,
 000000000000000,
 000000000000000,
 000000000000000,
 000000000000000,
 000000000000000,
 000000000000000,
 000000000000000,
 000000000000000,
 000000000000000,
 000000000000000,
 000000000000000,
 000000000000000,
 000000000000000,
 000000000000000,
 000000000000000,
 000000000000000,
 000000000000000,
 000000000000000,
 000000000000000,
 000000000000000,
 000000000000000,
 000000000000000,
 000000000000000,
 000000000000000,
 000000000000000,
 000000000000000,
 000000000000000,
 000000000000000,
 000000000000000,
 000000000000000,
 000000000000000,
 000000000000000,
 000000000000000,
 000000000000000,
 000000000000000,
 000000000000000,
 000000000000000,
 000000000000000,
 000000000000000,
 000000000000000,
 000000000000000,
 000000000000000,
 000000000000000,
 000000000000000,
 000000000000000,
 000000000000000,
 000000000000000,
 000000000000000,
 000000000000000,
 000000000000000,
 000000000000000,
 000000000000000,
 000000000000000,
 000000000000000,
 000000000000000,
 000000000000000,
 000000000000000,
 000000000000000,
 000000000000000,
 000000000000000,
 000000000000000,
 000000000000000,
 000000000000000,
 000000000000000,
 000000000000000,
 000000000000000,
 000000000000000,
 000000000000000,
 000000000000000,
 000000000000000,
 000000000000000,
 000000000000000,
 000000000000000,
 000000000000000,
 000000000000000,
 000000000000000,
 000000000000000,
 000000000000000,
 000000000000000,
 000000000000000,
 000000000000000,
 000000000000000,
 000000000000000,
 000000000000000,
 000000000000000,
 000000000000000,
 000000000000000,
 000000000000000,
 000000000000000,
 000000000000000,
 000000000000000,
 000000000000000,
 000000000000000,
 000000000000000,
 000000000000000,
 000000000000000,
 000000000000000,
 000000000000000,
 000000000000000,
 000000000000000,
 000000000000000,
 000000000000000,
 000000000000000,
 000000000000000,
 000000000000000,
 000000000000000,
 000000000000000,
 000000000000000,
 000000000000000,
 000000000000000,
 000000000000000,
 000000000000000,
 000000000000000,
 000000000000000,
 000000000000000,
 000000000000000,
 000000000000000,
 000000000000000,
 000000000000000,
 000000000000000,
 000000000000000,
 000000000000000,
 000000000000000,
 000000000000000,
 000000000000000,
 000000000000000,
 000000000000000,
 000000000000000,
 000000000000000,
 000000000000000,
 000000000000000,
 000000000000000,
 000000000000000,
 000000000000000,
 000000000000000,
 000000000000000,
 000000000000000,
 000000000000000,
 000000000000000,
 000000000000000,
 000000000000000,
 000000000000000,
 000000000000000,
 000000000000000,
 000000000000000,
 000000000000000,
 000000000000000,
 000000000000000,
 000000000000000,
 000000000000000,
 000000000000000,
 000000000000000,
 000000000000000,
 000000000000000,
 000000000000000,
 000000000000000,
 000000000000000,
 000000000000000,
 000000000000000,
 000000000000000,
 000000000000000,
 000000000000000,
 000000000000000,
 000000000000000,
 000000000000000,
 000000000000000,
 000000000000000,
 000000000000000,
 000000000000000,
 000000000000000,
 000000000000000,
 000000000000000,
 000000000000000,
 000000000000000,
 000000000000000,
 000000000000000,
 000000000000000,
 000000000000000,
 000000000000000,
 000000000000000,
 000000000000000,
 000000000000000,
 000000000000000,
 000000000000000,
 000000000000000,
 000000000000000,
 000000000000000,
 000000000000000,
 000000000000000,
 000000000000000,
 000000000000000,
 000000000000000,
 000000000000000,
 000000000000000,
 000000000000000,
 000000000000000,
 000000000000000,
 000000000000000,
 000000000000000,
 000000000000000,
 000000000000000,
 000000000000000,
 000000000000000,
 000000000000000,
 000000000000000,
 000000000000000,
 000000000000000,
 000000000000000,
 000000000000000,
 000000000000000,
 000000000000000,
 000000000000000,
 000000000000000,
 000000000000000,
 000000000000000,
 000000000000000,
 000000000000000,
 000000000000000,
 000000000000000,
 000000000000000,
 000000000000000,
 000000000000000,
 000000000000000,
 000000000000000,
 000000000000000,
 000000000000000,
 000000000000000,
 000000000000000,
 000000000000000,
 000000000000000,
 000000000000000,
 000000000000000,
 000000000000000,
 000000000000000,
 000000000000000,
 000000000000000,
 000000000000000,
 000000000000000,
 000000000000000,
 000000000000000,
 000000000000000,
 000000000000000,
 000000000000000,
 000000000000000,
 000000000000000,
 000000000000000,
 000000000000000,
 000000000000000,
 000000000000000,
 000000000000000,
 000000000000000,
 000000000000000,
 000000000000000,
 000000000000000,
 000000000000000,
 000000000000000,
 000000000000000,
 000000000000000,
 000000000000000,
 000000000000000,
 000000000000000,
 000000000000000,
 000000000000000,
 000000000000000,
 000000000000000,
 000000000000000,
 000000000000000,
 000000000000000,
 000000000000000,
 000000000000000,
 000000000000000,
 000000000000000,
 000000000000000,
 000000000000000,
 000000000000000,
 000000000000000,
 000000000000000,
 000000000000000,
 000000000000000,
 000000000000000,
 000000000000000,
 000000000000000,
 000000000000000,
 000000000000000,
 000000000000000,
 000000000000000,
 000000000000000,
 000000000000000,
 000000000000000,
 000000000000000,
 000000000000000,
 000000000000000,
 000000000000000,
 000000000000000,
 000000000000000,
 000000000000000,
 000000000000000,
 000000000000000,
 000000000000000,
 000000000000000,
 000000000000000,
 000000000000000,
 000000000000000,
 000000000000000,
 000000000000000,
 000000000000000,
 000000000000000,
 000000000000000,
 000000000000000,
 000000000000000,
 000000000000000,
 000000000000000,
 000000000000000,
 000000000000000,
 000000000000000,
 000000000000000,
 000000000000000,
 000000000000000,
 000000000000000,
 000000000000000,
 000000000000000,
 000000000000000,
 000000000000000,
 000000000000000,
 000000000000000,
 000000000000000,
 000000000000000,
 000000000000000,
 000000000000000,
 000000000000000,
 000000000000000,
 000000000000000,
 000000000000000,
 000000000000000,
 000000000000000,
 000000000000000,
 000000000000000,
 000000000000000,
 000000000000000,
 000000000000000,
 000000000000000,
 000000000000000,
 000000000000000,
 000000000000000,
 000000000000000,
 000000000000000,
 000000000000000,
 000000000000000,
 000000000000000,
 000000000000000,
 000000000000000,
 000000000000000,
 000000000000000,
 000000000000000,
 000000000000000,
 000000000000000,
 000000000000000,
 000000000000000,
 000000000000000,
 000000000000000,
 000000000000000,
 000000000000000,
 000000000000000,
 000000000000000,
 000000000000000,
 000000000000000,
 000000000000000,
 000000000000000,
 000000000000000,
 000000000000000,
 000000000000000,
 000000000000000,
 000000000000000,
 000000000000000,
 000000000000000,
 000000000000000,
 000000000000000,
 000000000000000,
 000000000000000,
 000000000000000,
 000000000000000,
 000000000000000,
 000000000000000,
 000000000000000,
 000000000000000,
 000000000000000,
 000000000000000,
 000000000000000,
 000000000000000,
 000000000000000,
 000000000000000,
 000000000000000,
 000000000000000,
 000000000000000,
 000000000000000,
 000000000000000,
 000000000000000,
 000000000000000,
 000000000000000,
 000000000000000,
 000000000000000,
 000000000000000,
 000000000000000,
 000000000000000,
 000000000000000,
 000000000000000,
 000000000000000,
 000000000000000,
 000000000000000,
 000000000000000,
 000000000000000,
 000000000000000,
 000000000000000,
 000000000000000,
 000000000000000,
 000000000000000,
 000000000000000,
 000000000000000,
 000000000000000,
 000000000000000,
 000000000000000,
 000000000000000,
 000000000000000,
 000000000000000,
 000000000000000,
 000000000000000,
 000000000000000,
 000000000000000,
 000000000000000,
 000000000000000,
 000000000000000,
 000000000000000,
 000000000000000,
 000000000000000,
 000000000000000,
 000000000000000,
 000000000000000,
 000000000000000,
 000000000000000,
 000000000000000,
 000000000000000,
 000000000000000,
 000000000000000,
 000000000000000,
 000000000000000,
 000000000000000,
 000000000000000,
 000000000000000,
 000000000000000,
 000000000000000,
 000000000000000,
 000000000000000,
 000000000000000,
 000000000000000,
 000000000000000,
 000000000000000,
 000000000000000,
 000000000000000,
 000000000000000,
 000000000000000,
 000000000000000,
 000000000000000,
 000000000000000,
 000000000000000,
 000000000000000,
 000000000000000,
 000000000000000,
 000000000000000,
 000000000000000,
 000000000000000,
 000000000000000,
 000000000000000,
 000000000000000,
 000000000000000,
 000000000000000,
 000000000000000,
 000000000000000,
 000000000000000,
 000000000000000,
 000000000000000,
 000000000000000,
 000000000000000,
 000000000000000,
 000000000000000,
 000000000000000,
 000000000000000,
 000000000000000,
 000000000000000,
 000000000000000,
 000000000000000,
 000000000000000,
 000000000000000,
 000000000000000,
 000000000000000,
 000000000000000,
 000000000000000,
 000000000000000,
 000000000000000,
 000000000000000,
 000000000000000,
 000000000000000,
 000000000000000,
 000000000000000,
 000000000000000,
 000000000000000,
 000000000000000,
 000000000000000,
 000000000000000,
 000000000000000,
 000000000000000,
 000000000000000,
 000000000000000,
 000000000000000,
 000000000000000,
 000000000000000,
 000000000000000,
 000000000000000,
 000000000000000,
 000000000000000,
 000000000000000,
 000000000000000,
 000000000000000,
 000000000000000,
 000000000000000,
 000000000000000,
 000000000000000,
 000000000000000,
 000000000000000,
 000000000000000,
 000000000000000,
 000000000000000,
 000000000000000,
 000000000000000,
 000000000000000,
 000000000000000,
 000000000000000,
 000000000000000,
 000000000000000,
 000000000000000,
 000000000000000,
 000000000000000,
 000000000000000,
 000000000000000,
 000000000000000,
 000000000000000,
 000000000000000,
 000000000000000,
 000000000000000,
 000000000000000,
 000000000000000,
 000000000000000,
 000000000000000,
 000000000000000,
 000000000000000,
 000000000000000,
 000000000000000,
 000000000000000,
 000000000000000,
 000000000000000,
 000000000000000,
 000000000000000,
 000000000000000,
 000000000000000,
 000000000000000,
 000000000000000,
 000000000000000,
 000000000000000,
 000000000000000,
 000000000000000,
 000000000000000,
 000000000000000,
 000000000000000,
 000000000000000,
 000000000000000,
 000000000000000,
 000000000000000,
 000000000000000,
 000000000000000,
 000000000000000,
 000000000000000,
 000000000000000,
 000000000000000,
 000000000000000,
 000000000000000,
 000000000000000,
 000000000000000,
 000000000000000,
 000000000000000,
 000000000000000,
 000000000000000,
 000000000000000,
 000000000000000,
 000000000000000,
 000000000000000,
 000000000000000,
 000000000000000,
 000000000000000,
 000000000000000,
 000000000000000,
 000000000000000,
 000000000000000,
 000000000000000,
 000000000000000,
 000000000000000,
 000000000000000,
 000000000000000,
 000000000000000,
 000000000000000,
 000000000000000,
 000000000000000,
 000000000000000,
 000000000000000,
 000000000000000,
 000000000000000,
 000000000000000,
 000000000000000,
 000000000000000,
 000000000000000,
 000000000000000,
 000000000000000,
 000000000000000,
 000000000000000,
 000000000000000,
 000000000000000,
 000000000000000,
 000000000000000,
 000000000000000,
 000000000000000,
 000000000000000,
 000000000000000,
 000000000000000,
 000000000000000,
 000000000000000,
 000000000000000,
 000000000000000,
 000000000000000,
 000000000000000,
 000000000000000,
 000000000000000,
 000000000000000,
 000000000000000,
 000000000000000,
 000000000000000,
 000000000000000,
 000000000000000,
 000000000000000,
 000000000000000,
 000000000000000,
 000000000000000,
 000000000000000,
 000000000000000,
 000000000000000,
 000000000000000,
 000000000000000,
 000000000000000,
 000000000000000,
 000000000000000,
 000000000000000,
 000000000000000,
 000000000000000,
 000000000000000,
 000000000000000,
 000000000000000,
 000000000000000,
 000000000000000,
 000000000000000,
 000000000000000,
 000000000000000,
 000000000000000,
 000000000000000,
 000000000000000,
 000000000000000,
 000000000000000,
 000000000000000,
 000000000000000,
 000000000000000,
 000000000000000,
 000000000000000,
 000000000000000,
 000000000000000,
 000000000000000,
 000000000000000,
 000000000000000,
 000000000000000,
 000000000000000,
 000000000000000,
 000000000000000,
 000000000000000,
 000000000000000,
 000000000000000,
 000000000000000,
 000000000000000,
 000000000000000,
 000000000000000,
 000000000000000,
 000000000000000,
 000000000000000,
 000000000000000,
 000000000000000,
 000000000000000,
 000000000000000,
 000000000000000,
 000000000000000,
 000000000000000,
 000000000000000,
 000000000000000,
 000000000000000,
 000000000000000,
 000000000000000,
 000000000000000,
 000000000000000,
 000000000000000,
 000000000000000,
 000000000000000,
 000000000000000,
 000000000000000,
 000000000000000,
 000000000000000,
 000000000000000,
 000000000000000,
 000000000000000,
 000000000000000,
 000000000000000,
 000000000000000,
 000000000000000,
 000000000000000,
 000000000000000,
 000000000000000,
 000000000000000,
 000000000000000,
 000000000000000,
 000000000000000,
 000000000000000,
 000000000000000,
 000000000000000,
 000000000000000,
 000000000000000,
 000000000000000,
 000000000000000,
 000000000000000,
 000000000000000,
 000000000000000,
 000000000000000,
 000000000000000,
 000000000000000,
 000000000000000,
 000000000000000,
 000000000000000,
 000000000000000,
 000000000000000,
 000000000000000,
 000000000000000,
 000000000000000,
 000000000000000,
 000000000000000,
 000000000000000,
 000000000000000,
 000000000000000,
 000000000000000,
 000000000000000,
 000000000000000,
 000000000000000,
 000000000000000,
 000000000000000,
 000000000000000,
 000000000000000,
 000000000000000,
 000000000000000,
 000000000000000,
 000000000000000,
 000000000000000,
 000000000000000,
 000000000000000,
 000000000000000,
 000000000000000,
 000000000000000,
 000000000000000;