DEPTH = 4096;
WIDTH = 15;
ADDRESS_RADIX = UNS;
DATA_RADIX = BIN;
CONTENT
BEGIN

0    : 011000000000000;
1    : 011000000000000;
2    : 011000000000000;
3    : 011000000000000;
4    : 010000000000000;
5    : 010000000000000;
6    : 010000000000000;
7    : 010000000000000;
8    : 010000000000000;
9    : 011000000000000;
10   : 011000000000000;
11   : 011000000000000;
12   : 011000000000000;
13   : 011000000000000;
14   : 010000000000000;
15   : 011000000000000;
16   : 011000000000000;
17   : 011000000000000;
18   : 011000000000000;
19   : 010000000000000;
20   : 011000000000000;
21   : 011000000000000;
22   : 011000000000000;
23   : 011000000000000;
24   : 010000000000000;
25   : 011000000000000;
26   : 010000000000000;
27   : 010000000000000;
28   : 011000000000000;
29   : 010000000000000;
30   : 011000000000000;
31   : 011000000000000;
32   : 010000000000000;
33   : 010000000000000;
34   : 011000000000000;
35   : 010000000000000;
36   : 011000000000000;
37   : 010000000000000;
38   : 010000000000000;
39   : 011000000000000;
40   : 010000000000000;
41   : 010000000000000;
42   : 011000000000000;
43   : 011000000000000;
44   : 010000000000000;
45   : 011000000000000;
46   : 010000000000000;
47   : 010000000000000;
48   : 010000000000000;
49   : 010000000000000;
50   : 010000000000000;
51   : 011000000000000;
52   : 011000000000000;
53   : 011000000000000;
54   : 011000000000000;
55   : 011000000000000;
56   : 010000000000000;
57   : 010000000000000;
58   : 010000000000000;
59   : 011000000000000;
60   : 011000000000000;
61   : 010000000000000;
62   : 010000000000000;
63   : 011000000000000;
64   : 010000000000000;
65   : 011000000000000;
66   : 011000000000000;
67   : 010000000000000;
68   : 010000000000000;
69   : 010000000000000;
70   : 010000000000000;
71   : 011000000000000;
72   : 011000000000000;
73   : 011000000000000;
74   : 011000000000000;
75   : 010000000000000;
76   : 010000000000000;
77   : 011000000000000;
78   : 011000000000000;
79   : 011000000000000;
80   : 011000000000000;
81   : 011000000000000;
82   : 011000000000000;
83   : 011000000000000;
84   : 011000000000000;
85   : 011000000000000;
86   : 011000000000000;
87   : 010000000000000;
88   : 011000000000000;
89   : 010000000000000;
90   : 011000000000000;
91   : 010000000000000;
92   : 010000000000000;
93   : 010000000000000;
94   : 010000000000000;
95   : 010000000000000;
96   : 010000000000000;
97   : 011000000000000;
98   : 010000000000000;
99   : 010000000000000;
100  : 011000000000000;
101  : 011000000000000;
102  : 010000000000000;
103  : 010000000000000;
104  : 010000000000000;
105  : 010000000000000;
106  : 010000000000000;
107  : 011000000000000;
108  : 010000000000000;
109  : 010000000000000;
110  : 010000000000000;
111  : 011000000000000;
112  : 011000000000000;
113  : 011000000000000;
114  : 011000000000000;
115  : 011000000000000;
116  : 010000000000000;
117  : 010000000000000;
118  : 010000000000000;
119  : 010000000000000;
120  : 010000000000000;
121  : 010000000000000;
122  : 010000000000000;
123  : 011000000000000;
124  : 010000000000000;
125  : 010000000000000;
126  : 010000000000000;
127  : 011000000000000;
128  : 010000000000000;
129  : 010000000000000;
130  : 010000000000000;
131  : 010000000000000;
132  : 011000000000000;
133  : 011000000000000;
134  : 011000000000000;
135  : 011000000000000;
136  : 011000000000000;
137  : 010000000000000;
138  : 011000000000000;
139  : 010000000000000;
140  : 011000000000000;
141  : 011000000000000;
142  : 011000000000000;
143  : 010000000000000;
144  : 010000000000000;
145  : 010000000000000;
146  : 010000000000000;
147  : 010000000000000;
148  : 011000000000000;
149  : 011000000000000;
150  : 011000000000000;
151  : 010000000000000;
152  : 010000000000000;
153  : 011000000000000;
154  : 011000000000000;
155  : 010000000000000;
156  : 010000000000000;
157  : 011000000000000;
158  : 010000000000000;
159  : 010000000000000;
160  : 010000000000000;
161  : 011000000000000;
162  : 010000000000000;
163  : 011000000000000;
164  : 010000000000000;
165  : 011000000000000;
166  : 011000000000000;
167  : 011000000000000;
168  : 011000000000000;
169  : 011000000000000;
170  : 011000000000000;
171  : 011000000000000;
172  : 010000000000000;
173  : 010000000000000;
174  : 010000000000000;
175  : 011000000000000;
176  : 010000000000000;
177  : 010000000000000;
178  : 010000000000000;
179  : 010000000000000;
180  : 010000000000000;
181  : 010000000000000;
182  : 010000000000000;
183  : 011000000000000;
184  : 011000000000000;
185  : 010000000000000;
186  : 011000000000000;
187  : 010000000000000;
188  : 011000000000000;
189  : 010000000000000;
190  : 010000000000000;
191  : 010000000000000;
192  : 010000000000000;
193  : 011000000000000;
194  : 011000000000000;
195  : 010000000000000;
196  : 010000000000000;
197  : 011000000000000;
198  : 010000000000000;
199  : 010000000000000;
200  : 011000000000000;
201  : 011000000000000;
202  : 010000000000000;
203  : 010000000000000;
204  : 011000000000000;
205  : 011000000000000;
206  : 010000000000000;
207  : 010000000000000;
208  : 011000000000000;
209  : 011000000000000;
210  : 010000000000000;
211  : 010000000000000;
212  : 011000000000000;
213  : 011000000000000;
214  : 011000000000000;
215  : 010000000000000;
216  : 011000000000000;
217  : 010000000000000;
218  : 010000000000000;
219  : 010000000000000;
220  : 011000000000000;
221  : 011000000000000;
222  : 011000000000000;
223  : 010000000000000;
224  : 010000000000000;
225  : 011000000000000;
226  : 011000000000000;
227  : 010000000000000;
228  : 011000000000000;
229  : 011000000000000;
230  : 010000000000000;
231  : 011000000000000;
232  : 011000000000000;
233  : 011000000000000;
234  : 010000000000000;
235  : 010000000000000;
236  : 010000000000000;
237  : 010000000000000;
238  : 011000000000000;
239  : 011000000000000;
240  : 010000000000000;
241  : 010000000000000;
242  : 010000000000000;
243  : 011000000000000;
244  : 011000000000000;
245  : 010000000000000;
246  : 010000000000000;
247  : 010000000000000;
248  : 010000000000000;
249  : 010000000000000;
250  : 011000000000000;
251  : 011000000000000;
252  : 011000000000000;
253  : 011000000000000;
254  : 010000000000000;
255  : 010000000000000;
256  : 011000000000000;
257  : 010000000000000;
258  : 011000000000000;
259  : 011000000000000;
260  : 011000000000000;
261  : 010000000000000;
262  : 010000000000000;
263  : 010000000000000;
264  : 010000000000000;
265  : 011000000000000;
266  : 010000000000000;
267  : 011000000000000;
268  : 010000000000000;
269  : 010000000000000;
270  : 011000000000000;
271  : 011000000000000;
272  : 010000000000000;
273  : 011000000000000;
274  : 011000000000000;
275  : 011000000000000;
276  : 010000000000000;
277  : 011000000000000;
278  : 010000000000000;
279  : 010000000000000;
280  : 010000000000000;
281  : 010000000000000;
282  : 011000000000000;
283  : 011000000000000;
284  : 011000000000000;
285  : 011000000000000;
286  : 010000000000000;
287  : 010000000000000;
288  : 010000000000000;
289  : 011000000000000;
290  : 011000000000000;
291  : 010000000000000;
292  : 010000000000000;
293  : 010000000000000;
294  : 011000000000000;
295  : 010000000000000;
296  : 011000000000000;
297  : 011000000000000;
298  : 010000000000000;
299  : 011000000000000;
300  : 011000000000000;
301  : 011000000000000;
302  : 011000000000000;
303  : 011000000000000;
304  : 010000000000000;
305  : 010000000000000;
306  : 010000000000000;
307  : 010000000000000;
308  : 010000000000000;
309  : 011000000000000;
310  : 011000000000000;
311  : 011000000000000;
312  : 011000000000000;
313  : 011000000000000;
314  : 011000000000000;
315  : 011000000000000;
316  : 010000000000000;
317  : 010000000000000;
318  : 010000000000000;
319  : 010000000000000;
320  : 010000000000000;
321  : 011000000000000;
322  : 011000000000000;
323  : 011000000000000;
324  : 011000000000000;
325  : 011000000000000;
326  : 011000000000000;
327  : 010000000000000;
328  : 010000000000000;
329  : 010000000000000;
330  : 011000000000000;
331  : 010000000000000;
332  : 011000000000000;
333  : 011000000000000;
334  : 010000000000000;
335  : 011000000000000;
336  : 010000000000000;
337  : 010000000000000;
338  : 011000000000000;
339  : 011000000000000;
340  : 011000000000000;
341  : 011000000000000;
342  : 010000000000000;
343  : 011000000000000;
344  : 011000000000000;
345  : 011000000000000;
346  : 011000000000000;
347  : 011000000000000;
348  : 011000000000000;
349  : 010000000000000;
350  : 011000000000000;
351  : 010000000000000;
352  : 011000000000000;
353  : 010000000000000;
354  : 010000000000000;
355  : 010000000000000;
356  : 011000000000000;
357  : 011000000000000;
358  : 011000000000000;
359  : 010000000000000;
360  : 010000000000000;
361  : 010000000000000;
362  : 010000000000000;
363  : 010000000000000;
364  : 011000000000000;
365  : 011000000000000;
366  : 010000000000000;
367  : 010000000000000;
368  : 011000000000000;
369  : 011000000000000;
370  : 011000000000000;
371  : 011000000000000;
372  : 011000000000000;
373  : 010000000000000;
374  : 010000000000000;
375  : 010000000000000;
376  : 011000000000000;
377  : 010000000000000;
378  : 010000000000000;
379  : 010000000000000;
380  : 011000000000000;
381  : 011000000000000;
382  : 011000000000000;
383  : 011000000000000;
384  : 010000000000000;
385  : 011000000000000;
386  : 011000000000000;
387  : 011000000000000;
388  : 011000000000000;
389  : 011000000000000;
390  : 011000000000000;
391  : 011000000000000;
392  : 010000000000000;
393  : 011000000000000;
394  : 011000000000000;
395  : 011000000000000;
396  : 011000000000000;
397  : 011000000000000;
398  : 010000000000000;
399  : 011000000000000;
400  : 011000000000000;
401  : 011000000000000;
402  : 011000000000000;
403  : 010000000000000;
404  : 010000000000000;
405  : 011000000000000;
406  : 011000000000000;
407  : 011000000000000;
408  : 011000000000000;
409  : 011000000000000;
410  : 010000000000000;
411  : 011000000000000;
412  : 010000000000000;
413  : 010000000000000;
414  : 010000000000000;
415  : 010000000000000;
416  : 010000000000000;
417  : 011000000000000;
418  : 011000000000000;
419  : 011000000000000;
420  : 011000000000000;
421  : 010000000000000;
422  : 010000000000000;
423  : 011000000000000;
424  : 011000000000000;
425  : 011000000000000;
426  : 010000000000000;
427  : 011000000000000;
428  : 011000000000000;
429  : 011000000000000;
430  : 011000000000000;
431  : 010000000000000;
432  : 010000000000000;
433  : 011000000000000;
434  : 011000000000000;
435  : 010000000000000;
436  : 010000000000000;
437  : 011000000000000;
438  : 010000000000000;
439  : 011000000000000;
440  : 011000000000000;
441  : 011000000000000;
442  : 011000000000000;
443  : 010000000000000;
444  : 010000000000000;
445  : 010000000000000;
446  : 010000000000000;
447  : 011000000000000;
448  : 010000000000000;
449  : 011000000000000;
450  : 011000000000000;
451  : 010000000000000;
452  : 010000000000000;
453  : 010000000000000;
454  : 010000000000000;
455  : 010000000000000;
456  : 010000000000000;
457  : 010000000000000;
458  : 011000000000000;
459  : 010000000000000;
460  : 010000000000000;
461  : 010000000000000;
462  : 011000000000000;
463  : 010000000000000;
464  : 010000000000000;
465  : 011000000000000;
466  : 010000000000000;
467  : 011000000000000;
468  : 011000000000000;
469  : 011000000000000;
470  : 010000000000000;
471  : 011000000000000;
472  : 011000000000000;
473  : 010000000000000;
474  : 010000000000000;
475  : 011000000000000;
476  : 011000000000000;
477  : 011000000000000;
478  : 010000000000000;
479  : 011000000000000;
480  : 011000000000000;
481  : 010000000000000;
482  : 010000000000000;
483  : 011000000000000;
484  : 011000000000000;
485  : 011000000000000;
486  : 011000000000000;
487  : 010000000000000;
488  : 010000000000000;
489  : 010000000000000;
490  : 010000000000000;
491  : 011000000000000;
492  : 011000000000000;
493  : 011000000000000;
494  : 011000000000000;
495  : 010000000000000;
496  : 010000000000000;
497  : 011000000000000;
498  : 011000000000000;
499  : 011000000000000;
500  : 011000000000000;
501  : 011000000000000;
502  : 011000000000000;
503  : 011000000000000;
504  : 011000000000000;
505  : 010000000000000;
506  : 011000000000000;
507  : 011000000000000;
508  : 011000000000000;
509  : 010000000000000;
510  : 011000000000000;
511  : 011000000000000;
512  : 011000000000000;
513  : 011000000000000;
514  : 011000000000000;
515  : 011000000000000;
516  : 011000000000000;
517  : 010000000000000;
518  : 011000000000000;
519  : 011000000000000;
520  : 010000000000000;
521  : 010000000000000;
522  : 010000000000000;
523  : 010000000000000;
524  : 010000000000000;
525  : 010000000000000;
526  : 011000000000000;
527  : 011000000000000;
528  : 011000000000000;
529  : 010000000000000;
530  : 011000000000000;
531  : 010000000000000;
532  : 011000000000000;
533  : 011000000000000;
534  : 011000000000000;
535  : 011000000000000;
536  : 011000000000000;
537  : 010000000000000;
538  : 010000000000000;
539  : 010000000000000;
540  : 010000000000000;
541  : 011000000000000;
542  : 010000000000000;
543  : 010000000000000;
544  : 011000000000000;
545  : 011000000000000;
546  : 010000000000000;
547  : 011000000000000;
548  : 010000000000000;
549  : 010000000000000;
550  : 010000000000000;
551  : 011000000000000;
552  : 010000000000000;
553  : 010000000000000;
554  : 010000000000000;
555  : 011000000000000;
556  : 011000000000000;
557  : 011000000000000;
558  : 011000000000000;
559  : 010000000000000;
560  : 011000000000000;
561  : 011000000000000;
562  : 011000000000000;
563  : 011000000000000;
564  : 010000000000000;
565  : 010000000000000;
566  : 010000000000000;
567  : 010000000000000;
568  : 011000000000000;
569  : 011000000000000;
570  : 011000000000000;
571  : 011000000000000;
572  : 010000000000000;
573  : 011000000000000;
574  : 010000000000000;
575  : 010000000000000;
576  : 011000000000000;
577  : 011000000000000;
578  : 011000000000000;
579  : 011000000000000;
580  : 011000000000000;
581  : 011000000000000;
582  : 011000000000000;
583  : 011000000000000;
584  : 010000000000000;
585  : 011000000000000;
586  : 011000000000000;
587  : 010000000000000;
588  : 010000000000000;
589  : 011000000000000;
590  : 011000000000000;
591  : 010000000000000;
592  : 010000000000000;
593  : 011000000000000;
594  : 010000000000000;
595  : 010000000000000;
596  : 011000000000000;
597  : 011000000000000;
598  : 010000000000000;
599  : 011000000000000;
600  : 010000000000000;
601  : 010000000000000;
602  : 010000000000000;
603  : 010000000000000;
604  : 011000000000000;
605  : 011000000000000;
606  : 010000000000000;
607  : 010000000000000;
608  : 011000000000000;
609  : 010000000000000;
610  : 011000000000000;
611  : 010000000000000;
612  : 010000000000000;
613  : 011000000000000;
614  : 010000000000000;
615  : 011000000000000;
616  : 011000000000000;
617  : 011000000000000;
618  : 011000000000000;
619  : 011000000000000;
620  : 010000000000000;
621  : 011000000000000;
622  : 010000000000000;
623  : 010000000000000;
624  : 010000000000000;
625  : 010000000000000;
626  : 010000000000000;
627  : 010000000000000;
628  : 011000000000000;
629  : 010000000000000;
630  : 010000000000000;
631  : 010000000000000;
632  : 011000000000000;
633  : 010000000000000;
634  : 011000000000000;
635  : 011000000000000;
636  : 011000000000000;
637  : 010000000000000;
638  : 011000000000000;
639  : 010000000000000;
640  : 011000000000000;
641  : 011000000000000;
642  : 011000000000000;
643  : 011000000000000;
644  : 010000000000000;
645  : 011000000000000;
646  : 011000000000000;
647  : 011000000000000;
648  : 010000000000000;
649  : 011000000000000;
650  : 011000000000000;
651  : 011000000000000;
652  : 011000000000000;
653  : 011000000000000;
654  : 011000000000000;
655  : 010000000000000;
656  : 011000000000000;
657  : 011000000000000;
658  : 011000000000000;
659  : 010000000000000;
660  : 011000000000000;
661  : 011000000000000;
662  : 011000000000000;
663  : 010000000000000;
664  : 010000000000000;
665  : 010000000000000;
666  : 010000000000000;
667  : 010000000000000;
668  : 011000000000000;
669  : 010000000000000;
670  : 010000000000000;
671  : 011000000000000;
672  : 011000000000000;
673  : 010000000000000;
674  : 010000000000000;
675  : 010000000000000;
676  : 011000000000000;
677  : 011000000000000;
678  : 010000000000000;
679  : 010000000000000;
680  : 010000000000000;
681  : 010000000000000;
682  : 010000000000000;
683  : 010000000000000;
684  : 010000000000000;
685  : 011000000000000;
686  : 010000000000000;
687  : 011000000000000;
688  : 011000000000000;
689  : 011000000000000;
690  : 010000000000000;
691  : 010000000000000;
692  : 011000000000000;
693  : 011000000000000;
694  : 010000000000000;
695  : 010000000000000;
696  : 010000000000000;
697  : 011000000000000;
698  : 011000000000000;
699  : 010000000000000;
700  : 010000000000000;
701  : 010000000000000;
702  : 011000000000000;
703  : 010000000000000;
704  : 010000000000000;
705  : 010000000000000;
706  : 010000000000000;
707  : 011000000000000;
708  : 011000000000000;
709  : 010000000000000;
710  : 010000000000000;
711  : 011000000000000;
712  : 011000000000000;
713  : 010000000000000;
714  : 010000000000000;
715  : 010000000000000;
716  : 011000000000000;
717  : 010000000000000;
718  : 010000000000000;
719  : 010000000000000;
720  : 011000000000000;
721  : 010000000000000;
722  : 010000000000000;
723  : 011000000000000;
724  : 010000000000000;
725  : 010000000000000;
726  : 010000000000000;
727  : 010000000000000;
728  : 010000000000000;
729  : 011000000000000;
730  : 011000000000000;
731  : 011000000000000;
732  : 011000000000000;
733  : 011000000000000;
734  : 011000000000000;
735  : 011000000000000;
736  : 011000000000000;
737  : 011000000000000;
738  : 011000000000000;
739  : 010000000000000;
740  : 010000000000000;
741  : 010000000000000;
742  : 010000000000000;
743  : 010000000000000;
744  : 011000000000000;
745  : 010000000000000;
746  : 011000000000000;
747  : 011000000000000;
748  : 011000000000000;
749  : 010000000000000;
750  : 010000000000000;
751  : 010000000000000;
752  : 010000000000000;
753  : 010000000000000;
754  : 011000000000000;
755  : 011000000000000;
756  : 010000000000000;
757  : 010000000000000;
758  : 010000000000000;
759  : 011000000000000;
760  : 011000000000000;
761  : 010000000000000;
762  : 011000000000000;
763  : 011000000000000;
764  : 010000000000000;
765  : 010000000000000;
766  : 010000000000000;
767  : 011000000000000;
768  : 011000000000000;
769  : 011000000000000;
770  : 010000000000000;
771  : 011000000000000;
772  : 011000000000000;
773  : 010000000000000;
774  : 011000000000000;
775  : 010000000000000;
776  : 010000000000000;
777  : 010000000000000;
778  : 010000000000000;
779  : 011000000000000;
780  : 010000000000000;
781  : 010000000000000;
782  : 010000000000000;
783  : 010000000000000;
784  : 010000000000000;
785  : 011000000000000;
786  : 010000000000000;
787  : 011000000000000;
788  : 011000000000000;
789  : 011000000000000;
790  : 011000000000000;
791  : 011000000000000;
792  : 011000000000000;
793  : 010000000000000;
794  : 010000000000000;
795  : 011000000000000;
796  : 011000000000000;
797  : 011000000000000;
798  : 010000000000000;
799  : 011000000000000;
800  : 010000000000000;
801  : 010000000000000;
802  : 011000000000000;
803  : 010000000000000;
804  : 010000000000000;
805  : 011000000000000;
806  : 011000000000000;
807  : 010000000000000;
808  : 011000000000000;
809  : 010000000000000;
810  : 010000000000000;
811  : 011000000000000;
812  : 010000000000000;
813  : 011000000000000;
814  : 011000000000000;
815  : 010000000000000;
816  : 010000000000000;
817  : 010000000000000;
818  : 011000000000000;
819  : 010000000000000;
820  : 011000000000000;
821  : 011000000000000;
822  : 011000000000000;
823  : 011000000000000;
824  : 010000000000000;
825  : 010000000000000;
826  : 011000000000000;
827  : 011000000000000;
828  : 010000000000000;
829  : 011000000000000;
830  : 011000000000000;
831  : 010000000000000;
832  : 011000000000000;
833  : 010000000000000;
834  : 011000000000000;
835  : 011000000000000;
836  : 011000000000000;
837  : 011000000000000;
838  : 011000000000000;
839  : 011000000000000;
840  : 011000000000000;
841  : 011000000000000;
842  : 010000000000000;
843  : 010000000000000;
844  : 010000000000000;
845  : 011000000000000;
846  : 011000000000000;
847  : 011000000000000;
848  : 011000000000000;
849  : 010000000000000;
850  : 010000000000000;
851  : 010000000000000;
852  : 011000000000000;
853  : 011000000000000;
854  : 011000000000000;
855  : 010000000000000;
856  : 010000000000000;
857  : 011000000000000;
858  : 011000000000000;
859  : 010000000000000;
860  : 011000000000000;
861  : 010000000000000;
862  : 010000000000000;
863  : 010000000000000;
864  : 010000000000000;
865  : 010000000000000;
866  : 010000000000000;
867  : 011000000000000;
868  : 010000000000000;
869  : 011000000000000;
870  : 010000000000000;
871  : 011000000000000;
872  : 010000000000000;
873  : 010000000000000;
874  : 010000000000000;
875  : 011000000000000;
876  : 010000000000000;
877  : 010000000000000;
878  : 011000000000000;
879  : 011000000000000;
880  : 011000000000000;
881  : 011000000000000;
882  : 011000000000000;
883  : 010000000000000;
884  : 011000000000000;
885  : 011000000000000;
886  : 011000000000000;
887  : 011000000000000;
888  : 011000000000000;
889  : 011000000000000;
890  : 011000000000000;
891  : 011000000000000;
892  : 010000000000000;
893  : 010000000000000;
894  : 010000000000000;
895  : 011000000000000;
896  : 010000000000000;
897  : 010000000000000;
898  : 011000000000000;
899  : 010000000000000;
900  : 010000000000000;
901  : 011000000000000;
902  : 010000000000000;
903  : 011000000000000;
904  : 010000000000000;
905  : 010000000000000;
906  : 010000000000000;
907  : 010000000000000;
908  : 010000000000000;
909  : 011000000000000;
910  : 011000000000000;
911  : 010000000000000;
912  : 010000000000000;
913  : 010000000000000;
914  : 011000000000000;
915  : 010000000000000;
916  : 011000000000000;
917  : 011000000000000;
918  : 011000000000000;
919  : 011000000000000;
920  : 010000000000000;
921  : 011000000000000;
922  : 010000000000000;
923  : 010000000000000;
924  : 011000000000000;
925  : 011000000000000;
926  : 011000000000000;
927  : 011000000000000;
928  : 011000000000000;
929  : 011000000000000;
930  : 011000000000000;
931  : 011000000000000;
932  : 011000000000000;
933  : 010000000000000;
934  : 010000000000000;
935  : 011000000000000;
936  : 011000000000000;
937  : 011000000000000;
938  : 011000000000000;
939  : 010000000000000;
940  : 010000000000000;
941  : 011000000000000;
942  : 011000000000000;
943  : 011000000000000;
944  : 011000000000000;
945  : 010000000000000;
946  : 010000000000000;
947  : 010000000000000;
948  : 011000000000000;
949  : 010000000000000;
950  : 010000000000000;
951  : 010000000000000;
952  : 011000000000000;
953  : 010000000000000;
954  : 010000000000000;
955  : 010000000000000;
956  : 010000000000000;
957  : 010000000000000;
958  : 011000000000000;
959  : 010000000000000;
960  : 010000000000000;
961  : 010000000000000;
962  : 010000000000000;
963  : 010000000000000;
964  : 010000000000000;
965  : 010000000000000;
966  : 010000000000000;
967  : 011000000000000;
968  : 010000000000000;
969  : 010000000000000;
970  : 011000000000000;
971  : 010000000000000;
972  : 010000000000000;
973  : 010000000000000;
974  : 011000000000000;
975  : 011000000000000;
976  : 011000000000000;
977  : 010000000000000;
978  : 010000000000000;
979  : 011000000000000;
980  : 010000000000000;
981  : 010000000000000;
982  : 010000000000000;
983  : 010000000000000;
984  : 010000000000000;
985  : 011000000000000;
986  : 010000000000000;
987  : 011000000000000;
988  : 010000000000000;
989  : 011000000000000;
990  : 010000000000000;
991  : 010000000000000;
992  : 011000000000000;
993  : 011000000000000;
994  : 010000000000000;
995  : 010000000000000;
996  : 011000000000000;
997  : 011000000000000;
998  : 010000000000000;
999  : 010000000000000;
1000 : 011000000000000;
1001 : 011000000000000;
1002 : 011000000000000;
1003 : 011000000000000;
1004 : 010000000000000;
1005 : 010000000000000;
1006 : 010000000000000;
1007 : 011000000000000;
1008 : 011000000000000;
1009 : 010000000000000;
1010 : 011000000000000;
1011 : 011000000000000;
1012 : 010000000000000;
1013 : 010000000000000;
1014 : 010000000000000;
1015 : 011000000000000;
1016 : 010000000000000;
1017 : 010000000000000;
1018 : 010000000000000;
1019 : 011000000000000;
1020 : 011000000000000;
1021 : 010000000000000;
1022 : 011000000000000;
1023 : 011000000000000;
1024 : 011000000000000;
1025 : 010000000000000;
1026 : 010000000000000;
1027 : 010000000000000;
1028 : 010000000000000;
1029 : 010000000000000;
1030 : 011000000000000;
1031 : 011000000000000;
1032 : 011000000000000;
1033 : 011000000000000;
1034 : 011000000000000;
1035 : 010000000000000;
1036 : 010000000000000;
1037 : 011000000000000;
1038 : 010000000000000;
1039 : 010000000000000;
1040 : 011000000000000;
1041 : 011000000000000;
1042 : 011000000000000;
1043 : 011000000000000;
1044 : 010000000000000;
1045 : 011000000000000;
1046 : 010000000000000;
1047 : 010000000000000;
1048 : 010000000000000;
1049 : 011000000000000;
1050 : 011000000000000;
1051 : 010000000000000;
1052 : 010000000000000;
1053 : 010000000000000;
1054 : 011000000000000;
1055 : 011000000000000;
1056 : 011000000000000;
1057 : 010000000000000;
1058 : 010000000000000;
1059 : 010000000000000;
1060 : 010000000000000;
1061 : 011000000000000;
1062 : 010000000000000;
1063 : 011000000000000;
1064 : 010000000000000;
1065 : 011000000000000;
1066 : 010000000000000;
1067 : 011000000000000;
1068 : 011000000000000;
1069 : 010000000000000;
1070 : 011000000000000;
1071 : 011000000000000;
1072 : 011000000000000;
1073 : 011000000000000;
1074 : 010000000000000;
1075 : 011000000000000;
1076 : 011000000000000;
1077 : 011000000000000;
1078 : 010000000000000;
1079 : 010000000000000;
1080 : 010000000000000;
1081 : 010000000000000;
1082 : 011000000000000;
1083 : 010000000000000;
1084 : 010000000000000;
1085 : 010000000000000;
1086 : 011000000000000;
1087 : 010000000000000;
1088 : 010000000000000;
1089 : 010000000000000;
1090 : 011000000000000;
1091 : 010000000000000;
1092 : 011000000000000;
1093 : 011000000000000;
1094 : 010000000000000;
1095 : 010000000000000;
1096 : 010000000000000;
1097 : 011000000000000;
1098 : 010000000000000;
1099 : 010000000000000;
1100 : 010000000000000;
1101 : 010000000000000;
1102 : 010000000000000;
1103 : 010000000000000;
1104 : 010000000000000;
1105 : 011000000000000;
1106 : 010000000000000;
1107 : 011000000000000;
1108 : 011000000000000;
1109 : 010000000000000;
1110 : 011000000000000;
1111 : 011000000000000;
1112 : 011000000000000;
1113 : 011000000000000;
1114 : 010000000000000;
1115 : 011000000000000;
1116 : 010000000000000;
1117 : 010000000000000;
1118 : 011000000000000;
1119 : 011000000000000;
1120 : 010000000000000;
1121 : 010000000000000;
1122 : 010000000000000;
1123 : 010000000000000;
1124 : 011000000000000;
1125 : 011000000000000;
1126 : 010000000000000;
1127 : 010000000000000;
1128 : 011000000000000;
1129 : 011000000000000;
1130 : 011000000000000;
1131 : 010000000000000;
1132 : 010000000000000;
1133 : 010000000000000;
1134 : 011000000000000;
1135 : 010000000000000;
1136 : 010000000000000;
1137 : 010000000000000;
1138 : 010000000000000;
1139 : 010000000000000;
1140 : 011000000000000;
1141 : 010000000000000;
1142 : 011000000000000;
1143 : 011000000000000;
1144 : 010000000000000;
1145 : 011000000000000;
1146 : 011000000000000;
1147 : 011000000000000;
1148 : 011000000000000;
1149 : 011000000000000;
1150 : 011000000000000;
1151 : 011000000000000;
1152 : 011000000000000;
1153 : 011000000000000;
1154 : 011000000000000;
1155 : 010000000000000;
1156 : 011000000000000;
1157 : 011000000000000;
1158 : 011000000000000;
1159 : 011000000000000;
1160 : 011000000000000;
1161 : 010000000000000;
1162 : 011000000000000;
1163 : 011000000000000;
1164 : 011000000000000;
1165 : 011000000000000;
1166 : 011000000000000;
1167 : 011000000000000;
1168 : 011000000000000;
1169 : 011000000000000;
1170 : 010000000000000;
1171 : 010000000000000;
1172 : 011000000000000;
1173 : 011000000000000;
1174 : 011000000000000;
1175 : 011000000000000;
1176 : 011000000000000;
1177 : 010000000000000;
1178 : 010000000000000;
1179 : 010000000000000;
1180 : 010000000000000;
1181 : 010000000000000;
1182 : 011000000000000;
1183 : 011000000000000;
1184 : 010000000000000;
1185 : 011000000000000;
1186 : 011000000000000;
1187 : 010000000000000;
1188 : 010000000000000;
1189 : 011000000000000;
1190 : 010000000000000;
1191 : 010000000000000;
1192 : 010000000000000;
1193 : 011000000000000;
1194 : 011000000000000;
1195 : 011000000000000;
1196 : 011000000000000;
1197 : 011000000000000;
1198 : 011000000000000;
1199 : 010000000000000;
1200 : 010000000000000;
1201 : 010000000000000;
1202 : 011000000000000;
1203 : 010000000000000;
1204 : 011000000000000;
1205 : 011000000000000;
1206 : 011000000000000;
1207 : 011000000000000;
1208 : 011000000000000;
1209 : 010000000000000;
1210 : 010000000000000;
1211 : 010000000000000;
1212 : 010000000000000;
1213 : 011000000000000;
1214 : 011000000000000;
1215 : 011000000000000;
1216 : 011000000000000;
1217 : 011000000000000;
1218 : 011000000000000;
1219 : 011000000000000;
1220 : 011000000000000;
1221 : 010000000000000;
1222 : 011000000000000;
1223 : 011000000000000;
1224 : 011000000000000;
1225 : 011000000000000;
1226 : 010000000000000;
1227 : 010000000000000;
1228 : 011000000000000;
1229 : 010000000000000;
1230 : 011000000000000;
1231 : 010000000000000;
1232 : 011000000000000;
1233 : 010000000000000;
1234 : 010000000000000;
1235 : 010000000000000;
1236 : 011000000000000;
1237 : 010000000000000;
1238 : 010000000000000;
1239 : 011000000000000;
1240 : 010000000000000;
1241 : 010000000000000;
1242 : 010000000000000;
1243 : 010000000000000;
1244 : 010000000000000;
1245 : 011000000000000;
1246 : 011000000000000;
1247 : 011000000000000;
1248 : 010000000000000;
1249 : 011000000000000;
1250 : 010000000000000;
1251 : 010000000000000;
1252 : 011000000000000;
1253 : 010000000000000;
1254 : 011000000000000;
1255 : 011000000000000;
1256 : 010000000000000;
1257 : 011000000000000;
1258 : 011000000000000;
1259 : 011000000000000;
1260 : 011000000000000;
1261 : 010000000000000;
1262 : 010000000000000;
1263 : 010000000000000;
1264 : 010000000000000;
1265 : 010000000000000;
1266 : 010000000000000;
1267 : 011000000000000;
1268 : 011000000000000;
1269 : 011000000000000;
1270 : 011000000000000;
1271 : 010000000000000;
1272 : 010000000000000;
1273 : 011000000000000;
1274 : 011000000000000;
1275 : 011000000000000;
1276 : 011000000000000;
1277 : 011000000000000;
1278 : 011000000000000;
1279 : 011000000000000;
1280 : 011000000000000;
1281 : 011000000000000;
1282 : 011000000000000;
1283 : 011000000000000;
1284 : 011000000000000;
1285 : 011000000000000;
1286 : 011000000000000;
1287 : 011000000000000;
1288 : 011000000000000;
1289 : 010000000000000;
1290 : 011000000000000;
1291 : 010000000000000;
1292 : 010000000000000;
1293 : 010000000000000;
1294 : 011000000000000;
1295 : 010000000000000;
1296 : 010000000000000;
1297 : 010000000000000;
1298 : 010000000000000;
1299 : 010000000000000;
1300 : 010000000000000;
1301 : 010000000000000;
1302 : 010000000000000;
1303 : 010000000000000;
1304 : 010000000000000;
1305 : 010000000000000;
1306 : 010000000000000;
1307 : 010000000000000;
1308 : 010000000000000;
1309 : 011000000000000;
1310 : 011000000000000;
1311 : 011000000000000;
1312 : 010000000000000;
1313 : 011000000000000;
1314 : 011000000000000;
1315 : 010000000000000;
1316 : 011000000000000;
1317 : 011000000000000;
1318 : 011000000000000;
1319 : 010000000000000;
1320 : 011000000000000;
1321 : 011000000000000;
1322 : 011000000000000;
1323 : 011000000000000;
1324 : 010000000000000;
1325 : 010000000000000;
1326 : 010000000000000;
1327 : 010000000000000;
1328 : 011000000000000;
1329 : 010000000000000;
1330 : 010000000000000;
1331 : 011000000000000;
1332 : 011000000000000;
1333 : 011000000000000;
1334 : 011000000000000;
1335 : 010000000000000;
1336 : 010000000000000;
1337 : 010000000000000;
1338 : 010000000000000;
1339 : 010000000000000;
1340 : 010000000000000;
1341 : 011000000000000;
1342 : 011000000000000;
1343 : 010000000000000;
1344 : 010000000000000;
1345 : 011000000000000;
1346 : 010000000000000;
1347 : 011000000000000;
1348 : 010000000000000;
1349 : 011000000000000;
1350 : 011000000000000;
1351 : 011000000000000;
1352 : 011000000000000;
1353 : 010000000000000;
1354 : 010000000000000;
1355 : 010000000000000;
1356 : 011000000000000;
1357 : 010000000000000;
1358 : 010000000000000;
1359 : 011000000000000;
1360 : 010000000000000;
1361 : 011000000000000;
1362 : 011000000000000;
1363 : 011000000000000;
1364 : 010000000000000;
1365 : 011000000000000;
1366 : 011000000000000;
1367 : 011000000000000;
1368 : 011000000000000;
1369 : 010000000000000;
1370 : 010000000000000;
1371 : 010000000000000;
1372 : 010000000000000;
1373 : 010000000000000;
1374 : 011000000000000;
1375 : 011000000000000;
1376 : 011000000000000;
1377 : 010000000000000;
1378 : 011000000000000;
1379 : 011000000000000;
1380 : 010000000000000;
1381 : 010000000000000;
1382 : 010000000000000;
1383 : 010000000000000;
1384 : 010000000000000;
1385 : 011000000000000;
1386 : 011000000000000;
1387 : 011000000000000;
1388 : 011000000000000;
1389 : 010000000000000;
1390 : 010000000000000;
1391 : 010000000000000;
1392 : 010000000000000;
1393 : 010000000000000;
1394 : 010000000000000;
1395 : 011000000000000;
1396 : 011000000000000;
1397 : 011000000000000;
1398 : 010000000000000;
1399 : 010000000000000;
1400 : 010000000000000;
1401 : 011000000000000;
1402 : 010000000000000;
1403 : 011000000000000;
1404 : 010000000000000;
1405 : 011000000000000;
1406 : 010000000000000;
1407 : 010000000000000;
1408 : 010000000000000;
1409 : 010000000000000;
1410 : 011000000000000;
1411 : 010000000000000;
1412 : 010000000000000;
1413 : 010000000000000;
1414 : 011000000000000;
1415 : 010000000000000;
1416 : 010000000000000;
1417 : 010000000000000;
1418 : 010000000000000;
1419 : 010000000000000;
1420 : 011000000000000;
1421 : 010000000000000;
1422 : 010000000000000;
1423 : 010000000000000;
1424 : 010000000000000;
1425 : 010000000000000;
1426 : 011000000000000;
1427 : 010000000000000;
1428 : 011000000000000;
1429 : 011000000000000;
1430 : 011000000000000;
1431 : 011000000000000;
1432 : 011000000000000;
1433 : 011000000000000;
1434 : 011000000000000;
1435 : 011000000000000;
1436 : 010000000000000;
1437 : 010000000000000;
1438 : 010000000000000;
1439 : 010000000000000;
1440 : 011000000000000;
1441 : 011000000000000;
1442 : 011000000000000;
1443 : 011000000000000;
1444 : 011000000000000;
1445 : 011000000000000;
1446 : 011000000000000;
1447 : 011000000000000;
1448 : 010000000000000;
1449 : 011000000000000;
1450 : 011000000000000;
1451 : 010000000000000;
1452 : 010000000000000;
1453 : 011000000000000;
1454 : 010000000000000;
1455 : 011000000000000;
1456 : 011000000000000;
1457 : 011000000000000;
1458 : 011000000000000;
1459 : 010000000000000;
1460 : 010000000000000;
1461 : 010000000000000;
1462 : 010000000000000;
1463 : 011000000000000;
1464 : 010000000000000;
1465 : 011000000000000;
1466 : 011000000000000;
1467 : 010000000000000;
1468 : 010000000000000;
1469 : 010000000000000;
1470 : 010000000000000;
1471 : 010000000000000;
1472 : 010000000000000;
1473 : 010000000000000;
1474 : 010000000000000;
1475 : 010000000000000;
1476 : 011000000000000;
1477 : 011000000000000;
1478 : 011000000000000;
1479 : 010000000000000;
1480 : 011000000000000;
1481 : 010000000000000;
1482 : 010000000000000;
1483 : 010000000000000;
1484 : 010000000000000;
1485 : 010000000000000;
1486 : 011000000000000;
1487 : 010000000000000;
1488 : 010000000000000;
1489 : 010000000000000;
1490 : 010000000000000;
1491 : 010000000000000;
1492 : 010000000000000;
1493 : 010000000000000;
1494 : 011000000000000;
1495 : 011000000000000;
1496 : 010000000000000;
1497 : 010000000000000;
1498 : 011000000000000;
1499 : 011000000000000;
1500 : 010000000000000;
1501 : 011000000000000;
1502 : 010000000000000;
1503 : 010000000000000;
1504 : 010000000000000;
1505 : 010000000000000;
1506 : 010000000000000;
1507 : 011000000000000;
1508 : 010000000000000;
1509 : 010000000000000;
1510 : 010000000000000;
1511 : 010000000000000;
1512 : 011000000000000;
1513 : 010000000000000;
1514 : 011000000000000;
1515 : 010000000000000;
1516 : 011000000000000;
1517 : 010000000000000;
1518 : 011000000000000;
1519 : 011000000000000;
1520 : 010000000000000;
1521 : 010000000000000;
1522 : 011000000000000;
1523 : 011000000000000;
1524 : 010000000000000;
1525 : 011000000000000;
1526 : 011000000000000;
1527 : 010000000000000;
1528 : 011000000000000;
1529 : 011000000000000;
1530 : 010000000000000;
1531 : 011000000000000;
1532 : 010000000000000;
1533 : 011000000000000;
1534 : 011000000000000;
1535 : 010000000000000;
1536 : 010000000000000;
1537 : 011000000000000;
1538 : 010000000000000;
1539 : 011000000000000;
1540 : 011000000000000;
1541 : 010000000000000;
1542 : 010000000000000;
1543 : 011000000000000;
1544 : 010000000000000;
1545 : 010000000000000;
1546 : 010000000000000;
1547 : 010000000000000;
1548 : 010000000000000;
1549 : 010000000000000;
1550 : 010000000000000;
1551 : 010000000000000;
1552 : 011000000000000;
1553 : 010000000000000;
1554 : 010000000000000;
1555 : 010000000000000;
1556 : 010000000000000;
1557 : 011000000000000;
1558 : 010000000000000;
1559 : 010000000000000;
1560 : 011000000000000;
1561 : 011000000000000;
1562 : 011000000000000;
1563 : 011000000000000;
1564 : 010000000000000;
1565 : 010000000000000;
1566 : 010000000000000;
1567 : 010000000000000;
1568 : 011000000000000;
1569 : 010000000000000;
1570 : 010000000000000;
1571 : 010000000000000;
1572 : 010000000000000;
1573 : 011000000000000;
1574 : 011000000000000;
1575 : 011000000000000;
1576 : 010000000000000;
1577 : 010000000000000;
1578 : 011000000000000;
1579 : 011000000000000;
1580 : 011000000000000;
1581 : 010000000000000;
1582 : 010000000000000;
1583 : 010000000000000;
1584 : 010000000000000;
1585 : 011000000000000;
1586 : 011000000000000;
1587 : 011000000000000;
1588 : 011000000000000;
1589 : 011000000000000;
1590 : 011000000000000;
1591 : 011000000000000;
1592 : 011000000000000;
1593 : 011000000000000;
1594 : 011000000000000;
1595 : 011000000000000;
1596 : 010000000000000;
1597 : 010000000000000;
1598 : 011000000000000;
1599 : 011000000000000;
1600 : 010000000000000;
1601 : 010000000000000;
1602 : 011000000000000;
1603 : 011000000000000;
1604 : 011000000000000;
1605 : 010000000000000;
1606 : 011000000000000;
1607 : 010000000000000;
1608 : 011000000000000;
1609 : 010000000000000;
1610 : 010000000000000;
1611 : 010000000000000;
1612 : 010000000000000;
1613 : 011000000000000;
1614 : 010000000000000;
1615 : 010000000000000;
1616 : 010000000000000;
1617 : 011000000000000;
1618 : 011000000000000;
1619 : 011000000000000;
1620 : 011000000000000;
1621 : 010000000000000;
1622 : 010000000000000;
1623 : 010000000000000;
1624 : 011000000000000;
1625 : 010000000000000;
1626 : 011000000000000;
1627 : 010000000000000;
1628 : 011000000000000;
1629 : 010000000000000;
1630 : 010000000000000;
1631 : 011000000000000;
1632 : 011000000000000;
1633 : 011000000000000;
1634 : 010000000000000;
1635 : 010000000000000;
1636 : 010000000000000;
1637 : 011000000000000;
1638 : 011000000000000;
1639 : 010000000000000;
1640 : 010000000000000;
1641 : 010000000000000;
1642 : 010000000000000;
1643 : 011000000000000;
1644 : 010000000000000;
1645 : 010000000000000;
1646 : 010000000000000;
1647 : 010000000000000;
1648 : 010000000000000;
1649 : 010000000000000;
1650 : 010000000000000;
1651 : 010000000000000;
1652 : 010000000000000;
1653 : 010000000000000;
1654 : 011000000000000;
1655 : 011000000000000;
1656 : 011000000000000;
1657 : 010000000000000;
1658 : 010000000000000;
1659 : 010000000000000;
1660 : 010000000000000;
1661 : 010000000000000;
1662 : 010000000000000;
1663 : 011000000000000;
1664 : 011000000000000;
1665 : 011000000000000;
1666 : 010000000000000;
1667 : 011000000000000;
1668 : 010000000000000;
1669 : 010000000000000;
1670 : 010000000000000;
1671 : 010000000000000;
1672 : 011000000000000;
1673 : 011000000000000;
1674 : 010000000000000;
1675 : 010000000000000;
1676 : 010000000000000;
1677 : 010000000000000;
1678 : 011000000000000;
1679 : 011000000000000;
1680 : 010000000000000;
1681 : 010000000000000;
1682 : 010000000000000;
1683 : 010000000000000;
1684 : 010000000000000;
1685 : 010000000000000;
1686 : 010000000000000;
1687 : 011000000000000;
1688 : 011000000000000;
1689 : 011000000000000;
1690 : 011000000000000;
1691 : 011000000000000;
1692 : 010000000000000;
1693 : 010000000000000;
1694 : 011000000000000;
1695 : 011000000000000;
1696 : 011000000000000;
1697 : 011000000000000;
1698 : 011000000000000;
1699 : 010000000000000;
1700 : 011000000000000;
1701 : 011000000000000;
1702 : 010000000000000;
1703 : 010000000000000;
1704 : 010000000000000;
1705 : 011000000000000;
1706 : 011000000000000;
1707 : 010000000000000;
1708 : 011000000000000;
1709 : 010000000000000;
1710 : 011000000000000;
1711 : 011000000000000;
1712 : 011000000000000;
1713 : 010000000000000;
1714 : 010000000000000;
1715 : 011000000000000;
1716 : 011000000000000;
1717 : 010000000000000;
1718 : 010000000000000;
1719 : 011000000000000;
1720 : 010000000000000;
1721 : 010000000000000;
1722 : 010000000000000;
1723 : 011000000000000;
1724 : 011000000000000;
1725 : 010000000000000;
1726 : 010000000000000;
1727 : 010000000000000;
1728 : 011000000000000;
1729 : 011000000000000;
1730 : 011000000000000;
1731 : 010000000000000;
1732 : 010000000000000;
1733 : 010000000000000;
1734 : 011000000000000;
1735 : 010000000000000;
1736 : 011000000000000;
1737 : 011000000000000;
1738 : 011000000000000;
1739 : 011000000000000;
1740 : 011000000000000;
1741 : 011000000000000;
1742 : 011000000000000;
1743 : 011000000000000;
1744 : 011000000000000;
1745 : 011000000000000;
1746 : 011000000000000;
1747 : 011000000000000;
1748 : 010000000000000;
1749 : 011000000000000;
1750 : 010000000000000;
1751 : 010000000000000;
1752 : 011000000000000;
1753 : 010000000000000;
1754 : 011000000000000;
1755 : 010000000000000;
1756 : 011000000000000;
1757 : 010000000000000;
1758 : 010000000000000;
1759 : 011000000000000;
1760 : 010000000000000;
1761 : 011000000000000;
1762 : 010000000000000;
1763 : 010000000000000;
1764 : 010000000000000;
1765 : 011000000000000;
1766 : 010000000000000;
1767 : 010000000000000;
1768 : 010000000000000;
1769 : 010000000000000;
1770 : 011000000000000;
1771 : 011000000000000;
1772 : 011000000000000;
1773 : 011000000000000;
1774 : 010000000000000;
1775 : 010000000000000;
1776 : 010000000000000;
1777 : 010000000000000;
1778 : 010000000000000;
1779 : 011000000000000;
1780 : 011000000000000;
1781 : 010000000000000;
1782 : 011000000000000;
1783 : 011000000000000;
1784 : 010000000000000;
1785 : 011000000000000;
1786 : 010000000000000;
1787 : 011000000000000;
1788 : 010000000000000;
1789 : 010000000000000;
1790 : 010000000000000;
1791 : 010000000000000;
1792 : 011000000000000;
1793 : 010000000000000;
1794 : 010000000000000;
1795 : 010000000000000;
1796 : 011000000000000;
1797 : 011000000000000;
1798 : 011000000000000;
1799 : 011000000000000;
1800 : 010000000000000;
1801 : 011000000000000;
1802 : 010000000000000;
1803 : 010000000000000;
1804 : 011000000000000;
1805 : 010000000000000;
1806 : 010000000000000;
1807 : 010000000000000;
1808 : 010000000000000;
1809 : 011000000000000;
1810 : 010000000000000;
1811 : 011000000000000;
1812 : 011000000000000;
1813 : 010000000000000;
1814 : 011000000000000;
1815 : 010000000000000;
1816 : 010000000000000;
1817 : 011000000000000;
1818 : 010000000000000;
1819 : 011000000000000;
1820 : 010000000000000;
1821 : 010000000000000;
1822 : 011000000000000;
1823 : 011000000000000;
1824 : 011000000000000;
1825 : 010000000000000;
1826 : 011000000000000;
1827 : 011000000000000;
1828 : 011000000000000;
1829 : 011000000000000;
1830 : 010000000000000;
1831 : 011000000000000;
1832 : 011000000000000;
1833 : 010000000000000;
1834 : 011000000000000;
1835 : 011000000000000;
1836 : 011000000000000;
1837 : 010000000000000;
1838 : 010000000000000;
1839 : 011000000000000;
1840 : 010000000000000;
1841 : 010000000000000;
1842 : 010000000000000;
1843 : 010000000000000;
1844 : 011000000000000;
1845 : 010000000000000;
1846 : 011000000000000;
1847 : 011000000000000;
1848 : 011000000000000;
1849 : 011000000000000;
1850 : 011000000000000;
1851 : 011000000000000;
1852 : 011000000000000;
1853 : 011000000000000;
1854 : 011000000000000;
1855 : 011000000000000;
1856 : 010000000000000;
1857 : 011000000000000;
1858 : 011000000000000;
1859 : 011000000000000;
1860 : 011000000000000;
1861 : 011000000000000;
1862 : 010000000000000;
1863 : 011000000000000;
1864 : 011000000000000;
1865 : 011000000000000;
1866 : 010000000000000;
1867 : 011000000000000;
1868 : 011000000000000;
1869 : 011000000000000;
1870 : 011000000000000;
1871 : 011000000000000;
1872 : 010000000000000;
1873 : 010000000000000;
1874 : 010000000000000;
1875 : 010000000000000;
1876 : 010000000000000;
1877 : 010000000000000;
1878 : 010000000000000;
1879 : 011000000000000;
1880 : 010000000000000;
1881 : 011000000000000;
1882 : 011000000000000;
1883 : 010000000000000;
1884 : 010000000000000;
1885 : 010000000000000;
1886 : 010000000000000;
1887 : 011000000000000;
1888 : 011000000000000;
1889 : 011000000000000;
1890 : 011000000000000;
1891 : 011000000000000;
1892 : 010000000000000;
1893 : 010000000000000;
1894 : 010000000000000;
1895 : 011000000000000;
1896 : 011000000000000;
1897 : 011000000000000;
1898 : 011000000000000;
1899 : 010000000000000;
1900 : 010000000000000;
1901 : 010000000000000;
1902 : 011000000000000;
1903 : 011000000000000;
1904 : 011000000000000;
1905 : 011000000000000;
1906 : 011000000000000;
1907 : 011000000000000;
1908 : 011000000000000;
1909 : 011000000000000;
1910 : 011000000000000;
1911 : 010000000000000;
1912 : 011000000000000;
1913 : 010000000000000;
1914 : 010000000000000;
1915 : 010000000000000;
1916 : 010000000000000;
1917 : 010000000000000;
1918 : 011000000000000;
1919 : 011000000000000;
1920 : 010000000000000;
1921 : 010000000000000;
1922 : 010000000000000;
1923 : 010000000000000;
1924 : 010000000000000;
1925 : 011000000000000;
1926 : 011000000000000;
1927 : 011000000000000;
1928 : 011000000000000;
1929 : 010000000000000;
1930 : 011000000000000;
1931 : 011000000000000;
1932 : 010000000000000;
1933 : 011000000000000;
1934 : 010000000000000;
1935 : 011000000000000;
1936 : 011000000000000;
1937 : 011000000000000;
1938 : 011000000000000;
1939 : 011000000000000;
1940 : 010000000000000;
1941 : 010000000000000;
1942 : 010000000000000;
1943 : 010000000000000;
1944 : 011000000000000;
1945 : 011000000000000;
1946 : 010000000000000;
1947 : 010000000000000;
1948 : 011000000000000;
1949 : 010000000000000;
1950 : 010000000000000;
1951 : 010000000000000;
1952 : 011000000000000;
1953 : 011000000000000;
1954 : 011000000000000;
1955 : 010000000000000;
1956 : 010000000000000;
1957 : 011000000000000;
1958 : 010000000000000;
1959 : 011000000000000;
1960 : 010000000000000;
1961 : 011000000000000;
1962 : 010000000000000;
1963 : 010000000000000;
1964 : 011000000000000;
1965 : 010000000000000;
1966 : 011000000000000;
1967 : 010000000000000;
1968 : 011000000000000;
1969 : 010000000000000;
1970 : 011000000000000;
1971 : 010000000000000;
1972 : 010000000000000;
1973 : 011000000000000;
1974 : 011000000000000;
1975 : 010000000000000;
1976 : 010000000000000;
1977 : 010000000000000;
1978 : 010000000000000;
1979 : 011000000000000;
1980 : 011000000000000;
1981 : 011000000000000;
1982 : 011000000000000;
1983 : 011000000000000;
1984 : 010000000000000;
1985 : 010000000000000;
1986 : 010000000000000;
1987 : 010000000000000;
1988 : 011000000000000;
1989 : 010000000000000;
1990 : 011000000000000;
1991 : 011000000000000;
1992 : 010000000000000;
1993 : 010000000000000;
1994 : 011000000000000;
1995 : 011000000000000;
1996 : 010000000000000;
1997 : 010000000000000;
1998 : 010000000000000;
1999 : 011000000000000;
2000 : 010000000000000;
2001 : 010000000000000;
2002 : 011000000000000;
2003 : 010000000000000;
2004 : 010000000000000;
2005 : 010000000000000;
2006 : 011000000000000;
2007 : 010000000000000;
2008 : 011000000000000;
2009 : 010000000000000;
2010 : 011000000000000;
2011 : 010000000000000;
2012 : 011000000000000;
2013 : 011000000000000;
2014 : 010000000000000;
2015 : 010000000000000;
2016 : 011000000000000;
2017 : 010000000000000;
2018 : 010000000000000;
2019 : 010000000000000;
2020 : 010000000000000;
2021 : 010000000000000;
2022 : 011000000000000;
2023 : 010000000000000;
2024 : 011000000000000;
2025 : 010000000000000;
2026 : 011000000000000;
2027 : 011000000000000;
2028 : 011000000000000;
2029 : 011000000000000;
2030 : 011000000000000;
2031 : 011000000000000;
2032 : 011000000000000;
2033 : 010000000000000;
2034 : 011000000000000;
2035 : 011000000000000;
2036 : 010000000000000;
2037 : 010000000000000;
2038 : 011000000000000;
2039 : 010000000000000;
2040 : 010000000000000;
2041 : 010000000000000;
2042 : 010000000000000;
2043 : 010000000000000;
2044 : 010000000000000;
2045 : 011000000000000;
2046 : 010000000000000;
2047 : 010000000000000;
2048 : 011000000000000;
2049 : 011000000000000;
2050 : 011000000000000;
2051 : 011000000000000;
2052 : 011000000000000;
2053 : 010000000000000;
2054 : 010000000000000;
2055 : 011000000000000;
2056 : 010000000000000;
2057 : 011000000000000;
2058 : 011000000000000;
2059 : 011000000000000;
2060 : 010000000000000;
2061 : 010000000000000;
2062 : 011000000000000;
2063 : 011000000000000;
2064 : 011000000000000;
2065 : 011000000000000;
2066 : 011000000000000;
2067 : 010000000000000;
2068 : 010000000000000;
2069 : 010000000000000;
2070 : 010000000000000;
2071 : 010000000000000;
2072 : 010000000000000;
2073 : 010000000000000;
2074 : 010000000000000;
2075 : 011000000000000;
2076 : 010000000000000;
2077 : 011000000000000;
2078 : 010000000000000;
2079 : 011000000000000;
2080 : 010000000000000;
2081 : 010000000000000;
2082 : 010000000000000;
2083 : 010000000000000;
2084 : 010000000000000;
2085 : 011000000000000;
2086 : 011000000000000;
2087 : 011000000000000;
2088 : 011000000000000;
2089 : 010000000000000;
2090 : 010000000000000;
2091 : 010000000000000;
2092 : 010000000000000;
2093 : 011000000000000;
2094 : 010000000000000;
2095 : 010000000000000;
2096 : 010000000000000;
2097 : 011000000000000;
2098 : 011000000000000;
2099 : 010000000000000;
2100 : 011000000000000;
2101 : 011000000000000;
2102 : 010000000000000;
2103 : 010000000000000;
2104 : 010000000000000;
2105 : 010000000000000;
2106 : 010000000000000;
2107 : 011000000000000;
2108 : 010000000000000;
2109 : 010000000000000;
2110 : 010000000000000;
2111 : 011000000000000;
2112 : 010000000000000;
2113 : 010000000000000;
2114 : 010000000000000;
2115 : 010000000000000;
2116 : 011000000000000;
2117 : 010000000000000;
2118 : 011000000000000;
2119 : 011000000000000;
2120 : 011000000000000;
2121 : 011000000000000;
2122 : 011000000000000;
2123 : 011000000000000;
2124 : 011000000000000;
2125 : 011000000000000;
2126 : 011000000000000;
2127 : 010000000000000;
2128 : 011000000000000;
2129 : 011000000000000;
2130 : 011000000000000;
2131 : 010000000000000;
2132 : 010000000000000;
2133 : 010000000000000;
2134 : 011000000000000;
2135 : 010000000000000;
2136 : 011000000000000;
2137 : 010000000000000;
2138 : 010000000000000;
2139 : 011000000000000;
2140 : 011000000000000;
2141 : 010000000000000;
2142 : 010000000000000;
2143 : 011000000000000;
2144 : 011000000000000;
2145 : 011000000000000;
2146 : 010000000000000;
2147 : 010000000000000;
2148 : 010000000000000;
2149 : 011000000000000;
2150 : 011000000000000;
2151 : 011000000000000;
2152 : 011000000000000;
2153 : 010000000000000;
2154 : 011000000000000;
2155 : 010000000000000;
2156 : 010000000000000;
2157 : 010000000000000;
2158 : 011000000000000;
2159 : 011000000000000;
2160 : 011000000000000;
2161 : 011000000000000;
2162 : 011000000000000;
2163 : 011000000000000;
2164 : 010000000000000;
2165 : 010000000000000;
2166 : 010000000000000;
2167 : 010000000000000;
2168 : 011000000000000;
2169 : 011000000000000;
2170 : 010000000000000;
2171 : 011000000000000;
2172 : 011000000000000;
2173 : 011000000000000;
2174 : 010000000000000;
2175 : 011000000000000;
2176 : 011000000000000;
2177 : 010000000000000;
2178 : 010000000000000;
2179 : 011000000000000;
2180 : 011000000000000;
2181 : 010000000000000;
2182 : 011000000000000;
2183 : 011000000000000;
2184 : 011000000000000;
2185 : 011000000000000;
2186 : 010000000000000;
2187 : 011000000000000;
2188 : 011000000000000;
2189 : 010000000000000;
2190 : 010000000000000;
2191 : 010000000000000;
2192 : 010000000000000;
2193 : 011000000000000;
2194 : 011000000000000;
2195 : 011000000000000;
2196 : 011000000000000;
2197 : 010000000000000;
2198 : 011000000000000;
2199 : 010000000000000;
2200 : 011000000000000;
2201 : 011000000000000;
2202 : 010000000000000;
2203 : 011000000000000;
2204 : 010000000000000;
2205 : 010000000000000;
2206 : 010000000000000;
2207 : 011000000000000;
2208 : 011000000000000;
2209 : 011000000000000;
2210 : 011000000000000;
2211 : 011000000000000;
2212 : 011000000000000;
2213 : 010000000000000;
2214 : 010000000000000;
2215 : 011000000000000;
2216 : 011000000000000;
2217 : 011000000000000;
2218 : 010000000000000;
2219 : 011000000000000;
2220 : 011000000000000;
2221 : 011000000000000;
2222 : 011000000000000;
2223 : 011000000000000;
2224 : 011000000000000;
2225 : 010000000000000;
2226 : 010000000000000;
2227 : 011000000000000;
2228 : 011000000000000;
2229 : 011000000000000;
2230 : 010000000000000;
2231 : 011000000000000;
2232 : 011000000000000;
2233 : 011000000000000;
2234 : 011000000000000;
2235 : 011000000000000;
2236 : 011000000000000;
2237 : 010000000000000;
2238 : 010000000000000;
2239 : 010000000000000;
2240 : 010000000000000;
2241 : 011000000000000;
2242 : 010000000000000;
2243 : 010000000000000;
2244 : 010000000000000;
2245 : 010000000000000;
2246 : 010000000000000;
2247 : 010000000000000;
2248 : 010000000000000;
2249 : 011000000000000;
2250 : 010000000000000;
2251 : 011000000000000;
2252 : 010000000000000;
2253 : 010000000000000;
2254 : 011000000000000;
2255 : 010000000000000;
2256 : 011000000000000;
2257 : 011000000000000;
2258 : 011000000000000;
2259 : 011000000000000;
2260 : 011000000000000;
2261 : 011000000000000;
2262 : 011000000000000;
2263 : 010000000000000;
2264 : 010000000000000;
2265 : 010000000000000;
2266 : 010000000000000;
2267 : 011000000000000;
2268 : 011000000000000;
2269 : 010000000000000;
2270 : 010000000000000;
2271 : 010000000000000;
2272 : 010000000000000;
2273 : 010000000000000;
2274 : 010000000000000;
2275 : 010000000000000;
2276 : 011000000000000;
2277 : 010000000000000;
2278 : 010000000000000;
2279 : 010000000000000;
2280 : 011000000000000;
2281 : 010000000000000;
2282 : 011000000000000;
2283 : 011000000000000;
2284 : 011000000000000;
2285 : 011000000000000;
2286 : 010000000000000;
2287 : 010000000000000;
2288 : 011000000000000;
2289 : 010000000000000;
2290 : 010000000000000;
2291 : 010000000000000;
2292 : 010000000000000;
2293 : 011000000000000;
2294 : 011000000000000;
2295 : 010000000000000;
2296 : 010000000000000;
2297 : 011000000000000;
2298 : 010000000000000;
2299 : 010000000000000;
2300 : 010000000000000;
2301 : 011000000000000;
2302 : 011000000000000;
2303 : 011000000000000;
2304 : 011000000000000;
2305 : 010000000000000;
2306 : 010000000000000;
2307 : 011000000000000;
2308 : 011000000000000;
2309 : 011000000000000;
2310 : 011000000000000;
2311 : 011000000000000;
2312 : 011000000000000;
2313 : 011000000000000;
2314 : 011000000000000;
2315 : 011000000000000;
2316 : 011000000000000;
2317 : 010000000000000;
2318 : 010000000000000;
2319 : 010000000000000;
2320 : 010000000000000;
2321 : 010000000000000;
2322 : 010000000000000;
2323 : 010000000000000;
2324 : 011000000000000;
2325 : 010000000000000;
2326 : 010000000000000;
2327 : 011000000000000;
2328 : 011000000000000;
2329 : 010000000000000;
2330 : 011000000000000;
2331 : 010000000000000;
2332 : 010000000000000;
2333 : 011000000000000;
2334 : 011000000000000;
2335 : 011000000000000;
2336 : 011000000000000;
2337 : 010000000000000;
2338 : 010000000000000;
2339 : 010000000000000;
2340 : 011000000000000;
2341 : 010000000000000;
2342 : 011000000000000;
2343 : 011000000000000;
2344 : 011000000000000;
2345 : 011000000000000;
2346 : 010000000000000;
2347 : 010000000000000;
2348 : 010000000000000;
2349 : 010000000000000;
2350 : 010000000000000;
2351 : 010000000000000;
2352 : 011000000000000;
2353 : 011000000000000;
2354 : 010000000000000;
2355 : 011000000000000;
2356 : 010000000000000;
2357 : 010000000000000;
2358 : 010000000000000;
2359 : 010000000000000;
2360 : 010000000000000;
2361 : 010000000000000;
2362 : 011000000000000;
2363 : 011000000000000;
2364 : 011000000000000;
2365 : 010000000000000;
2366 : 011000000000000;
2367 : 011000000000000;
2368 : 010000000000000;
2369 : 010000000000000;
2370 : 010000000000000;
2371 : 010000000000000;
2372 : 010000000000000;
2373 : 011000000000000;
2374 : 010000000000000;
2375 : 011000000000000;
2376 : 010000000000000;
2377 : 010000000000000;
2378 : 010000000000000;
2379 : 011000000000000;
2380 : 011000000000000;
2381 : 010000000000000;
2382 : 010000000000000;
2383 : 010000000000000;
2384 : 010000000000000;
2385 : 010000000000000;
2386 : 010000000000000;
2387 : 010000000000000;
2388 : 010000000000000;
2389 : 011000000000000;
2390 : 011000000000000;
2391 : 010000000000000;
2392 : 010000000000000;
2393 : 010000000000000;
2394 : 011000000000000;
2395 : 010000000000000;
2396 : 011000000000000;
2397 : 011000000000000;
2398 : 011000000000000;
2399 : 011000000000000;
2400 : 010000000000000;
2401 : 010000000000000;
2402 : 010000000000000;
2403 : 011000000000000;
2404 : 010000000000000;
2405 : 010000000000000;
2406 : 011000000000000;
2407 : 011000000000000;
2408 : 011000000000000;
2409 : 011000000000000;
2410 : 011000000000000;
2411 : 010000000000000;
2412 : 010000000000000;
2413 : 011000000000000;
2414 : 011000000000000;
2415 : 011000000000000;
2416 : 010000000000000;
2417 : 011000000000000;
2418 : 011000000000000;
2419 : 010000000000000;
2420 : 010000000000000;
2421 : 010000000000000;
2422 : 011000000000000;
2423 : 011000000000000;
2424 : 011000000000000;
2425 : 010000000000000;
2426 : 011000000000000;
2427 : 010000000000000;
2428 : 010000000000000;
2429 : 010000000000000;
2430 : 011000000000000;
2431 : 011000000000000;
2432 : 011000000000000;
2433 : 010000000000000;
2434 : 010000000000000;
2435 : 010000000000000;
2436 : 010000000000000;
2437 : 010000000000000;
2438 : 010000000000000;
2439 : 010000000000000;
2440 : 011000000000000;
2441 : 010000000000000;
2442 : 011000000000000;
2443 : 010000000000000;
2444 : 010000000000000;
2445 : 010000000000000;
2446 : 011000000000000;
2447 : 011000000000000;
2448 : 010000000000000;
2449 : 010000000000000;
2450 : 011000000000000;
2451 : 011000000000000;
2452 : 010000000000000;
2453 : 010000000000000;
2454 : 010000000000000;
2455 : 011000000000000;
2456 : 010000000000000;
2457 : 010000000000000;
2458 : 011000000000000;
2459 : 011000000000000;
2460 : 010000000000000;
2461 : 011000000000000;
2462 : 010000000000000;
2463 : 010000000000000;
2464 : 011000000000000;
2465 : 011000000000000;
2466 : 011000000000000;
2467 : 011000000000000;
2468 : 011000000000000;
2469 : 011000000000000;
2470 : 011000000000000;
2471 : 011000000000000;
2472 : 011000000000000;
2473 : 011000000000000;
2474 : 011000000000000;
2475 : 010000000000000;
2476 : 010000000000000;
2477 : 010000000000000;
2478 : 011000000000000;
2479 : 010000000000000;
2480 : 011000000000000;
2481 : 010000000000000;
2482 : 010000000000000;
2483 : 010000000000000;
2484 : 011000000000000;
2485 : 010000000000000;
2486 : 011000000000000;
2487 : 011000000000000;
2488 : 011000000000000;
2489 : 011000000000000;
2490 : 010000000000000;
2491 : 010000000000000;
2492 : 010000000000000;
2493 : 010000000000000;
2494 : 010000000000000;
2495 : 011000000000000;
2496 : 010000000000000;
2497 : 011000000000000;
2498 : 011000000000000;
2499 : 010000000000000;
2500 : 011000000000000;
2501 : 010000000000000;
2502 : 011000000000000;
2503 : 011000000000000;
2504 : 010000000000000;
2505 : 010000000000000;
2506 : 010000000000000;
2507 : 010000000000000;
2508 : 010000000000000;
2509 : 011000000000000;
2510 : 010000000000000;
2511 : 010000000000000;
2512 : 011000000000000;
2513 : 010000000000000;
2514 : 011000000000000;
2515 : 010000000000000;
2516 : 010000000000000;
2517 : 011000000000000;
2518 : 011000000000000;
2519 : 011000000000000;
2520 : 011000000000000;
2521 : 011000000000000;
2522 : 011000000000000;
2523 : 011000000000000;
2524 : 011000000000000;
2525 : 011000000000000;
2526 : 011000000000000;
2527 : 010000000000000;
2528 : 010000000000000;
2529 : 011000000000000;
2530 : 010000000000000;
2531 : 010000000000000;
2532 : 010000000000000;
2533 : 011000000000000;
2534 : 011000000000000;
2535 : 010000000000000;
2536 : 010000000000000;
2537 : 010000000000000;
2538 : 011000000000000;
2539 : 010000000000000;
2540 : 010000000000000;
2541 : 011000000000000;
2542 : 010000000000000;
2543 : 010000000000000;
2544 : 010000000000000;
2545 : 011000000000000;
2546 : 011000000000000;
2547 : 011000000000000;
2548 : 011000000000000;
2549 : 011000000000000;
2550 : 010000000000000;
2551 : 011000000000000;
2552 : 011000000000000;
2553 : 010000000000000;
2554 : 011000000000000;
2555 : 010000000000000;
2556 : 011000000000000;
2557 : 010000000000000;
2558 : 010000000000000;
2559 : 010000000000000;
2560 : 011000000000000;
2561 : 010000000000000;
2562 : 010000000000000;
2563 : 011000000000000;
2564 : 011000000000000;
2565 : 011000000000000;
2566 : 011000000000000;
2567 : 011000000000000;
2568 : 010000000000000;
2569 : 010000000000000;
2570 : 011000000000000;
2571 : 011000000000000;
2572 : 010000000000000;
2573 : 010000000000000;
2574 : 011000000000000;
2575 : 011000000000000;
2576 : 011000000000000;
2577 : 011000000000000;
2578 : 011000000000000;
2579 : 011000000000000;
2580 : 010000000000000;
2581 : 010000000000000;
2582 : 010000000000000;
2583 : 010000000000000;
2584 : 010000000000000;
2585 : 010000000000000;
2586 : 010000000000000;
2587 : 010000000000000;
2588 : 011000000000000;
2589 : 010000000000000;
2590 : 010000000000000;
2591 : 010000000000000;
2592 : 010000000000000;
2593 : 011000000000000;
2594 : 011000000000000;
2595 : 010000000000000;
2596 : 011000000000000;
2597 : 010000000000000;
2598 : 010000000000000;
2599 : 011000000000000;
2600 : 011000000000000;
2601 : 011000000000000;
2602 : 011000000000000;
2603 : 010000000000000;
2604 : 010000000000000;
2605 : 010000000000000;
2606 : 011000000000000;
2607 : 011000000000000;
2608 : 010000000000000;
2609 : 011000000000000;
2610 : 011000000000000;
2611 : 010000000000000;
2612 : 010000000000000;
2613 : 010000000000000;
2614 : 010000000000000;
2615 : 011000000000000;
2616 : 010000000000000;
2617 : 011000000000000;
2618 : 011000000000000;
2619 : 011000000000000;
2620 : 011000000000000;
2621 : 011000000000000;
2622 : 010000000000000;
2623 : 010000000000000;
2624 : 010000000000000;
2625 : 011000000000000;
2626 : 010000000000000;
2627 : 010000000000000;
2628 : 010000000000000;
2629 : 011000000000000;
2630 : 011000000000000;
2631 : 011000000000000;
2632 : 010000000000000;
2633 : 010000000000000;
2634 : 011000000000000;
2635 : 010000000000000;
2636 : 010000000000000;
2637 : 010000000000000;
2638 : 011000000000000;
2639 : 010000000000000;
2640 : 011000000000000;
2641 : 010000000000000;
2642 : 010000000000000;
2643 : 010000000000000;
2644 : 011000000000000;
2645 : 010000000000000;
2646 : 010000000000000;
2647 : 010000000000000;
2648 : 010000000000000;
2649 : 010000000000000;
2650 : 010000000000000;
2651 : 011000000000000;
2652 : 011000000000000;
2653 : 010000000000000;
2654 : 011000000000000;
2655 : 011000000000000;
2656 : 010000000000000;
2657 : 011000000000000;
2658 : 011000000000000;
2659 : 011000000000000;
2660 : 011000000000000;
2661 : 011000000000000;
2662 : 011000000000000;
2663 : 011000000000000;
2664 : 011000000000000;
2665 : 010000000000000;
2666 : 010000000000000;
2667 : 011000000000000;
2668 : 011000000000000;
2669 : 011000000000000;
2670 : 010000000000000;
2671 : 010000000000000;
2672 : 011000000000000;
2673 : 011000000000000;
2674 : 010000000000000;
2675 : 010000000000000;
2676 : 010000000000000;
2677 : 011000000000000;
2678 : 011000000000000;
2679 : 010000000000000;
2680 : 011000000000000;
2681 : 010000000000000;
2682 : 010000000000000;
2683 : 011000000000000;
2684 : 011000000000000;
2685 : 010000000000000;
2686 : 010000000000000;
2687 : 011000000000000;
2688 : 011000000000000;
2689 : 010000000000000;
2690 : 011000000000000;
2691 : 010000000000000;
2692 : 011000000000000;
2693 : 010000000000000;
2694 : 010000000000000;
2695 : 011000000000000;
2696 : 011000000000000;
2697 : 011000000000000;
2698 : 011000000000000;
2699 : 011000000000000;
2700 : 011000000000000;
2701 : 011000000000000;
2702 : 011000000000000;
2703 : 010000000000000;
2704 : 010000000000000;
2705 : 010000000000000;
2706 : 010000000000000;
2707 : 010000000000000;
2708 : 011000000000000;
2709 : 011000000000000;
2710 : 011000000000000;
2711 : 010000000000000;
2712 : 010000000000000;
2713 : 011000000000000;
2714 : 011000000000000;
2715 : 010000000000000;
2716 : 010000000000000;
2717 : 011000000000000;
2718 : 010000000000000;
2719 : 010000000000000;
2720 : 010000000000000;
2721 : 011000000000000;
2722 : 010000000000000;
2723 : 010000000000000;
2724 : 011000000000000;
2725 : 011000000000000;
2726 : 011000000000000;
2727 : 011000000000000;
2728 : 010000000000000;
2729 : 010000000000000;
2730 : 011000000000000;
2731 : 010000000000000;
2732 : 010000000000000;
2733 : 011000000000000;
2734 : 011000000000000;
2735 : 011000000000000;
2736 : 010000000000000;
2737 : 011000000000000;
2738 : 010000000000000;
2739 : 011000000000000;
2740 : 011000000000000;
2741 : 011000000000000;
2742 : 011000000000000;
2743 : 011000000000000;
2744 : 010000000000000;
2745 : 010000000000000;
2746 : 011000000000000;
2747 : 010000000000000;
2748 : 010000000000000;
2749 : 010000000000000;
2750 : 010000000000000;
2751 : 010000000000000;
2752 : 011000000000000;
2753 : 011000000000000;
2754 : 011000000000000;
2755 : 010000000000000;
2756 : 010000000000000;
2757 : 010000000000000;
2758 : 011000000000000;
2759 : 010000000000000;
2760 : 011000000000000;
2761 : 010000000000000;
2762 : 010000000000000;
2763 : 010000000000000;
2764 : 011000000000000;
2765 : 011000000000000;
2766 : 011000000000000;
2767 : 011000000000000;
2768 : 011000000000000;
2769 : 010000000000000;
2770 : 010000000000000;
2771 : 010000000000000;
2772 : 011000000000000;
2773 : 010000000000000;
2774 : 010000000000000;
2775 : 010000000000000;
2776 : 010000000000000;
2777 : 010000000000000;
2778 : 010000000000000;
2779 : 010000000000000;
2780 : 011000000000000;
2781 : 011000000000000;
2782 : 011000000000000;
2783 : 011000000000000;
2784 : 010000000000000;
2785 : 011000000000000;
2786 : 010000000000000;
2787 : 011000000000000;
2788 : 011000000000000;
2789 : 010000000000000;
2790 : 010000000000000;
2791 : 010000000000000;
2792 : 010000000000000;
2793 : 010000000000000;
2794 : 010000000000000;
2795 : 010000000000000;
2796 : 011000000000000;
2797 : 010000000000000;
2798 : 010000000000000;
2799 : 010000000000000;
2800 : 010000000000000;
2801 : 010000000000000;
2802 : 011000000000000;
2803 : 011000000000000;
2804 : 011000000000000;
2805 : 011000000000000;
2806 : 011000000000000;
2807 : 011000000000000;
2808 : 011000000000000;
2809 : 011000000000000;
2810 : 011000000000000;
2811 : 011000000000000;
2812 : 011000000000000;
2813 : 010000000000000;
2814 : 010000000000000;
2815 : 010000000000000;
2816 : 010000000000000;
2817 : 010000000000000;
2818 : 010000000000000;
2819 : 011000000000000;
2820 : 010000000000000;
2821 : 011000000000000;
2822 : 011000000000000;
2823 : 011000000000000;
2824 : 011000000000000;
2825 : 011000000000000;
2826 : 010000000000000;
2827 : 011000000000000;
2828 : 011000000000000;
2829 : 011000000000000;
2830 : 011000000000000;
2831 : 010000000000000;
2832 : 010000000000000;
2833 : 011000000000000;
2834 : 011000000000000;
2835 : 011000000000000;
2836 : 011000000000000;
2837 : 010000000000000;
2838 : 010000000000000;
2839 : 011000000000000;
2840 : 011000000000000;
2841 : 011000000000000;
2842 : 011000000000000;
2843 : 011000000000000;
2844 : 011000000000000;
2845 : 011000000000000;
2846 : 010000000000000;
2847 : 011000000000000;
2848 : 011000000000000;
2849 : 011000000000000;
2850 : 011000000000000;
2851 : 010000000000000;
2852 : 010000000000000;
2853 : 011000000000000;
2854 : 011000000000000;
2855 : 010000000000000;
2856 : 010000000000000;
2857 : 010000000000000;
2858 : 010000000000000;
2859 : 010000000000000;
2860 : 010000000000000;
2861 : 010000000000000;
2862 : 010000000000000;
2863 : 010000000000000;
2864 : 010000000000000;
2865 : 011000000000000;
2866 : 010000000000000;
2867 : 010000000000000;
2868 : 011000000000000;
2869 : 011000000000000;
2870 : 011000000000000;
2871 : 010000000000000;
2872 : 011000000000000;
2873 : 010000000000000;
2874 : 011000000000000;
2875 : 010000000000000;
2876 : 010000000000000;
2877 : 010000000000000;
2878 : 010000000000000;
2879 : 010000000000000;
2880 : 010000000000000;
2881 : 010000000000000;
2882 : 010000000000000;
2883 : 010000000000000;
2884 : 011000000000000;
2885 : 011000000000000;
2886 : 011000000000000;
2887 : 011000000000000;
2888 : 011000000000000;
2889 : 011000000000000;
2890 : 010000000000000;
2891 : 011000000000000;
2892 : 011000000000000;
2893 : 011000000000000;
2894 : 010000000000000;
2895 : 010000000000000;
2896 : 010000000000000;
2897 : 010000000000000;
2898 : 010000000000000;
2899 : 010000000000000;
2900 : 011000000000000;
2901 : 010000000000000;
2902 : 011000000000000;
2903 : 010000000000000;
2904 : 011000000000000;
2905 : 011000000000000;
2906 : 011000000000000;
2907 : 011000000000000;
2908 : 011000000000000;
2909 : 011000000000000;
2910 : 011000000000000;
2911 : 010000000000000;
2912 : 010000000000000;
2913 : 000000000000000;
2914 : 000000000000000;
2915 : 000000000000000;
2916 : 000000000000000;
2917 : 000000000000000;
2918 : 000000000000000;
2919 : 000000000000000;
2920 : 000000000000000;
2921 : 000000000000000;
2922 : 000000000000000;
2923 : 000000000000000;
2924 : 000000000000000;
2925 : 000000000000000;
2926 : 000000000000000;
2927 : 000000000000000;
2928 : 000000000000000;
2929 : 000000000000000;
2930 : 000000000000000;
2931 : 000000000000000;
2932 : 000000000000000;
2933 : 000000000000000;
2934 : 000000000000000;
2935 : 000000000000000;
2936 : 000000000000000;
2937 : 000000000000000;
2938 : 000000000000000;
2939 : 000000000000000;
2940 : 000000000000000;
2941 : 000000000000000;
2942 : 000000000000000;
2943 : 000000000000000;
2944 : 000000000000000;
2945 : 000000000000000;
2946 : 000000000000000;
2947 : 000000000000000;
2948 : 000000000000000;
2949 : 000000000000000;
2950 : 000000000000000;
2951 : 000000000000000;
2952 : 000000000000000;
2953 : 000000000000000;
2954 : 000000000000000;
2955 : 000000000000000;
2956 : 000000000000000;
2957 : 000000000000000;
2958 : 000000000000000;
2959 : 000000000000000;
2960 : 000000000000000;
2961 : 000000000000000;
2962 : 000000000000000;
2963 : 000000000000000;
2964 : 000000000000000;
2965 : 000000000000000;
2966 : 000000000000000;
2967 : 000000000000000;
2968 : 000000000000000;
2969 : 000000000000000;
2970 : 000000000000000;
2971 : 000000000000000;
2972 : 000000000000000;
2973 : 000000000000000;
2974 : 000000000000000;
2975 : 000000000000000;
2976 : 000000000000000;
2977 : 000000000000000;
2978 : 000000000000000;
2979 : 000000000000000;
2980 : 000000000000000;
2981 : 000000000000000;
2982 : 000000000000000;
2983 : 000000000000000;
2984 : 000000000000000;
2985 : 000000000000000;
2986 : 000000000000000;
2987 : 000000000000000;
2988 : 000000000000000;
2989 : 000000000000000;
2990 : 000000000000000;
2991 : 000000000000000;
2992 : 000000000000000;
2993 : 000000000000000;
2994 : 000000000000000;
2995 : 000000000000000;
2996 : 000000000000000;
2997 : 000000000000000;
2998 : 000000000000000;
2999 : 000000000000000;
3000 : 000000000000000;
3001 : 000000000000000;
3002 : 000000000000000;
3003 : 000000000000000;
3004 : 000000000000000;
3005 : 000000000000000;
3006 : 000000000000000;
3007 : 000000000000000;
3008 : 000000000000000;
3009 : 000000000000000;
3010 : 000000000000000;
3011 : 000000000000000;
3012 : 000000000000000;
3013 : 000000000000000;
3014 : 000000000000000;
3015 : 000000000000000;
3016 : 000000000000000;
3017 : 000000000000000;
3018 : 000000000000000;
3019 : 000000000000000;
3020 : 000000000000000;
3021 : 000000000000000;
3022 : 000000000000000;
3023 : 000000000000000;
3024 : 000000000000000;
3025 : 000000000000000;
3026 : 000000000000000;
3027 : 000000000000000;
3028 : 000000000000000;
3029 : 000000000000000;
3030 : 000000000000000;
3031 : 000000000000000;
3032 : 000000000000000;
3033 : 000000000000000;
3034 : 000000000000000;
3035 : 000000000000000;
3036 : 000000000000000;
3037 : 000000000000000;
3038 : 000000000000000;
3039 : 000000000000000;
3040 : 000000000000000;
3041 : 000000000000000;
3042 : 000000000000000;
3043 : 000000000000000;
3044 : 000000000000000;
3045 : 000000000000000;
3046 : 000000000000000;
3047 : 000000000000000;
3048 : 000000000000000;
3049 : 000000000000000;
3050 : 000000000000000;
3051 : 000000000000000;
3052 : 000000000000000;
3053 : 000000000000000;
3054 : 000000000000000;
3055 : 000000000000000;
3056 : 000000000000000;
3057 : 000000000000000;
3058 : 000000000000000;
3059 : 000000000000000;
3060 : 000000000000000;
3061 : 000000000000000;
3062 : 000000000000000;
3063 : 000000000000000;
3064 : 000000000000000;
3065 : 000000000000000;
3066 : 000000000000000;
3067 : 000000000000000;
3068 : 000000000000000;
3069 : 000000000000000;
3070 : 000000000000000;
3071 : 000000000000000;
3072 : 000000000000000;
3073 : 000000000000000;
3074 : 000000000000000;
3075 : 000000000000000;
3076 : 000000000000000;
3077 : 000000000000000;
3078 : 000000000000000;
3079 : 000000000000000;
3080 : 000000000000000;
3081 : 000000000000000;
3082 : 000000000000000;
3083 : 000000000000000;
3084 : 000000000000000;
3085 : 000000000000000;
3086 : 000000000000000;
3087 : 000000000000000;
3088 : 000000000000000;
3089 : 000000000000000;
3090 : 000000000000000;
3091 : 000000000000000;
3092 : 000000000000000;
3093 : 000000000000000;
3094 : 000000000000000;
3095 : 000000000000000;
3096 : 000000000000000;
3097 : 000000000000000;
3098 : 000000000000000;
3099 : 000000000000000;
3100 : 000000000000000;
3101 : 000000000000000;
3102 : 000000000000000;
3103 : 000000000000000;
3104 : 000000000000000;
3105 : 000000000000000;
3106 : 000000000000000;
3107 : 000000000000000;
3108 : 000000000000000;
3109 : 000000000000000;
3110 : 000000000000000;
3111 : 000000000000000;
3112 : 000000000000000;
3113 : 000000000000000;
3114 : 000000000000000;
3115 : 000000000000000;
3116 : 000000000000000;
3117 : 000000000000000;
3118 : 000000000000000;
3119 : 000000000000000;
3120 : 000000000000000;
3121 : 000000000000000;
3122 : 000000000000000;
3123 : 000000000000000;
3124 : 000000000000000;
3125 : 000000000000000;
3126 : 000000000000000;
3127 : 000000000000000;
3128 : 000000000000000;
3129 : 000000000000000;
3130 : 000000000000000;
3131 : 000000000000000;
3132 : 000000000000000;
3133 : 000000000000000;
3134 : 000000000000000;
3135 : 000000000000000;
3136 : 000000000000000;
3137 : 000000000000000;
3138 : 000000000000000;
3139 : 000000000000000;
3140 : 000000000000000;
3141 : 000000000000000;
3142 : 000000000000000;
3143 : 000000000000000;
3144 : 000000000000000;
3145 : 000000000000000;
3146 : 000000000000000;
3147 : 000000000000000;
3148 : 000000000000000;
3149 : 000000000000000;
3150 : 000000000000000;
3151 : 000000000000000;
3152 : 000000000000000;
3153 : 000000000000000;
3154 : 000000000000000;
3155 : 000000000000000;
3156 : 000000000000000;
3157 : 000000000000000;
3158 : 000000000000000;
3159 : 000000000000000;
3160 : 000000000000000;
3161 : 000000000000000;
3162 : 000000000000000;
3163 : 000000000000000;
3164 : 000000000000000;
3165 : 000000000000000;
3166 : 000000000000000;
3167 : 000000000000000;
3168 : 000000000000000;
3169 : 000000000000000;
3170 : 000000000000000;
3171 : 000000000000000;
3172 : 000000000000000;
3173 : 000000000000000;
3174 : 000000000000000;
3175 : 000000000000000;
3176 : 000000000000000;
3177 : 000000000000000;
3178 : 000000000000000;
3179 : 000000000000000;
3180 : 000000000000000;
3181 : 000000000000000;
3182 : 000000000000000;
3183 : 000000000000000;
3184 : 000000000000000;
3185 : 000000000000000;
3186 : 000000000000000;
3187 : 000000000000000;
3188 : 000000000000000;
3189 : 000000000000000;
3190 : 000000000000000;
3191 : 000000000000000;
3192 : 000000000000000;
3193 : 000000000000000;
3194 : 000000000000000;
3195 : 000000000000000;
3196 : 000000000000000;
3197 : 000000000000000;
3198 : 000000000000000;
3199 : 000000000000000;
3200 : 000000000000000;
3201 : 000000000000000;
3202 : 000000000000000;
3203 : 000000000000000;
3204 : 000000000000000;
3205 : 000000000000000;
3206 : 000000000000000;
3207 : 000000000000000;
3208 : 000000000000000;
3209 : 000000000000000;
3210 : 000000000000000;
3211 : 000000000000000;
3212 : 000000000000000;
3213 : 000000000000000;
3214 : 000000000000000;
3215 : 000000000000000;
3216 : 000000000000000;
3217 : 000000000000000;
3218 : 000000000000000;
3219 : 000000000000000;
3220 : 000000000000000;
3221 : 000000000000000;
3222 : 000000000000000;
3223 : 000000000000000;
3224 : 000000000000000;
3225 : 000000000000000;
3226 : 000000000000000;
3227 : 000000000000000;
3228 : 000000000000000;
3229 : 000000000000000;
3230 : 000000000000000;
3231 : 000000000000000;
3232 : 000000000000000;
3233 : 000000000000000;
3234 : 000000000000000;
3235 : 000000000000000;
3236 : 000000000000000;
3237 : 000000000000000;
3238 : 000000000000000;
3239 : 000000000000000;
3240 : 000000000000000;
3241 : 000000000000000;
3242 : 000000000000000;
3243 : 000000000000000;
3244 : 000000000000000;
3245 : 000000000000000;
3246 : 000000000000000;
3247 : 000000000000000;
3248 : 000000000000000;
3249 : 000000000000000;
3250 : 000000000000000;
3251 : 000000000000000;
3252 : 000000000000000;
3253 : 000000000000000;
3254 : 000000000000000;
3255 : 000000000000000;
3256 : 000000000000000;
3257 : 000000000000000;
3258 : 000000000000000;
3259 : 000000000000000;
3260 : 000000000000000;
3261 : 000000000000000;
3262 : 000000000000000;
3263 : 000000000000000;
3264 : 000000000000000;
3265 : 000000000000000;
3266 : 000000000000000;
3267 : 000000000000000;
3268 : 000000000000000;
3269 : 000000000000000;
3270 : 000000000000000;
3271 : 000000000000000;
3272 : 000000000000000;
3273 : 000000000000000;
3274 : 000000000000000;
3275 : 000000000000000;
3276 : 000000000000000;
3277 : 000000000000000;
3278 : 000000000000000;
3279 : 000000000000000;
3280 : 000000000000000;
3281 : 000000000000000;
3282 : 000000000000000;
3283 : 000000000000000;
3284 : 000000000000000;
3285 : 000000000000000;
3286 : 000000000000000;
3287 : 000000000000000;
3288 : 000000000000000;
3289 : 000000000000000;
3290 : 000000000000000;
3291 : 000000000000000;
3292 : 000000000000000;
3293 : 000000000000000;
3294 : 000000000000000;
3295 : 000000000000000;
3296 : 000000000000000;
3297 : 000000000000000;
3298 : 000000000000000;
3299 : 000000000000000;
3300 : 000000000000000;
3301 : 000000000000000;
3302 : 000000000000000;
3303 : 000000000000000;
3304 : 000000000000000;
3305 : 000000000000000;
3306 : 000000000000000;
3307 : 000000000000000;
3308 : 000000000000000;
3309 : 000000000000000;
3310 : 000000000000000;
3311 : 000000000000000;
3312 : 000000000000000;
3313 : 000000000000000;
3314 : 000000000000000;
3315 : 000000000000000;
3316 : 000000000000000;
3317 : 000000000000000;
3318 : 000000000000000;
3319 : 000000000000000;
3320 : 000000000000000;
3321 : 000000000000000;
3322 : 000000000000000;
3323 : 000000000000000;
3324 : 000000000000000;
3325 : 000000000000000;
3326 : 000000000000000;
3327 : 000000000000000;
3328 : 000000000000000;
3329 : 000000000000000;
3330 : 000000000000000;
3331 : 000000000000000;
3332 : 000000000000000;
3333 : 000000000000000;
3334 : 000000000000000;
3335 : 000000000000000;
3336 : 000000000000000;
3337 : 000000000000000;
3338 : 000000000000000;
3339 : 000000000000000;
3340 : 000000000000000;
3341 : 000000000000000;
3342 : 000000000000000;
3343 : 000000000000000;
3344 : 000000000000000;
3345 : 000000000000000;
3346 : 000000000000000;
3347 : 000000000000000;
3348 : 000000000000000;
3349 : 000000000000000;
3350 : 000000000000000;
3351 : 000000000000000;
3352 : 000000000000000;
3353 : 000000000000000;
3354 : 000000000000000;
3355 : 000000000000000;
3356 : 000000000000000;
3357 : 000000000000000;
3358 : 000000000000000;
3359 : 000000000000000;
3360 : 000000000000000;
3361 : 000000000000000;
3362 : 000000000000000;
3363 : 000000000000000;
3364 : 000000000000000;
3365 : 000000000000000;
3366 : 000000000000000;
3367 : 000000000000000;
3368 : 000000000000000;
3369 : 000000000000000;
3370 : 000000000000000;
3371 : 000000000000000;
3372 : 000000000000000;
3373 : 000000000000000;
3374 : 000000000000000;
3375 : 000000000000000;
3376 : 000000000000000;
3377 : 000000000000000;
3378 : 000000000000000;
3379 : 000000000000000;
3380 : 000000000000000;
3381 : 000000000000000;
3382 : 000000000000000;
3383 : 000000000000000;
3384 : 000000000000000;
3385 : 000000000000000;
3386 : 000000000000000;
3387 : 000000000000000;
3388 : 000000000000000;
3389 : 000000000000000;
3390 : 000000000000000;
3391 : 000000000000000;
3392 : 000000000000000;
3393 : 000000000000000;
3394 : 000000000000000;
3395 : 000000000000000;
3396 : 000000000000000;
3397 : 000000000000000;
3398 : 000000000000000;
3399 : 000000000000000;
3400 : 000000000000000;
3401 : 000000000000000;
3402 : 000000000000000;
3403 : 000000000000000;
3404 : 000000000000000;
3405 : 000000000000000;
3406 : 000000000000000;
3407 : 000000000000000;
3408 : 000000000000000;
3409 : 000000000000000;
3410 : 000000000000000;
3411 : 000000000000000;
3412 : 000000000000000;
3413 : 000000000000000;
3414 : 000000000000000;
3415 : 000000000000000;
3416 : 000000000000000;
3417 : 000000000000000;
3418 : 000000000000000;
3419 : 000000000000000;
3420 : 000000000000000;
3421 : 000000000000000;
3422 : 000000000000000;
3423 : 000000000000000;
3424 : 000000000000000;
3425 : 000000000000000;
3426 : 000000000000000;
3427 : 000000000000000;
3428 : 000000000000000;
3429 : 000000000000000;
3430 : 000000000000000;
3431 : 000000000000000;
3432 : 000000000000000;
3433 : 000000000000000;
3434 : 000000000000000;
3435 : 000000000000000;
3436 : 000000000000000;
3437 : 000000000000000;
3438 : 000000000000000;
3439 : 000000000000000;
3440 : 000000000000000;
3441 : 000000000000000;
3442 : 000000000000000;
3443 : 000000000000000;
3444 : 000000000000000;
3445 : 000000000000000;
3446 : 000000000000000;
3447 : 000000000000000;
3448 : 000000000000000;
3449 : 000000000000000;
3450 : 000000000000000;
3451 : 000000000000000;
3452 : 000000000000000;
3453 : 000000000000000;
3454 : 000000000000000;
3455 : 000000000000000;
3456 : 000000000000000;
3457 : 000000000000000;
3458 : 000000000000000;
3459 : 000000000000000;
3460 : 000000000000000;
3461 : 000000000000000;
3462 : 000000000000000;
3463 : 000000000000000;
3464 : 000000000000000;
3465 : 000000000000000;
3466 : 000000000000000;
3467 : 000000000000000;
3468 : 000000000000000;
3469 : 000000000000000;
3470 : 000000000000000;
3471 : 000000000000000;
3472 : 000000000000000;
3473 : 000000000000000;
3474 : 000000000000000;
3475 : 000000000000000;
3476 : 000000000000000;
3477 : 000000000000000;
3478 : 000000000000000;
3479 : 000000000000000;
3480 : 000000000000000;
3481 : 000000000000000;
3482 : 000000000000000;
3483 : 000000000000000;
3484 : 000000000000000;
3485 : 000000000000000;
3486 : 000000000000000;
3487 : 000000000000000;
3488 : 000000000000000;
3489 : 000000000000000;
3490 : 000000000000000;
3491 : 000000000000000;
3492 : 000000000000000;
3493 : 000000000000000;
3494 : 000000000000000;
3495 : 000000000000000;
3496 : 000000000000000;
3497 : 000000000000000;
3498 : 000000000000000;
3499 : 000000000000000;
3500 : 000000000000000;
3501 : 000000000000000;
3502 : 000000000000000;
3503 : 000000000000000;
3504 : 000000000000000;
3505 : 000000000000000;
3506 : 000000000000000;
3507 : 000000000000000;
3508 : 000000000000000;
3509 : 000000000000000;
3510 : 000000000000000;
3511 : 000000000000000;
3512 : 000000000000000;
3513 : 000000000000000;
3514 : 000000000000000;
3515 : 000000000000000;
3516 : 000000000000000;
3517 : 000000000000000;
3518 : 000000000000000;
3519 : 000000000000000;
3520 : 000000000000000;
3521 : 000000000000000;
3522 : 000000000000000;
3523 : 000000000000000;
3524 : 000000000000000;
3525 : 000000000000000;
3526 : 000000000000000;
3527 : 000000000000000;
3528 : 000000000000000;
3529 : 000000000000000;
3530 : 000000000000000;
3531 : 000000000000000;
3532 : 000000000000000;
3533 : 000000000000000;
3534 : 000000000000000;
3535 : 000000000000000;
3536 : 000000000000000;
3537 : 000000000000000;
3538 : 000000000000000;
3539 : 000000000000000;
3540 : 000000000000000;
3541 : 000000000000000;
3542 : 000000000000000;
3543 : 000000000000000;
3544 : 000000000000000;
3545 : 000000000000000;
3546 : 000000000000000;
3547 : 000000000000000;
3548 : 000000000000000;
3549 : 000000000000000;
3550 : 000000000000000;
3551 : 000000000000000;
3552 : 000000000000000;
3553 : 000000000000000;
3554 : 000000000000000;
3555 : 000000000000000;
3556 : 000000000000000;
3557 : 000000000000000;
3558 : 000000000000000;
3559 : 000000000000000;
3560 : 000000000000000;
3561 : 000000000000000;
3562 : 000000000000000;
3563 : 000000000000000;
3564 : 000000000000000;
3565 : 000000000000000;
3566 : 000000000000000;
3567 : 000000000000000;
3568 : 000000000000000;
3569 : 000000000000000;
3570 : 000000000000000;
3571 : 000000000000000;
3572 : 000000000000000;
3573 : 000000000000000;
3574 : 000000000000000;
3575 : 000000000000000;
3576 : 000000000000000;
3577 : 000000000000000;
3578 : 000000000000000;
3579 : 000000000000000;
3580 : 000000000000000;
3581 : 000000000000000;
3582 : 000000000000000;
3583 : 000000000000000;
3584 : 000000000000000;
3585 : 000000000000000;
3586 : 000000000000000;
3587 : 000000000000000;
3588 : 000000000000000;
3589 : 000000000000000;
3590 : 000000000000000;
3591 : 000000000000000;
3592 : 000000000000000;
3593 : 000000000000000;
3594 : 000000000000000;
3595 : 000000000000000;
3596 : 000000000000000;
3597 : 000000000000000;
3598 : 000000000000000;
3599 : 000000000000000;
3600 : 000000000000000;
3601 : 000000000000000;
3602 : 000000000000000;
3603 : 000000000000000;
3604 : 000000000000000;
3605 : 000000000000000;
3606 : 000000000000000;
3607 : 000000000000000;
3608 : 000000000000000;
3609 : 000000000000000;
3610 : 000000000000000;
3611 : 000000000000000;
3612 : 000000000000000;
3613 : 000000000000000;
3614 : 000000000000000;
3615 : 000000000000000;
3616 : 000000000000000;
3617 : 000000000000000;
3618 : 000000000000000;
3619 : 000000000000000;
3620 : 000000000000000;
3621 : 000000000000000;
3622 : 000000000000000;
3623 : 000000000000000;
3624 : 000000000000000;
3625 : 000000000000000;
3626 : 000000000000000;
3627 : 000000000000000;
3628 : 000000000000000;
3629 : 000000000000000;
3630 : 000000000000000;
3631 : 000000000000000;
3632 : 000000000000000;
3633 : 000000000000000;
3634 : 000000000000000;
3635 : 000000000000000;
3636 : 000000000000000;
3637 : 000000000000000;
3638 : 000000000000000;
3639 : 000000000000000;
3640 : 000000000000000;
3641 : 000000000000000;
3642 : 000000000000000;
3643 : 000000000000000;
3644 : 000000000000000;
3645 : 000000000000000;
3646 : 000000000000000;
3647 : 000000000000000;
3648 : 000000000000000;
3649 : 000000000000000;
3650 : 000000000000000;
3651 : 000000000000000;
3652 : 000000000000000;
3653 : 000000000000000;
3654 : 000000000000000;
3655 : 000000000000000;
3656 : 000000000000000;
3657 : 000000000000000;
3658 : 000000000000000;
3659 : 000000000000000;
3660 : 000000000000000;
3661 : 000000000000000;
3662 : 000000000000000;
3663 : 000000000000000;
3664 : 000000000000000;
3665 : 000000000000000;
3666 : 000000000000000;
3667 : 000000000000000;
3668 : 000000000000000;
3669 : 000000000000000;
3670 : 000000000000000;
3671 : 000000000000000;
3672 : 000000000000000;
3673 : 000000000000000;
3674 : 000000000000000;
3675 : 000000000000000;
3676 : 000000000000000;
3677 : 000000000000000;
3678 : 000000000000000;
3679 : 000000000000000;
3680 : 000000000000000;
3681 : 000000000000000;
3682 : 000000000000000;
3683 : 000000000000000;
3684 : 000000000000000;
3685 : 000000000000000;
3686 : 000000000000000;
3687 : 000000000000000;
3688 : 000000000000000;
3689 : 000000000000000;
3690 : 000000000000000;
3691 : 000000000000000;
3692 : 000000000000000;
3693 : 000000000000000;
3694 : 000000000000000;
3695 : 000000000000000;
3696 : 000000000000000;
3697 : 000000000000000;
3698 : 000000000000000;
3699 : 000000000000000;
3700 : 000000000000000;
3701 : 000000000000000;
3702 : 000000000000000;
3703 : 000000000000000;
3704 : 000000000000000;
3705 : 000000000000000;
3706 : 000000000000000;
3707 : 000000000000000;
3708 : 000000000000000;
3709 : 000000000000000;
3710 : 000000000000000;
3711 : 000000000000000;
3712 : 000000000000000;
3713 : 000000000000000;
3714 : 000000000000000;
3715 : 000000000000000;
3716 : 000000000000000;
3717 : 000000000000000;
3718 : 000000000000000;
3719 : 000000000000000;
3720 : 000000000000000;
3721 : 000000000000000;
3722 : 000000000000000;
3723 : 000000000000000;
3724 : 000000000000000;
3725 : 000000000000000;
3726 : 000000000000000;
3727 : 000000000000000;
3728 : 000000000000000;
3729 : 000000000000000;
3730 : 000000000000000;
3731 : 000000000000000;
3732 : 000000000000000;
3733 : 000000000000000;
3734 : 000000000000000;
3735 : 000000000000000;
3736 : 000000000000000;
3737 : 000000000000000;
3738 : 000000000000000;
3739 : 000000000000000;
3740 : 000000000000000;
3741 : 000000000000000;
3742 : 000000000000000;
3743 : 000000000000000;
3744 : 000000000000000;
3745 : 000000000000000;
3746 : 000000000000000;
3747 : 000000000000000;
3748 : 000000000000000;
3749 : 000000000000000;
3750 : 000000000000000;
3751 : 000000000000000;
3752 : 000000000000000;
3753 : 000000000000000;
3754 : 000000000000000;
3755 : 000000000000000;
3756 : 000000000000000;
3757 : 000000000000000;
3758 : 000000000000000;
3759 : 000000000000000;
3760 : 000000000000000;
3761 : 000000000000000;
3762 : 000000000000000;
3763 : 000000000000000;
3764 : 000000000000000;
3765 : 000000000000000;
3766 : 000000000000000;
3767 : 000000000000000;
3768 : 000000000000000;
3769 : 000000000000000;
3770 : 000000000000000;
3771 : 000000000000000;
3772 : 000000000000000;
3773 : 000000000000000;
3774 : 000000000000000;
3775 : 000000000000000;
3776 : 000000000000000;
3777 : 000000000000000;
3778 : 000000000000000;
3779 : 000000000000000;
3780 : 000000000000000;
3781 : 000000000000000;
3782 : 000000000000000;
3783 : 000000000000000;
3784 : 000000000000000;
3785 : 000000000000000;
3786 : 000000000000000;
3787 : 000000000000000;
3788 : 000000000000000;
3789 : 000000000000000;
3790 : 000000000000000;
3791 : 000000000000000;
3792 : 000000000000000;
3793 : 000000000000000;
3794 : 000000000000000;
3795 : 000000000000000;
3796 : 000000000000000;
3797 : 000000000000000;
3798 : 000000000000000;
3799 : 000000000000000;
3800 : 000000000000000;
3801 : 000000000000000;
3802 : 000000000000000;
3803 : 000000000000000;
3804 : 000000000000000;
3805 : 000000000000000;
3806 : 000000000000000;
3807 : 000000000000000;
3808 : 000000000000000;
3809 : 000000000000000;
3810 : 000000000000000;
3811 : 000000000000000;
3812 : 000000000000000;
3813 : 000000000000000;
3814 : 000000000000000;
3815 : 000000000000000;
3816 : 000000000000000;
3817 : 000000000000000;
3818 : 000000000000000;
3819 : 000000000000000;
3820 : 000000000000000;
3821 : 000000000000000;
3822 : 000000000000000;
3823 : 000000000000000;
3824 : 000000000000000;
3825 : 000000000000000;
3826 : 000000000000000;
3827 : 000000000000000;
3828 : 000000000000000;
3829 : 000000000000000;
3830 : 000000000000000;
3831 : 000000000000000;
3832 : 000000000000000;
3833 : 000000000000000;
3834 : 000000000000000;
3835 : 000000000000000;
3836 : 000000000000000;
3837 : 000000000000000;
3838 : 000000000000000;
3839 : 000000000000000;
3840 : 000000000000000;
3841 : 000000000000000;
3842 : 000000000000000;
3843 : 000000000000000;
3844 : 000000000000000;
3845 : 000000000000000;
3846 : 000000000000000;
3847 : 000000000000000;
3848 : 000000000000000;
3849 : 000000000000000;
3850 : 000000000000000;
3851 : 000000000000000;
3852 : 000000000000000;
3853 : 000000000000000;
3854 : 000000000000000;
3855 : 000000000000000;
3856 : 000000000000000;
3857 : 000000000000000;
3858 : 000000000000000;
3859 : 000000000000000;
3860 : 000000000000000;
3861 : 000000000000000;
3862 : 000000000000000;
3863 : 000000000000000;
3864 : 000000000000000;
3865 : 000000000000000;
3866 : 000000000000000;
3867 : 000000000000000;
3868 : 000000000000000;
3869 : 000000000000000;
3870 : 000000000000000;
3871 : 000000000000000;
3872 : 000000000000000;
3873 : 000000000000000;
3874 : 000000000000000;
3875 : 000000000000000;
3876 : 000000000000000;
3877 : 000000000000000;
3878 : 000000000000000;
3879 : 000000000000000;
3880 : 000000000000000;
3881 : 000000000000000;
3882 : 000000000000000;
3883 : 000000000000000;
3884 : 000000000000000;
3885 : 000000000000000;
3886 : 000000000000000;
3887 : 000000000000000;
3888 : 000000000000000;
3889 : 000000000000000;
3890 : 000000000000000;
3891 : 000000000000000;
3892 : 000000000000000;
3893 : 000000000000000;
3894 : 000000000000000;
3895 : 000000000000000;
3896 : 000000000000000;
3897 : 000000000000000;
3898 : 000000000000000;
3899 : 000000000000000;
3900 : 000000000000000;
3901 : 000000000000000;
3902 : 000000000000000;
3903 : 000000000000000;
3904 : 000000000000000;
3905 : 000000000000000;
3906 : 000000000000000;
3907 : 000000000000000;
3908 : 000000000000000;
3909 : 000000000000000;
3910 : 000000000000000;
3911 : 000000000000000;
3912 : 000000000000000;
3913 : 000000000000000;
3914 : 000000000000000;
3915 : 000000000000000;
3916 : 000000000000000;
3917 : 000000000000000;
3918 : 000000000000000;
3919 : 000000000000000;
3920 : 000000000000000;
3921 : 000000000000000;
3922 : 000000000000000;
3923 : 000000000000000;
3924 : 000000000000000;
3925 : 000000000000000;
3926 : 000000000000000;
3927 : 000000000000000;
3928 : 000000000000000;
3929 : 000000000000000;
3930 : 000000000000000;
3931 : 000000000000000;
3932 : 000000000000000;
3933 : 000000000000000;
3934 : 000000000000000;
3935 : 000000000000000;
3936 : 000000000000000;
3937 : 000000000000000;
3938 : 000000000000000;
3939 : 000000000000000;
3940 : 000000000000000;
3941 : 000000000000000;
3942 : 000000000000000;
3943 : 000000000000000;
3944 : 000000000000000;
3945 : 000000000000000;
3946 : 000000000000000;
3947 : 000000000000000;
3948 : 000000000000000;
3949 : 000000000000000;
3950 : 000000000000000;
3951 : 000000000000000;
3952 : 000000000000000;
3953 : 000000000000000;
3954 : 000000000000000;
3955 : 000000000000000;
3956 : 000000000000000;
3957 : 000000000000000;
3958 : 000000000000000;
3959 : 000000000000000;
3960 : 000000000000000;
3961 : 000000000000000;
3962 : 000000000000000;
3963 : 000000000000000;
3964 : 000000000000000;
3965 : 000000000000000;
3966 : 000000000000000;
3967 : 000000000000000;
3968 : 000000000000000;
3969 : 000000000000000;
3970 : 000000000000000;
3971 : 000000000000000;
3972 : 000000000000000;
3973 : 000000000000000;
3974 : 000000000000000;
3975 : 000000000000000;
3976 : 000000000000000;
3977 : 000000000000000;
3978 : 000000000000000;
3979 : 000000000000000;
3980 : 000000000000000;
3981 : 000000000000000;
3982 : 000000000000000;
3983 : 000000000000000;
3984 : 000000000000000;
3985 : 000000000000000;
3986 : 000000000000000;
3987 : 000000000000000;
3988 : 000000000000000;
3989 : 000000000000000;
3990 : 000000000000000;
3991 : 000000000000000;
3992 : 000000000000000;
3993 : 000000000000000;
3994 : 000000000000000;
3995 : 000000000000000;
